#version: 0.2
Ġ t
h e
Ġt he
Ġ a
e r
i n
a l
Ġ o
o r
n d
Ġ s
Ġ p
Ġo f
e s
a t
o n
Ġ c
a r
e n
i s
Ġ m
Ġ f
Ġ b
Ġa nd
t er
i c
Ġ in
u s
r e
r o
Ġ l
a n
i t
e d
l e
a c
i or
i g
Ġ w
Ġt o
Ġ d
o s
a s
v e
Ġ n
i on
T he
en t
in g
u l
Ġ is
l y
u r
i d
Ġt h
Ġ e
c t
o m
Ġ (
ter ior
u p
i al
Ġ v
Ġa n
u m
Ġa r
r a
F ig
us c
er ior
Ġn er
i b
Ġ re
Ġ g
r an
e l
Ġm usc
ro m
Ġf or
i l
er al
Ġs up
t e
Ġb e
Ġ h
o t
Ġp os
m ent
Ġf rom
Ġa re
ar t
Ġar ter
t r
) .
Ġ r
it h
Ġner ve
es s
Ġo r
Ġc on
Ġw ith
ul ar
at eral
i m
c h
o l
g e
Ġa s
ar y
Ġm a
Ġ The
in al
o w
Ġo n
ro u
p h
e m
al l
Ġb y
Ġpos terior
Ġan terior
e ct
Ġe x
o d
Ġw h
e p
Ġarter y
v er
Ġp ro
t o
u n
at e
at ion
ac h
Ġs p
l a
u b
Ġin f
s e
ic h
in e
Ġ I
Ġwh ich
Ġ j
Ġm ed
o us
Ġl e
t ic
Ġa t
Ġl ateral
Ġs ur
l es
Ġmusc le
Ġc a
at ed
as s
i es
ac e
u t
i a
c e
ig h
i r
g h
a d
u ct
Ġ it
a m
Ġp art
Ġa l
o c
Ġc om
t al
o in
o id
Ġ he
Ġp ass
ter n
Ġd e
u re
Ġb ran
on e
rou gh
Ġsup erior
Ġ ve
â Ģ
Ġin to
Ġth rough
r al
Ġa b
Ġinf erior
Ġ A
v es
t he
Ġmusc les
Ġve in
Ġt r
ic al
it y
e c
Ġc an
y m
t h
Ġmed ial
Ġth at
he s
le x
Ġsur f
igh t
on g
oin t
er v
f t
t a
Ġ 8
Ġca v
t w
e en
en s
l o
te b
tw een
Ġp er
Ġv er
tern al
a p
es t
Ġf ib
p er
Ġ T
Ġbe tween
Ġd is
an g
a ment
e nd
ig ament
Ġw all
I n
Ġsurf ace
Ġfor m
y s
c c
id e
or d
at ic
c hes
i f
l u
Ġl igament
Ġj oint
Ġcom p
or al
er s
os s
a g
Ġb one
Ġ ra
ary n
at es
i p
Ġ en
d om
ar d
v ic
u e
Ġp at
Ġver teb
t in
Ġcav ity
Ġm id
nd s
Ġsup p
ĠI t
Ġ C
Ġp al
Ġin ter
Ġre g
ar g
Ġat t
Ġs c
i ve
Ġa d
Ġ up
i ent
i e
it ion
Ġr ight
Ġreg ion
ym p
i v
Ġner ves
o p
Ġc l
in s
o ve
Ġbran ches
Ġab dom
ro s
Ġp l
ur es
il l
s o
Ġde ep
u nd
an t
tr uct
ac t
w o
Ġs ide
Ġin n
he n
the r
Ġp el
Ġc o
c ess
as c
Ġ [
Ġpass es
u c
I I
Ġin c
or m
Ġs h
a b
Ġt wo
e ar
Ġbran ch
Ġle ft
a ge
or t
u al
on s
Ġc ar
Ġma y
Ġinn erv
e t
Ġs m
Ġ im
el l
Ġhe ad
Ġa p
Ġn ec
as t
Ġor ig
is s
re at
Ġs k
an e
Ġth is
o g
Ġb od
oss a
Ġpat ient
is t
um b
a y
Ġf ossa
Ġt end
Ġl ow
Ġas s
il i
y g
it al
Ġorig in
at or
Ġc ol
ess el
m on
Ġen ter
Ġ S
Ġpro cess
Ġo b
Ġ ro
Ġs ub
Ġf o
i re
Ġup per
a nd
ran s
ge al
or s
Ġs truct
ct ion
Ġit s
l i
ĠI n
Ġm arg
or ac
n e
Ġv essel
Ġfib ers
rou nd
Ġsm all
os t
Ġ 4
Ġlow er
ens or
Ġp h
Ġo p
Ġt ub
Ġpel vic
Ġnec k
Ġal so
Ġvein s
) ,
Ġf em
Ġ us
Ġfor am
f ic
Ġ L
ra in
j or
as e
te m
Ġ 7
Ġ B
Ġo cc
Ġra d
Ġabdom inal
q u
Ġ 6
Ġp ar
or e
Ġe ach
b ran
Ġarter ies
Ġbod y
ĠT h
Ġr es
ie w
d le
Ġex t
e b
Ġw as
Ġsp inal
Ġb r
Ġa x
Ġsupp ly
at he
Ġcon s
oc i
Ġs t
Ġb on
Ġt rans
ill ary
Ġma jor
Ġvessel s
Ġl ong
lex us
d e
p ect
em bran
Ġp r
Ġp lexus
Ġp re
Ġg la
Ġcon tin
ang l
y p
Ġn ot
aryn geal
Ġ k
ĠTh is
i z
s t
er fic
erfic ial
Ġass oci
i an
ve l
Ġcan al
Ġv is
Ġc h
Ġf lex
Ġforam en
Ġf asc
Ġv iew
orac ic
o ph
re e
w ard
l ow
d uct
p oral
Ġmarg in
Ġm embran
Ġc ord
r ic
Ġd ia
ym ph
Ġn e
Ġassoci ated
Ġin ternal
Ġe nd
ac he
Ġc or
i um
Ġmid dle
en ing
Ġverteb ral
he re
lo od
Ġverteb ra
ymp athe
ympathe tic
âĢ Ķ
Ġstruct ures
Ġcontin u
Ġinc lu
er m
us e
x im
Ġcl in
Ġth oracic
Ġ ili
Ġs e
i ang
o nd
Ġatt ach
as al
Ġthe se
n ect
Ġd es
Ġar tic
ab le
Ġfasc ia
Ġo ver
ul t
Ġap p
Ġ P
Ġs o
Ġg ro
ot h
Ġtr iang
os terior
ib ular
u d
Ġl im
Ġb lood
un k
Ġpos ition
em poral
ys tem
ar ge
om e
Ġg reat
Ġ 3
Ġw here
ib le
Ġtr unk
Ġh as
angl ion
ion s
Ġs ep
ment s
Ġa or
Ġs ac
Ġmembran e
it e
os tal
i us
Ġex ternal
Ġ M
Ġs ystem
Ġo ther
Ġr ib
erv ical
Ġl ay
Ġsup erficial
Ġf r
Ġbe c
ros s
art il
Ġ 5
ra g
Ġtend on
Ġe m
ran ial
y ro
ate ly
Ġle vel
Ġas pect
a ve
Ġ ul
Ġf ol
Ġn od
Ġbr ach
f er
u ch
Ġm ost
Ġor b
o v
Ġd ig
in us
at ing
Ġcon nect
ot id
Ġlim b
Ġon e
A n
o f
he r
at us
Ġre l
at ine
Ġcomp art
Ġb ord
us t
Ġt iss
Ġfo ot
os e
k e
ter yg
Ġd ire
Ġcom mon
Ġsk in
ul a
Ġc artil
Ġd iv
Ġtub er
Ġn asal
ver se
d er
Ġa round
tr ic
u inal
Ġs inus
Ġdis tal
Ġc r
Ġc er
un ction
Ġt ib
Ġper ine
Ġal ong
Ġbon es
al ly
Ġv en
Ġocc ur
Ġd ors
v is
Ġcon tr
Ġgla nd
ph rag
Ġili ac
phrag m
nd ing
Ġin s
Ġclin ic
ul l
ag us
Ġex te
q ue
lu te
Ġwith in
aryn x
ual ly
Ġc ervical
Ġd rain
Ġth ree
il la
Ġc ranial
Ġim p
f erior
r ess
Ġth igh
Ġd ur
ac es
Ġ 2
Ġb el
Ġb ase
Ġthe n
Ġa cc
Ġre ct
j ac
Ġp teryg
Ġl arge
t ur
up erior
Ġma nd
j ect
Ġdes ce
Ġp a
Ġd uct
m ed
yro id
g uinal
ĠThe se
Ġm ove
Ġg lute
Ġlay er
1 0
Ġa c
Ġgreat er
Ġl ine
lo p
Ġcons ist
Ġcer eb
Ġcompart ment
Ġbord er
Ġform ed
Ġinnerv ated
a use
Ġ und
Ġo ut
ache d
i le
Ġt emporal
ent ric
Ġe y
ot or
ta in
âĢ Ļ
Ġnod es
Ġ un
en al
Ġl ymph
it or
Ġdia phragm
ac k
Ġma in
Ġthe re
Ġ âĢ
Ġt erm
Ġt ra
Ġthe y
en ter
ensor y
Ġinclu de
Ġfem oral
jac ent
an ce
Ġanterior ly
Ġlateral ly
Ġro ot
Ġad jacent
Ġattach ment
Ġaor ta
l ine
y oid
Ġl o
Ġtriang le
g ular
id es
um er
if ic
Ġul n
le t
Ġ O
Ġin guinal
Ġra m
Ġorigin ates
om atic
Ġar ch
an c
ed ial
ir c
Ġvis c
Ġ 9
Ġl i
Ġpart s
ve lop
Ġg en
e Fig
Ġinter c
Ġtrans verse
f ore
g n
ane ous
Ġartic ul
u ter
er t
Ġmid line
Ġp en
en ce
Ġatt ached
ear m
og ra
ne e
Ġ F
at om
Ġ ure
it one
Ġc ell
Ġenter s
ig n
Ġposterior ly
un g
Ġflex or
on tal
Ġl umb
Ġw hen
x illary
ut aneous
Ġcar otid
Ġm et
Ġle g
Ġm es
Ġl oc
Ġf ac
Ġare a
ar s
to id
Ġjoint s
t en
Ġa f
Ġde velop
Ġfor earm
Ġk nee
os is
ib ut
Ġsp ace
Ġund er
1 2
Ġsur g
Ġsep ar
ent s
ur al
Ġh ave
ymp an
Ġdire ct
in a
in ous
Ġp ul
Ġh and
Ġdors al
Ġus ually
xim al
Ġglute al
Ġm e
ĠA n
Ġligament s
Ġcartil age
ir st
Ġs ec
ol ateral
Ġregion s
s h
p al
Ġj ust
Ġab ove
Ġ V
Ġj oin
Ġsc ap
Ġar is
Ġinferior ly
Ġt yp
Ġf ace
Ġor al
Ġ es
Ġs ensory
Ġc ross
ic ular
Ġbel ow
Ġthe ir
in d
m oid
Ġl ung
it s
Ġsub c
li que
i as
Ġrad ial
An terior
Ġtiss ue
orm al
P osterior
l oss
y n
an s
ow n
ect ion
Ġpro d
Ġins ert
o ut
Ġ D
Ġc irc
Ġm an
Ġb re
Ġs tern
Ġs ympathetic
ul um
âĢ Ŀ
ical ly
Ġvertebra e
med i
ogra ph
o und
Ġm in
Ġm at
Ġin j
Ġw om
Ġar m
duct or
Ġcontinu es
Ġpro ximal
Ġb ut
Ġe p
ir d
Ġpass ing
lo or
Ġm en
la v
Ġco ver
Ġob lique
tur ator
l ies
z yg
Ġf irst
teb ral
ap ed
c le
re as
Ġpal p
Ġmes enter
Ġfac ial
d ition
Ġth yroid
Ġsurf aces
mon ary
la d
u le
Ġpro ject
Ġpl ane
Ġfol d
Ġpa in
Ġsuperior ly
Ġpatient s
Ġlong us
lad der
Ġe le
Ġper f
ort ant
Ġorb it
ĠâĢ ľ
al c
Ġb ack
Ġre m
Ġinj ur
Ġf loor
Ġl ess
ent ral
Ġas ce
uc le
or y
Ġm ore
Ġconsist s
g anglion
i x
i atic
Ġp ub
at h
Ġe ar
Ġmedial ly
Ġcar r
Ġt e
Ġo v
os se
Ġop ening
Ġd ep
ep s
ant ar
Ġre c
ep t
u gular
Ġ qu
Ġm otor
os ed
if orm
Ġext ensor
ganglion ic
Ġhe art
Ġsec ond
i ed
Ġn ucle
Ġg anglion
Ġtr act
Ġgro up
Ġbec ause
la vic
Ġpteryg oid
Ġp oint
ter olateral
ro us
Ġr ing
ph al
Ġfib ular
Ġco ur
Ġapp ro
E x
y l
ta b
h yoid
m ar
Ġdur ing
Ġes oph
e x
Ġf ing
Ġsk ull
Ġrad i
Ġax illary
Ġfr act
Ġform s
Ġf unction
it ies
Ġv entric
Ġres ult
Ġbrach i
Ġmand ible
l ic
p s
Ġf iss
Ġex am
ation s
Ġsp hen
Ġtib ial
Ġlo b
V II
w ay
Ġs yn
In ferior
Ġsc iatic
Ġpl antar
Ġlumb ar
c us
i ly
Ġs ome
Ġm al
Ġal l
Ġfo ur
Ġse g
i ac
ver tebral
Ġco nd
Ġrel ated
Ġad dition
as ympathetic
ol ar
Ġin v
as toid
Ġinterc ostal
c y
l en
Ġt est
ip ital
Ġuln ar
Ġd o
Ġex p
Ġpal atine
Ġcor on
umer us
Ġcon t
Ġimp ortant
S uperior
o ul
t ure
Ġp le
Ġv est
Ġan g
Ġli ver
u gh
Ġe l
Ġabdom en
Ġpel vis
Ġexte nds
medi ately
u od
Ġbon y
ars al
1 1
L ateral
c ed
Ġin d
ac r
ong ue
Ġper itone
Ġprocess es
Ġrib s
ympan ic
Ġa tr
um n
Ġj ugular
f lex
Ġsupp lies
Ġcell s
or a
as tric
Ġh umerus
op l
Ġcontinu ous
Ġl ab
il ar
Ġperine al
Ġ R
Ġth an
im al
Ġcol umn
Ġext ens
ive ly
L e
Ġfor ward
ĠThe y
ta ins
Ġcr est
sh aped
g en
v ent
al atine
Ġl arg
Ġal low
Ġcav a
Ġtub e
Ġpul monary
i ves
Ġ H
Ġt ongue
Ġl ies
Ġd em
ress ion
Ġsubc lav
tin um
Ġinter osse
Ġven a
ias tinum
Ġwom en
alc ane
Ġqu ad
Ġs he
Ġsp ine
asc ular
Ġob turator
Ġro t
Ġgla nds
Ġscap ula
Ġs ign
Ġsup r
Ġh or
Ġmed iastinum
Ġtuber cle
Ġperine um
Ġfiss ure
Ġt um
er a
Ġf e
ro w
Ġhe m
opl ite
in ation
th moid
Ġim mediately
Ġorigin ate
Ġure th
acr imal
Ġ 1
Ġb oth
it her
ch le
Ġmed ian
Ġcol on
Ġmain ly
Ġpen is
Ġs er
Ġp ort
Ġc utaneous
Ġwall s
Ġpar asympathetic
Ġinclu d
Ġartic ular
) :
ol og
Ġsur round
ĠA s
ast ro
Ġven ous
Ġdesce nds
Ġless er
f ect
ic eps
Ġe ither
ge ther
Ġus ed
om p
Ġbe g
Ġma xillary
Ġpal ate
Ġdirect ly
Ġdis c
m e
in ed
Ġp o
Ġof ten
Ġcon tains
Ġon to
Ġfem ur
Ġ uter
Ġh yp
Ġor g
ons tr
and ibular
Ġfol low
Ġinv ol
Ġdem onstr
u ro
Ġb rain
Ġin t
id ed
Ġpro v
ub er
Ġax illa
Ġmat er
T able
ac hes
Ġph aryngeal
Ġesoph agus
Ġex c
Ġbrach ial
Ġp et
id ne
op alatine
t um
v ator
Ġ zyg
Ġd own
Ġis ch
Ġsphen oid
Ġp ect
Ġsc al
Ġmesenter ic
M edial
a e
o ugh
Ġtend ons
tric t
itor um
Ġg astro
Ġdis e
og loss
Ġstruct ure
Ġocc ipital
Ġso ft
Ġvisc eral
k s
Ġb ow
Ġhe r
Ġin let
un ic
Ġk idne
n el
at ure
Ġc ostal
Ġon ly
Ġram i
Ġgen eral
Ġinjur y
1 5
Ġc ur
is ion
Ġb ladder
Ġe thmoid
Ġle a
ys is
Ġlymph atic
u ce
Ġb as
re d
Ġre p
fer ent
Ġbre vis
Ġm ar
iz ed
Ġtuber os
Ġpub ic
Ġsubclav ian
oplite al
Ġzyg omatic
Ġ W
Ġs uch
Ġl aryngeal
II I
Ġrect us
on t
Ġm ening
Ġw r
Ġn ear
Ġtib ia
T h
m ic
Ġp anc
it t
Ġca us
Ġne ur
ic k
Ġv ag
Ġmove ment
Ġ E
Ġdig itorum
Ġface t
Ġcour se
ora x
Le ft
Ġbow el
1 4
u es
Ġt al
Ġc ard
Ġc entral
Ġd if
Ġv ar
ver s
Ġver tic
Ġpat h
Ġm y
Ġm uc
ic ard
Ġh ip
ast om
Ġpr ess
Ġoccur s
Ġa ct
Ġto gether
Ġth ird
Ġe nds
Ġan atom
Ġsh oul
Ġac ross
Ġterm inal
Ġsurg ical
c op
e th
1 3
k ed
p inal
Ġa per
Ġf lu
ing ual
Ġv agus
ra ins
Ġr enal
ros is
Ġpl ate
li ke
duct ion
Ġstern um
Ġventric le
al f
or is
Ġs im
Ġl in
ac ar
Ġn umb
Ġan astom
ow ing
hes t
Ġcomp on
Ġpal at
Ġpr im
Ġcereb ell
e ep
k le
is e
Ġan al
Ġfem oris
Ġem er
Ġcereb ral
Ġte eth
Ġwr ist
Ġc alcane
ch n
ag es
Ġgro ove
Ġram us
Ġre tin
Ġcom m
Ġacc ess
Ġcoron ary
Ġpress ure
a ft
t om
on ch
Ġinf r
Ġap ex
Ġfr ontal
Ġtiss ues
Ġ X
Ġs w
it is
ch an
th al
Ġad ductor
Ġpr es
Ġvisc era
Ġport ion
] .
i ous
k ing
l l
Ġ Fig
ro ph
ra p
Ġsp ec
Ġfib rous
Ġinnerv ation
ov ial
Ġprod uc
Ġdise ase
c l
n ing
Ġre ce
Ġper icard
Ġpl ac
Ġey eb
Ġlob e
Ġtuberos ity
Ġflu id
Ġnumb er
Ġs em
Ġl arynx
Ġinnerv ate
Ġinnerv ates
Ġaris es
Ġatr ium
R ight
b r
Ġ N
Ġw e
Ġan kle
Ġcav ities
Ġatt aches
Ġmarg ins
Ġcontr ibut
Ġdrain age
Ġaf ter
ĠAn terior
Ġappro xim
Ġbrachi i
r en
r um
v ed
Ġ ed
Ġp opliteal
Ġm ass
ator y
Ġdiv ides
Ġthere fore
Ġmin or
Ġinterosse ous
n er
Ġd am
Ġd uod
ur ther
un t
se e
Ġle vator
ap ular
Ġop en
Ġrad ius
Ġaor tic
Ġele v
b ow
Ġf l
Ġh o
oc cy
âĢ ¢
ie tal
Ġob s
Ġnot ch
Ġtriang ular
Ġsinus es
Ġmand ibular
. ,
Ġ U
Ġa g
Ġp rom
ar ies
Ġn ormal
Ġre fer
ph thal
Ġpro ced
am e
Ġcons trict
ific ant
lavic le
Ġfract ure
p le
t uber
u te
ur a
um eral
Ġbe fore
Ġdia gn
phal ic
A r
n oid
Ġn o
Ġn ar
ach noid
Ġbod ies
Ġsac ral
Ġeyeb all
e al
i ate
r atus
or b
Ġin tr
ve olar
Ġth umb
ire d
Ġexte nd
e z
l ateral
usc les
end al
Ġvis ual
oph aryngeal
ud endal
Ġconnect ive
Ġcross es
x illa
Ġ rou
Ġl acrimal
om y
ol d
Ġj unction
ache a
Ġureth ra
phthal mic
c er
y le
y ing
Ġs it
Ġre ach
Ġpal mar
Ġsk e
Ġres p
Ġorb ital
Ġcirc um
Ġmal le
Ġel bow
Ġextens ion
Ġcard iac
Ġcomm unic
e tr
Ġ er
at ive
Ġb ul
os es
ing s
Ġth orax
Ġv al
one u
Ġsupp ort
ins ic
itor is
Ġperf orm
Ġsign ificant
Ġethmoid al
] ,
os a
Ġth ick
ra m
ol us
act ion
Ġass ess
Ġro of
ĠP osterior
Ġmet at
1 6
c ul
in c
Ġs ta
ter s
Ġth in
om es
Ġcl itoris
Ġshe ath
Ġtum or
chle ar
up erficial
Ġg ra
Ġph arynx
ĠL ateral
iz e
Ġsyn ovial
Ġang le
Ġaper ture
a k
a ys
f or
f ul
Ġa m
Ġa ir
at emporal
os cop
om ach
Ġh y
Ġma gn
Ġle ad
iz ontal
Ġradi ograph
r ent
Ġof f
Ġpos t
Ġst omach
Ġprod uce
Ġlea ves
y ear
or k
Ġg ives
Ġop tic
Ġvest ib
Ġperitone um
oneu rosis
e ver
g es
Ġf low
as es
Ġh ad
Ġcon tain
Ġal veolar
Ġsh aft
Ġch an
Ġdire ction
Ġpen etr
Ġmet acar
Ġkidne y
Ġplac ed
Ġt ro
er es
Ġarter ial
ol lic
Ġen l
entric ular
Ġarticul ates
Ġlarg est
Ġapproxim ately
al am
us p
us ion
Ġca ps
Ġsh ort
Ġbr onch
Ġroot s
Ġfing ers
Ġhor izontal
ollic is
A s
D eep
Ġa ur
er y
Ġs l
re ad
Ġl at
it tal
Ġan ter
tr as
ĠA t
ag ittal
ili ary
Ġdes c
Ġbec ome
Ġlevel s
Ġasce nding
Ġpect oral
I V
o ce
v en
Ġs ymph
it ud
le tal
ac ulum
Ġw ill
Ġan y
oc al
Ġpar ietal
Ġso le
Ġtrunk s
ĠO n
Ġfold s
Ġnucle us
Ġrefer red
itud inal
Ġ ent
Ġc ric
Ġinc reas
Ġsepar ated
Ġuter us
Ġher n
tras ound
Ġo phthalmic
Ġs ite
ul ation
il ity
Ġph ys
Ġmove ments
Ġsim ilar
Ġperform ed
A B
Ġ G
Ġt ympanic
in t
Ġs ul
Ġp ollicis
en um
Ġh alf
Ġma xilla
Ġhe p
Ġper ip
Ġcar p
Ġpteryg opalatine
Ġuln a
Ġseg ments
Ġmening eal
l oc
Ġc hest
Ġbe h
Ġma de
Ġde f
reat ment
angl ia
Ġdur a
Ġfing er
Ġseg ment
Ġbeg ins
Ġneur ons
Ġanatom ical
ren ic
i os
Ġe f
Ġar ches
te x
Ġor ient
tern us
ec ause
ang es
ĠC T
Ġpo uch
Ġorg an
Ġprom in
Ġcaps ule
Ġsymph ysis
1 7
a ins
d uc
Ġc lavicle
ly ing
ur rent
Ġg anglia
ran ches
Ġh igh
Ġfib ula
Ġsc an
Ġtra vel
umer ous
Ġov al
Ġinfr atemporal
Ġed ge
m m
he ral
Ġp udendal
om edial
ow ever
em oral
ir iform
ip s
Ġne ed
Ġple ural
Ġfl at
n ess
Ġ ur
ic ul
ing le
Ġan terolateral
ver n
ymp tom
ros al
Ġsh owing
Ġlong itudinal
Ġlay ers
Ġdesce nding
Ġey el
Ġarticul ation
Ġsurg ery
Ġnucle i
Ġexam ination
Ġinclud ing
Ġpet rosal
Ġs ame
Ġf at
Ġb le
as p
id ent
Ġre qu
lo hyoid
truct ion
Ġtra p
o h
u cc
Ġt eres
Ġs ides
ur c
tr ibut
Ġsp read
Ġca p
th ough
itt le
Ġduod enum
Ġnar row
Ġeyel id
a il
Ġc occy
en e
Ġb iceps
ter m
Ġto ward
Ġd el
Ġv ia
ĠThe re
Ġpro st
Ġap oneurosis
Ġsep tum
Ġrect um
Ġrem ov
Ġcarr ied
Ex ternal
Ġcompon ents
Ġproced ure
e ur
r es
v ous
Ġs ingle
Ġs ymptom
en g
Ġv ascular
Ġner vous
Ġr un
ap e
Ġen cl
Ġup ward
iz ation
Ġsurround ing
l an
n ormal
p os
w ays
Ġc he
Ġf ill
Ġf ree
Ġb ro
Ġn as
Fig s
Ġinter v
Ġsh ape
Ġsm o
Ġcol le
Ġpar otid
Ġdig its
Ġme atus
Ġallow s
orb ital
a in
b le
Ġl ittle
om astoid
Ġpos ter
est inal
Ġse ver
Ġacc omp
Ġpanc reas
Ġmuc osa
A t
in ant
or tal
le te
ur s
ial ly
Ġare as
em inal
tic ular
Ġnec ess
li ed
Ġsac rum
Ġaris e
Ġscal p
Ġdiagn osis
Ġer ect
Ġtrap ez
1 8
1 9
2 3
Ġs tr
an geal
Ġw ell
Ġbe en
all ed
Ġle ave
Ġtr achea
Ġform ing
Ġus ing
Ġisch ial
r ib
Ġo uter
is c
Ġre t
Ġh yoid
Ġpos terolateral
un nel
per itone
orm ally
Ġob tain
Ġwhere as
Ġcartil ages
Ġdiv ided
Ġaf fect
Ġexc ept
Ġshoul der
Ġpost ganglionic
Ġcarp i
iriform is
Ġb ound
ic le
ig eminal
Ġg len
all uc
Ġab normal
ys m
Ġapp ear
Ġsepar ates
lavic ular
Ġple ura
Ġdemonstr ated
Ġmetat arsal
int estinal
Ġsul cus
alluc is
Ġm o
Ġl eng
Ġsp inous
th ird
Ġforam ina
Ġpre dom
Ġpalp able
Ġfract ures
Ġvest ibular
Ġind ic
Ġske letal
l ot
t ed
u g
Ġo s
Ġp ed
at ures
Ġf urther
Ġl am
The re
Ġmusc ular
ĠA l
if ied
aryn g
Ġcar pal
Ġbec omes
ogloss al
Ġdam age
Ġcircum flex
Ġperip heral
2 4
Ġs agittal
is ions
ic ond
ul la
Ġh is
ad ial
Ġdis tribut
ĠIt s
Ġim ag
Ġim age
Ġhead s
Ġph al
Ġres pect
Ġclin ical
Ġproject s
Ġperf or
Ġsyn ap
ĠW hen
chn ic
Ġconstrict or
Ġmetacar pal
Ġbeh ind
Ġsymptom s
Ġbro ad
Ġaccomp an
I X
S p
f ter
s es
v eral
Ġt reatment
Ġe as
ĠI f
âĢ ĵ
Ġcomp lete
Ġinter vertebral
so as
Ġpar al
Ġvis ible
Ġtra um
Ġnecess ary
2 0
2 7
f rom
Ġ ile
Ġto e
Ġn umerous
Ġth ose
om a
ot her
Ġr ise
Ġwh ile
Ġca use
Ġsc ro
Ġflex ion
ten oid
Ġinsert s
Ġasce nds
Ġrec urrent
Ġperitone al
Ġgastro intestinal
Ġvertic al
oce phalic
Ġsmo oth
Ġpredom inant
re me
ac ter
ent ly
Ġmusc ul
ph inc
Ġca vern
ap hen
Ġform ation
Ġcomp lex
ors al
Ġpre vertebral
Ġbel ly
Ġli ke
Ġloc ated
Ġjoin s
Ġscap ular
Ġprim ary
Ġhep atic
Ġsever e
Ġleng th
Ġpredominant ly
e g
p ut
r ium
y r
Ġt unnel
Ġo cul
Ġm od
ur n
Ġv ocal
ib ute
Ġsupp lied
Ġpre ganglionic
Ġul trasound
Ġdiv ision
Ġrot ation
Ġgeneral ly
Ġvag inal
chan ter
Ġval ve
Ġpromin ent
lan chnic
N S
Ġt ympan
er e
Ġs ection
Ġp ap
on al
Ġc alled
Ġl es
Ġl ingual
ot ic
umb il
Ġdo es
Ġprov ide
Ġpres ent
Ġdesc rib
I t
c es
i op
w h
ar ter
ar achnoid
Ġb if
Ġan eur
Ġre tur
Ġh allucis
Ġsp in
In ternal
Ġey e
Ġstern oc
ograph y
peritone al
Ġaneur ysm
i atus
p t
Ġt arsal
Ġs omatic
Ġm astoid
Ġin ternus
Ġsp lanchnic
Ġinf ection
Ġca ud
orm ation
Ġpre vent
Ġcor tex
Ġcover ing
Ġdep ression
Ġbrachi ocephalic
Ġinvol ved
ogloss us
Ġeas ily
Ġtympan i
2 6
E ach
T r
l ans
in th
Ġm ult
ig moid
ur ing
Ġre f
Ġpos s
im us
Ġinf la
ous tic
Ġab s
Ġax ons
Ġtrans vers
Ġduct s
Ġman y
Ġcover ed
yl ar
gen ital
Ġlarg er
Ġquad ratus
Ġtal us
Ġaccess ory
Ġmalle olus
Ġvestib ule
aphen ous
c he
Ġ round
il ateral
im e
ĠT able
Ġpal m
Ġcol lateral
Ġac oustic
Ġgroup s
Ġlymphatic s
rains tem
Ġretin aculum
Ġobs truction
alam us
S ub
a v
m andibular
Ġ uro
Ġo l
Ġs phinc
Ġp iriformis
ar e
ar ily
Ġm uch
el la
te ct
Ġr id
ce tab
Ġcan cer
Ġext reme
Ġcontr ibute
Ġrect al
Ġarticul ate
Ġep ig
Ġser ies
X II
i que
o unt
s c
in is
on nect
Ġl ie
Ġd er
ent al
ur f
id er
id dle
el vic
Ġh iatus
ub ic
Ġpart icular
th m
Ġtyp ically
Ġlung s
Ġbre ast
Ġquad ran
Ġint ra
Ġmar ked
Ġcontribut es
Ġorient ed
Ġtraum a
R I
u f
in ator
in atus
Ġs igmoid
Ġp ot
Ġp ortal
Ġb rainstem
Ġin it
Ġl ip
as ion
Ġcl ose
ili z
Ġsmall er
Ġph renic
Ġus e
Ġapp end
Ġconnect s
Ġterm in
Ġloc al
Ġloc ation
Ġdevelop ment
loss opharyngeal
Ġhor n
Ġdown ward
Ġintr insic
Ġpectoral is
asp inatus
F or
n ar
r up
Ġ ir
Ġthe m
Ġo roph
Ġp ull
es the
is p
Ġd il
om mon
Ġg all
Ġinf ormation
reat er
Ġne uro
Ġtyp ical
zyg os
Ġinjur ies
olog ical
Ġlam ina
Ġrespect ively
Ġextreme ly
A d
r on
Ġt urn
Ġt ime
Ġs ut
Ġs tab
on es
le id
Ġn ormally
Ġe v
ge us
oin ferior
Ġde term
ĠA r
erv ation
asc apular
Ġcaus es
Ġlin es
Ġpericard ium
Ġchan nel
Ġent ire
Ġimag ing
leid omastoid
2 5
S uperficial
a nds
i o
t ing
in ary
Ġc re
Ġl oss
om otor
ot ympanic
Ġex its
ub rium
Ġra p
age al
Ġsub d
rans verse
Ġpr on
Ġplexus es
Ġk n
ĠM uscles
Ġterm ed
Ġep icond
Ġfe atures
Ġdif ferent
Ġag ains
Ġprost ate
Ġbif urc
Ġpot ent
Ġagains t
W hen
f und
r h
s ide
Ġ umbil
Ġt ear
in i
Ġs ize
Ġto es
Ġre cess
ph oid
Ġinf ra
am en
Ġhe l
Ġtr igeminal
Ġsupply ing
Ġdesce nd
Ġure ter
Ġtyp e
Ġcarr ies
Ġinclud es
Ġvertic ally
Ġmy lohyoid
P er
u it
at ively
Ġc ub
Ġb ucc
an terior
Ġd rains
Ġn ose
Ġth yro
om andibular
el iac
il d
Ġve li
iv ed
Ġext ra
Ġdep ress
Ġpalat ini
Ġresp ir
oh umeral
Ġinterv entricular
Ġtrapez ius
aryng otympanic
Ġscro tum
urf ace
C on
p l
p ro
Ġ ident
Ġp soas
Ġw ing
Ġan esthe
Ġtr iceps
ight ly
ip le
Ġsub arachnoid
Ġop ens
Ġcompart ments
Ġlab yr
Ġorg ans
Ġsit es
Ġbul b
thm us
Ġlabyr inth
4 5
N er
O n
j un
y ram
Ġp la
ar acter
Ġw ere
Ġto m
Ġd ue
Ġr est
se qu
In ter
Ġcl osed
Ġem b
Ġbord ers
Ġpalp ated
Ġtum ors
olog y
Ġfollow s
Ġact iv
Ġspec ific
Ġobtain ed
Ġsphinc ter
Ġparticular ly
yram id
O b
a vic
b ladder
Ġs ens
Ġc iliary
Ġc eliac
re atic
os us
om et
Ġcon ver
ĠA x
Ġcomp ress
dom inal
og astric
tem poral
Ġcons ider
Ġch anges
Ġch aracter
oph arynx
Ġrel atively
Ġglute us
phal angeal
Ġcalcane us
lot t
Ġretur n
sc apular
avic ular
2 8
A b
a xillary
o ver
p r
r ical
t ion
Ġa cetab
Ġs aphenous
Ġm ov
ve al
ran ge
Ġh ard
Ġex tr
ord er
Ġinn er
Ġop pos
Ġax is
Ġne tw
Ġse veral
Ġcr uc
anc es
Ġwom an
Ġpalp eb
Ġcont ents
Ġbeg in
asion ally
A l
i ver
Ġs usp
Ġc ases
Ġf ail
ic ian
le en
ac ral
ul us
Ġre duc
Ġre veal
Ġg lossopharyngeal
Ġsp leen
ut ed
Ġinc is
Ġfo und
and mar
Ġem br
uod enal
chle a
Ġcur v
Ġcerebell ar
Ġho od
Ġcoccy x
Ġrid ge
Ġepicond yle
Ġembr y
a jor
h ing
Ġo ment
ed ing
Ġe vent
Ġv entral
Ġr is
Ġcon f
Ġwh o
ĠI I
Ġmed ulla
Ġcontin ue
oth yroid
ĠF rom
Ġele ments
Ġresult ing
Ġrece ive
Ġphys ician
Ġglen ohumeral
Ġsynap se
Ġinfla mm
A ll
G reater
V I
a ir
g ical
m usc
Ġt em
Ġt ensor
Ġs een
Ġc athe
Ġf ive
Ġin ject
le ct
Ġis thmus
om b
Ġg ap
Ġg iv
Ġh am
Ġor ific
im ately
Ġsp len
Ġde c
Ġab ductor
Ġpat tern
ne tic
Ġpoint s
Ġcont ro
Ġuter ine
Ġpanc reatic
Ġcaus ed
Ġshoul d
Ġrece ives
Ġmagn um
Ġcolle ction
uf f
5 9
B ranches
Ġo per
Ġp up
is cus
Ġb reat
Ġl andmar
Ġh ist
ach ial
Ġsp aces
Ġlim it
Ġlimb s
Ġinterc onnect
Ġmat ter
Ġlob es
Ġtest is
Ġsurround ed
Ġprov ides
Ġpath way
Ġprim arily
Ġsw ell
Ġspec ial
Ġtro chanter
Ġenl arg
Ġocul omotor
Ġder ived
Ġnetw ork
M iddle
U l
b rain
h omb
o x
Ġ ult
Ġa ction
Ġin ves
Ġan ch
Ġg lans
Ġwith out
Ġex it
iv id
act ory
ast us
ĠS uperior
Ġph aryngotympanic
ĠB ecause
ĠM RI
Ġcontr ast
Ġpa ir
Ġpul se
Ġcover s
Ġcour ses
Ġresult s
Ġexam ple
Ġmal ign
Ġcond ition
Ġvag ina
Ġgra y
Ġenl arge
Ġremov ed
Ġmult iple
L ymph
b er
f actory
n ervation
o temporal
p us
p ed
p osterior
t s
Ġ if
Ġt ip
or n
Ġp yramid
Ġc ec
Ġm as
ul i
up ture
Ġar y
ra ight
ib ial
ot he
Ġcon ch
Ġsur ge
Ġenter ing
de x
Ġcommon ly
icular is
out h
Ġte chn
Ġfibular is
Ġcond yle
Ġhem isp
Ġureth ral
Ġscal ene
ĠE ach
Ġcerebell um
Ġwe ight
Ġsit u
Ġret ro
Ġcavern ous
Ġsternoc leidomastoid
Ġuro genital
Ġcruc iate
homb oid
Ġult imately
c in
m s
v ascular
Ġs al
Ġc erv
Ġf ind
Ġl um
Ġd erm
os ition
tr um
tr action
ation sh
oc ard
Ġthrough out
Ġab out
per t
truct ures
Ġfossa e
Ġres on
Ġgro w
Ġposition ed
Ġsac ro
Ġfr ont
Ġnod e
Ġdig it
Ġdig ital
her es
ĠâĢ ¢
ĠO ther
Ġmet ast
Ġtyp es
Ġexp and
Ġinterosse i
Ġam ount
Ġsl ightly
Ġhern ia
Ġdescrib ed
Ġrespir atory
5 3
m ost
p inous
s pinal
ul monary
Ġan other
Ġh umeral
Ġh owever
ĠC NS
so ph
Ġsh aped
umb ar
Ġsub st
ĠIn ferior
ĠL I
Ġne ural
ond ylar
Ġout side
atom y
Ġcirc ular
Ġmesenter y
Ġdep end
cus s
Ġpet rous
Ġanastom oses
Ġpericard ial
Ġpenetr ates
Ġcric oid
Ġencl osed
Ġerect ile
Ġreson ance
i ov
Ġ year
Ġa ge
Ġc le
Ġc orac
Ġm outh
Ġin dex
id ing
Ġv ol
rom b
rou nds
od y
Ġsur rounds
Ġab duct
ens ion
Ġdis s
Ġabdom inis
iss imus
Ġcol ic
Ġst ud
Ġmembran ous
Ġac rom
ĠF or
Ġsepar ate
Ġmin im
Ġinvol ves
Ġretin a
arter y
Ġkn own
Ġcub ital
Ġorific e
Ġary tenoid
M uscles
P h
g hen
he d
in ence
an x
Ġth ough
Ġan i
Ġre in
Ġr upture
ow er
Ġpro ble
Ġj a
Ġdis t
Ġdis tin
Ġcomp lic
ag ed
Ġad ult
ist s
Ġpre v
iz ing
Ġem pt
Ġpa ired
Ġunder g
Ġman ubrium
Ġopening s
Ġind ivid
Ġcalcane al
Ġrou ghen
Ġincreas ed
Ġphal anx
Ġgall bladder
Ġstab iliz
Ġanch or
Ġsurge on
m p
s y
u ate
Ġc e
Ġc ys
Ġb urs
Ġin st
Ġin put
Ġto p
os uperior
ing iv
Ġar c
Ġsup ra
Ġr im
Ġsp erm
ine al
Ġcom e
Ġdis rup
Ġcomp osed
ell ar
Ġsub mandibular
Ġover lying
Ġconnect ions
Ġrel ative
Ġdiv isions
Ġure ters
medi ate
Ġmen iscus
Ġfour th
Ġdel toid
isc eral
Ġpap illa
Ġsut ure
Ġpotent ial
Ġevent ually
Ġcathe ter
Ġhist ory
O p
S up
e k
i er
t y
Ġ Ex
ar enal
is ed
Ġb und
le l
ac er
Ġis che
Ġth orac
Ġth romb
el f
im es
Ġpl an
Ġst yl
Ġch am
Ġcontr action
Ġmain tain
Ġunder lying
Ġsecond ary
oul d
Ġsupr ascapular
Ġkidne ys
Ġcompon ent
Ġproduc ed
Ġmagn us
Ġef fect
Ġneed le
Ġur inary
third s
Ġcomplete ly
Ġles ion
Ġsubd iv
Ob turator
Ġcec um
Ġrein for
Ġdistin ct
B ecause
E soph
w e
Ġ y
Ġt a
Ġp ons
ar p
en ed
is tal
Ġm ust
it ive
ed ian
Ġre flex
Ġfor ce
all ow
Ġwh ite
se ter
ia phragm
Ġmid brain
Ġund ers
Ġradial is
Ġhyp oglossal
Ġbas ilar
Ġemer ges
Ġproduc es
Ġcontain ing
Ġaur icular
Ġaur icle
Ġrun s
Ġmo ves
Ġparal lel
Ġoppos ite
Ġhemisp heres
Ġindivid ual
) ;
2 9
5 4
P ar
g ut
i ast
i ke
l ingual
v ing
Ġt ons
in ter
Ġc enter
re c
Ġh ig
ess er
Ġma xim
ect oral
ĠA fter
ĠB ranches
Ġst raight
of emoral
Ġcer tain
Ġlo op
ogra m
Ġpub is
Ġfunction s
Ġventric ular
ĠH owever
Ġcur ves
Ġvar ious
Ġpres ence
rap y
tuber ance
Ġindic ated
Ġtom ography
Ġemb ol
Ġactiv ity
lott is
Ġswell ing
2 1
4 0
A p
F r
V isceral
c n
c ular
l as
o k
p ar
v iew
or rh
Ġc m
ar ium
Ġw ould
os um
ing uinal
ul es
Ġar achnoid
em ius
ect omy
Ġpro fund
Ġhe al
Ġpass age
Ġver y
aryn geus
ĠC on
Ġinnerv ating
Ġsub scapular
Ġview ed
Ġattach ments
Ġem inence
ibut aries
Ġsubc utaneous
Ġesoph ageal
Ġtest s
ĠR ad
ĠH e
Ġchan ge
Ġlike ly
Ġtermin ates
Ġchannel s
Ġcurv ature
cn emius
6 7
R adial
e jun
f ort
g ing
i oc
p ir
t ach
w ent
Ġf inal
Ġf act
re t
ac ial
Ġth alamus
Ġan t
Ġg r
Ġg astric
Ġcon c
Ġpro tuberance
ĠT o
ĠT yp
ord a
Ġax ial
Ġst y
Ġexte nding
Ġcarr y
Ġaddition al
Ġulnar is
Ġlab ia
Ġproduc ing
Ġsegment al
Ġoval e
Ġcap itis
Ġol factory
ĠAr ter
Ġrap he
Ġlandmar ks
Ġsperm atic
O r
V er
c les
i ograph
w n
y les
in ing
or tic
or ius
re ase
le c
om ic
Ġg ut
Ġg ingiv
Ġbe ing
ith in
ir th
Ġsuperior is
ĠA ll
Ġfib ro
Ġdis loc
Ġcomp ression
Ġcomp uted
ag inous
ros pinous
Ġorigin ating
Ġch ild
Ġili um
Ġposition s
anc y
osse ous
Ġsupr arenal
Ġrep res
Ġpath ways
Ġmy ocard
tuber ous
Ġrou te
Ġpenetr ate
ios te
icul ate
Ġble eding
Ġnas opharynx
Ġdistribut ion
Ġposs ible
For amen
Ġoment um
Ġris k
Ġcerv ix
Ġyear s
Ġcle ar
we ight
3 6
4 7
7 7
I li
P re
d ural
m o
p or
Ġp ier
Ġf ix
Ġb ile
Ġb iop
Ġw ay
Ġn on
Ġn am
Ġg o
Ġg ive
Ġfor n
Ġr homboid
Ġpro tr
ce nding
Ġpart ic
end ed
cc asionally
Ġtend inous
atom es
Ġrem ain
Ġov ary
Ġhem orrh
roph y
Ġwe ak
Ġdam aged
oscop y
Ġtravel s
Ġaffect ed
Ġround ed
Ġbifurc ation
omet imes
Ul nar
Ġconch a
iast inal
Ġtons il
ĠRad iograph
3 2
6 0
6 6
F lex
L esser
O ne
P ro
c ostal
k in
l is
t ensor
w ork
Ġt ak
Ġa way
al is
ar ian
Ġf al
ra e
ib r
Ġr are
Ġcon sequ
ia ble
ir m
am ous
Ġcomp la
Ġpl ace
Ġinc ision
Ġim ages
qu amous
Ġsep tal
ĠM ost
Ġdors i
Ġaf ferent
Ġunder went
ĠAn atomy
Ġasce nd
Ġappro ach
Ġang i
Th is
Ġanatom y
ner ve
Ġelev ated
ĠU n
Ġair way
res p
Ġperfor ating
wh ich
Ġepig astric
Ġir re
Ner ve
Ġconver ge
Ġfail ure
Ġreveal ed
Ġsplen ic
Ġbreat hing
Ġenlarg ed
Lymph atic
Ġdigit i
Ġminim i
) âĢĶ
5 0
6 3
A fter
D orsal
I s
X I
c ervical
l ong
o ot
s ing
s uperior
Â °
er olateral
Ġp ad
Ġm ental
Ġf ra
Ġb and
os acral
um e
Ġre la
Ġfor e
il it
il um
ol ic
Ġcom b
Ġpass ed
ure d
Ġtr ue
In f
Ġpat ella
Ġsc l
Ġsh ow
Ġits elf
Ġfasc ial
ric eps
Ġcor resp
fer ens
Ġdig astric
Ġcontr act
ĠF urther
Ġdevelop s
Ġcont act
gen cy
me work
Ġfollow ing
Ġmening es
Ġemer ge
Ġelev ation
Ġmalle us
oscop e
Ġcric othyroid
Ġrequ ire
Ġeyelid s
Ġile um
Ġsens ation
Ġenlarge ment
Ġmas seter
othe rapy
Ġdiss ection
Ġunderg o
Ġanchor ed
Esoph agus
Ġmaxim us
Ġpartic ip
Ġfra mework
3 7
3 8
8 9
D uring
M ost
S F
S c
o ur
t es
Ġt w
Ġa ut
ic es
ic us
it he
ac ranial
ior adial
Ġw ind
os p
ul ate
Ġe ven
ra y
Ġre d
te nd
ment al
art orius
em a
Ġpro per
un e
Ġal ways
Ġmid way
Ġad m
op osterior
Ġcl os
Ġsh arp
Ġflex ed
ache al
Ġcor ner
Ġapp rec
Ġsystem s
Ġcr us
Ġthen ar
Ġaris ing
Ġproject ion
ept ors
Ġtract s
Ġel ong
Ġsupr aspinatus
Ġlin ing
Ġemer gency
Ġhy pert
Ġdef ined
Ġaccompan y
Ġoroph aryngeal
Ad ductor
Ġbegin ning
Ġcomplic ations
Ġcorresp ond
ioradial is
3 5
4 8
5 5
6 5
8 8
C ommon
H e
M usc
T wo
c ont
e ins
p ing
Ġ J
he ad
Ġc al
is m
Ġf el
Ġf aces
Ġb ilateral
ic les
an al
as tic
Ġn uch
Ġcon to
Ġinf ect
Ġal most
Ġde ferens
ec k
iv ary
Ġco chlear
ĠS uperficial
Ġcor tic
ĠM edial
ific ation
Ġme chan
Ġcross ing
Ġinsert ion
yl or
Ġtibial is
Ġint est
Ġfacet s
Ġos te
Ġcaud al
Ġacetab ulum
Ġlum en
iov entricular
Ġja w
Ġcham ber
Ġirre gular
Ġfel t
4 4
8 0
9 0
L at
L ong
M edian
P teryg
P osition
] )
a phoid
e tween
g ed
Ġ ros
Ġ 10
Ġa zygos
Ġp us
Ġp it
en ous
ic e
ro chlear
Ġl ight
it es
Ġw al
Ġd im
as te
om m
Ġv es
em ell
Ġsp ong
la p
ub le
Ġj ejun
Ġal though
Ġab duction
lo gical
ag inal
tin u
Ġad duct
Ġcar e
fic ult
ĠL e
duct ive
ĠM ajor
Ġorb icularis
Ġconnect ed
Ġdistal ly
let s
let on
Ġlumb rical
Ġdevelop ing
Ġatr ioventricular
Ġhyp ogastric
Ġgastro cnemius
Ġrep l
Ġmar ks
Ġdif ficult
Ġanastom ose
ĠX II
Ar ch
Ġske leton
Ġbronch i
Ġanter oinferior
ven ous
At tach
Ġos s
Ġdistribut ed
Ġphal anges
Ġappend ix
Ġumbil icus
Ġmov ing
Ġsitu ated
Ġburs a
weight ed
Ġforn ix
Ġwind ow
2 2
8 4
8 5
A xillary
B ody
F emoral
L acrimal
P ubic
R ib
T end
a ired
c ept
g netic
m all
t ra
y nd
Ġ z
Ġ ens
Ġ range
Ġs ometimes
Ġm olar
Ġf il
Ġb loc
re ct
Ġl if
Ġw ide
ing e
Ġv astus
art icular
Ġma gnetic
od uodenal
un ately
ine us
oc k
th ral
Ġper m
ĠT IV
ĠC VII
Ġinter mediate
ili ac
ne um
ĠL V
Ġext ent
Ġst im
Ġcor pus
Ġgro in
Ġrel ationsh
Ġline a
Ġtemporal is
Ġgen ital
atom a
Ġdevelop ed
Ġjoin ed
Ġcirc ulation
Ġep id
Ġep ithe
Ġexp ands
Ġcoron al
Ġshe et
Ġhyp oth
Ġmar row
Ġsignificant ly
Ġbronch us
Ġcolle ct
Ġbound ary
Ġquadran gular
Ġcharacter ized
pr iate
Ġgrow th
Ġexpand ed
Ġproble ms
Ġarc uate
Is ch
Ġaut on
Ġcorrespond ing
Ġintest ine
Attach ment
. âĢĿ
3 0
6 1
P al
P elvic
S urface
s tr
v ity
Ġ u
Ġt ent
Ġs n
Ġs ix
Ġs ynd
es ticular
is ual
ro ductive
Ġl ens
os al
Ġg emell
Ġh ilum
art ment
tr al
Ġex cess
Ġde tect
Ġper ioste
if y
ros t
ire ct
li um
Ġtrans ition
Ġflex ure
Ġapp ar
ĠM ove
Ġaspect s
Ġbrach ioradialis
of ibular
Ġdur al
Ġduct us
med ial
ĠâĢ ĵ
Ġinsert ed
Ġrec over
Ġdisc s
Ġmater ial
Ġbas ed
Th ree
br achial
Ġproced ures
tuber cular
Ġanter omedial
Ġped is
ĠAl so
wh at
Ġref lect
Ġepig lottis
Ġoroph arynx
Ġdeterm ine
uit ary
Ġident ified
Ġextr insic
Ġreduc ed
Ġpair s
Ġinst ances
Ġreinfor ced
Ġprofund us
ĠTyp ically
Ġbiop sy
3 3
4 9
5 2
T ransverse
c ious
d ed
i ation
i phoid
m ph
s p
t ig
u nds
x ial
Ġ x
Ġs end
en ces
is tic
Ġb irth
re qu
os pinal
ul oc
Ġcon ve
un ct
ace t
Ġde fect
Ġtr ibutaries
ĠC I
ĠC SF
ient s
Ġinc rease
Ġsh allow
ab ility
ĠS ome
Ġtrans m
Ġnot ed
Ġassoci ation
Ġcontinu ation
Ġem iss
Ġconnect ion
Ġiliac us
Ġout let
Ġun c
Ġdirect ed
Ġme as
Ġsec re
Ġoblique ly
Ġov aries
Ġappro priate
tab lis
Ġsome what
Ġhem atoma
Ġinvol ve
Ġlea ving
Ġcontribut ions
Ar ter
Ġlead s
Ġche ek
Ġstr ong
Ġles ions
Ġuse ful
Ġdil ated
Ġpron ator
Ġumbil ical
Ġbucc inator
Ġtem por
Ġcontro l
Ġretro peritoneal
Op ening
Ġbund le
ylor ic
Ġsynd rom
3 1
4 3
6 9
8 7
9 4
C h
C ar
F rom
G en
M an
T o
a ortic
c al
d ro
g est
k es
s ub
Ġt orn
Ġf ar
Ġf usion
Ġb al
Ġb old
re m
Ġl ast
it end
Ġd est
Ġd ome
id ym
Ġma mm
Ġinf ar
Ġal ter
ĠA b
ĠT XII
In nervation
if th
Ġligament um
ĠC omp
Ġad duction
ost omy
Ġpar a
Ġpre gn
Ġflex es
Ġse e
Ġun t
Ġinterc ondylar
Ġfac ilit
Ġes tablis
Anterior ly
Ġov arian
Ġcond uct
Ġcond yles
Ġtest es
Ġexp ans
Ġsubclav ius
Ġrot ates
Ġbas es
Ġrep roductive
Ġdif f
Ġmass es
Ġassess ment
Ġhy oglossus
Ġradiograph s
Ġincreas es
Ġrequ ir
Ġremov al
Ġposter omedial
Ġappear ance
Ġmetatarsal s
Tr achea
Ġposs ib
Ġneuro vascular
ron ic
Ġturn s
Ġbucc al
Ġconsider ed
Ġpalpeb rae
Al though
Ġsusp ended
musc le
Ġgiv ing
Ġmalign ant
cin oma
Ġsacro tuberous
Ġsubst ance
Ġdist ance
mp ortant
Ġce phalic
Ġstyl oid
Ġfact ors
Ġdisloc ation
Ġconto ur
Ġpit uitary
Ġauton omic
Ġsyndrom e
3 9
5 8
B r
C T
S ac
S ympathetic
U n
U re
Z yg
b y
b ox
c artil
i el
i ated
l igament
p es
r i
r ate
t ures
in osus
or ta
nd er
Ġs us
Ġp ower
Ġp neum
Ġp unct
Ġc us
ar so
en se
is iform
Ġm on
Ġf us
Ġf use
Ġf ull
Ġf irm
Ġl acer
Ġis ol
el toid
ot omy
ary tenoid
all owing
Ġpro g
ĠI II
Ġinter phalangeal
Ġro le
Ġfo od
Ġtub es
bran ch
oci ated
Ġst ro
pect ed
Ġover lies
Ġcommon est
Ġdrain ing
Ġac ute
Ġcereb ri
Ġun ique
Ġsurg ically
Ġme et
len oid
gen er
Ġfe ature
Ġser ratus
Ġpo or
Ġdemonstr ates
Ġmuc ous
Ġcerebell i
Ġmetat arso
oscop ic
Ġhern ias
Ġposter oinferior
Ġbound aries
Ġglen oid
Ġpap illary
Ġinit ial
Ġentire ly
Ġtear s
Ġhel p
Ġanesthe tic
Ġpalpeb ral
Ġinflamm ation
Ġinflamm atory
uff box
Ġlimit ed
Ġroughen ed
Ġthromb osis
Ġhypoth alamus
Ġsn uffbox
isual izing
Ġgemell us
itend inosus
idym is
Ġcus ps
Ġmetatarso phalangeal
4 1
6 2
7 0
7 8
8 3
M axillary
Q u
o ves
p oph
r ug
t ached
Ġt arge
Ġt esticular
Ġa ud
al angeal
Ġo wn
at ients
Ġc alc
ar ing
Ġb asal
Ġb ene
ic irc
re ated
Ġl ips
ed ge
Ġv om
ran on
ran ch
Ġor is
inal ly
ap ar
ord ers
lu ence
Ġcomp let
Ġra ised
Ġsc aphoid
Ġup on
Ġdeep er
ĠS tructures
ĠL II
Ġpr inc
Ġcanal s
Ġsac rospinous
Ġclinic ian
ĠV I
Ġrem ains
Ġear ly
Ġextens ive
Ġdemonstr ating
Ġisch io
Ġpect ineus
unic a
Ġneur onal
acar pal
Ġanastom otic
ĠN er
Ġduod enal
Ġresp ons
Ġcommunic ates
Ġgra vity
Ġlat a
Ġlat issimus
duc ent
Ġur ine
Ġfill s
Ġappear s
Ġvaginal is
Ġtransvers us
Ġev al
ĠAx ons
Ġcharacter istic
Ġincis or
Ġpancreatic oduodenal
Ġpup il
Ġinves tig
Ġtechn ique
Ġvol ume
Ġsubdiv ided
Ġconc ave
lec ranon
Ġfix ed
Flex or
Ġtak en
Ġfal x
Ġfore head
Ġwal king
Ġlif e
Ġtempor omandibular
Zyg omatic
iel d
poph alangeal
icirc ular
3 4
4 2
6 4
9 1
9 8
G ro
N asal
O ther
S h
V eins
e ks
i od
i olus
m ia
p ass
t ro
Ġt aste
in ated
or onal
Ġs ternal
Ġs quamous
Ġp e
Ġp p
Ġc ase
en cy
is ta
Ġf requ
Ġb l
it ofemoral
ul ated
om ed
usc ept
ran ged
tr act
Ġmed ia
Ġmed ius
Ġmed iastinal
ace ment
oc c
teb ra
ĠT I
Ġmid gut
Ġco chlea
essel s
Ġsub lingual
ĠIn ter
Ġcons t
Ġpre c
Ġch orda
Ġch ronic
Ġclin ically
Ġsystem ic
fer ents
ull ary
Ġ2 0
10 8
itor y
Ġlo ose
Ġdorsal is
ĠD uring
âĢĿ )
Ġele ct
ath yroid
Ġfiss ures
Ġlab ial
Ġextens ions
Ġscapula e
itt ed
Ġsim ple
rap ez
Ġsem icircular
Ar ticular
Ġthick ened
Ġincreas ing
ios um
Ġche m
Ġquadran t
Ġinit ially
Ġneuro logical
io hyoid
Ġextra dural
ĠAx ial
musc ular
Ġgiv en
Ġcondition s
Ġunders ta
Ġsty lo
Or b
Ġmyocard ial
Ġnam ed
Ġconsequ ence
He ad
ĠLe ft
Ġz one
ĠMove ments
Ġrecover y
Ġinfar ction
Ġunt il
7 1
7 2
8 2
9 7
c utaneous
m ore
r itis
v ar
he ther
in es
Ġs le
Ġs om
Ġs uscept
Ġp ia
Ġc une
Ġf ield
ac rom
ac il
Ġw hether
Ġd iver
Ġn avicular
Ġfor eg
Ġsup inator
Ġpro tect
ir al
Ġal ar
Ġhe el
Ġcan n
In guinal
Ġinter muscular
ros cop
Ġsh unt
yg en
Ġcol la
rans vers
Ġst en
Ġso und
Ġtriang les
Ġtuber cles
10 4
10 7
Ġline ar
Ġdiaphragm atic
Ġlumb osacral
Ġjoin ing
ias m
ĠD eep
ĠR ight
Ġquad riceps
Ġfe w
oplite us
Ġser ous
Ġhyp ot
Ġdemonstr ate
Ġcaus ing
Ġaper tures
ĠX I
ll ed
ĠU l
Ġintr acranial
Ġval ves
Ġlead ing
Ġmetacar pophalangeal
Ġtro chlea
Ġorient ation
Ġorgan ization
icul otemporal
Ġrequ ired
ĠThere fore
Ġposter osuperior
Ġped un
ĠAl though
Ġmetacarpal s
Ġparal ysis
Ġspin es
Ġlamina e
Ġrecess es
Ġincis ive
Ġinterconnect ed
Ġfind ings
Ġcorac oid
Ġacrom ion
Ph aryngeal
Ġprev ious
Ġdisrup tion
Sup r
Ġische mia
Ġheal th
Ġelong ate
Ġjejun um
Tend on
Ġepid idymis
Ġx iphoid
Ġbal ance
Ġsus pected
Ġrespons ible
Gro ove
Ġsuscept ible
acil is
Ġforeg ut
5 6
5 7
7 6
P ulmonary
o ung
o brachial
p oc
Ġ K
Ġ ips
Ġt ail
Ġt reated
in ferior
Ġo lecranon
or ium
Ġs lop
on avicular
Ġc y
Ġf ifth
ter ic
Ġar ranged
Ġre le
Ġre view
Ġh ow
im ilar
Ġma ke
un ar
Ġsp ina
Ġsp ans
ĠI mportant
Ġat las
ia zygos
Ġde g
Ġde gener
th s
ens ions
Ġper s
ap p
Ġdis cuss
ĠC h
Ġinter p
Ġinter tubercular
ie ty
hen ar
ab dominal
Ġmarg inal
ĠB oth
Ġpar athyroid
Ġst one
Ġpre d
erm inal
ĠP ro
Ġcr ibr
Ġimp ression
Ġconsist ing
12 0
12 3
Ġmin imus
Ġrec eptors
VII I
Ġplantar flex
Ġisch ium
Ġsw allowing
Ġho urs
Ġsta nding
Ġsta pes
alam ic
Ġanter oposterior
Ġphys i
Ġble nd
Ġencl oses
Ġmo b
ĠAl ong
Ġmuscul ature
Ġspin osum
Ġrap id
Ġacetab ular
range ment
Ġempt y
Ġcys t
Ġy oung
Fr act
ĠArter ial
Ġremain ing
Ġhemorrh age
Ġscl era
Ġconduct ion
Ġpower ful
Ġprinc ip
acrom ial
obrachial is
poc am
Ġips ilateral
Ġcribr iform
8 6
B ranch
C lavicle
D e
c k
c on
d ent
l ial
n ant
o b
o chlear
p ec
r ight
s ided
t i
Ġt unica
Ġa v
Ġs to
Ġp isiform
at r
at er
Ġc uff
ar ed
Ġf ec
Ġb arium
Ġin ver
Ġin ability
it ed
Ġto oth
Ġd ens
as ed
as ternal
Ġan s
ra ys
Ġg u
Ġsup ination
Ġh orm
art h
ol umbar
Ġas per
Ġpro xim
oid s
ure thral
ĠA d
Ġdis order
Ġdis orders
ag netic
ear ing
et us
Ġenter ic
ĠIn ternal
ost ganglionic
Ġtub ular
ĠL ymph
Ġch in
Ġse x
oth orax
Ġcartil aginous
Ġout ward
Ġroot lets
ĠO ccasionally
Ġgen er
Ġloc ations
Ġmesenter ies
Ġcarr ying
Ġventric les
Ġexam ined
Ġind irect
Le vator
Ġsupr ac
Ġhem iazygos
Ġdise ases
ĠN ormal
Ġextend ed
Ġsheath s
Ġgra ft
Ġtro chlear
Ġlongitudinal ly
Ġdel iver
Ġfill ing
lot tic
Ġmod iolus
chanter ic
Ġtransvers alis
Ġthyro hyoid
Ner ves
Ġhood s
Ġwho le
Ġoper ation
Ġinves ting
Ġplan es
iaphragm atic
Ġindividual s
Ġhig her
Ġloop s
Ġrepres ent
ock et
Ġepithe lium
Ġexcess ive
Qu ad
Ġeval u
Ġasper a
4 6
5 1
6 8
7 5
9 5
9 9
A c
C ervical
I m
L ike
R ect
S A
T uber
c ent
h alf
er c
Ġs artorius
at rochlear
Ġc ut
is es
Ġf an
Ġf etus
le ction
Ġw a
Ġn ow
The se
ent ion
ur gical
Ġe jac
um p
Ġar th
ib ulum
Ġre ad
Ġre aches
Ġfor ces
il ic
Ġh old
im embran
ol on
Ġas ked
ph aryngeus
ĠI V
Ġmed ical
ad e
am p
Ġhe re
Ġde ath
ip it
ip ectoral
ie ved
iv ing
Ġcl ass
ant es
ab les
Ġcol lic
ĠS he
ĠL III
Ġres ection
Ġres trict
Ġst ones
Ġpre m
yp ogastric
Ġcor n
Ġcr ura
Ġimp ro
Ġacc um
Ġacc omm
10 1
Ġun like
ĠO ver
Ġme th
Ġmen isc
lav ipectoral
Ġcover ings
Ġproject ions
Ġrem ove
Ġsphen opalatine
Ġexp ression
Ġcoron oid
Ġang les
Ġallow ing
Ġzygomatic otemporal
Ġvar iety
Ġhip pocam
Ġsem itendinosus
Ġcommunic ating
Ġlat er
Ġphys ical
AB C
Ġprost atic
Ġrun ning
Ġfill ed
Ġposterolateral ly
Ġabnormal ities
Ġocul i
iop ubic
Ġintra venous
Ġpron ation
Ġpla in
Ġmov ed
Ġmetast atic
Ġmetast ases
Ġdepend ing
Ġstabiliz e
fort unately
pir ation
Ġweak ness
ĠFurther more
Ġros tral
Ġdim ensions
Isch ial
Ġtent orium
Ġpregn ancy
Ġfirm ly
Ġstro ke
Ġhypot henar
ĠImportant ly
imembran osus
Ġaccomm od
7 3
7 9
F ib
F irst
L ine
S tructures
V enous
W ithin
c ule
d uodenal
i i
i otic
m a
o an
p ort
p ora
r y
s ia
w ing
w here
er g
al le
al ateral
or oid
Ġs te
Ġs ug
es am
Ġc usp
is ing
Ġf rag
Ġb ands
an asal
ul atory
ly mph
Ġe qu
ct iv
Ġg round
il unar
te nding
Ġh osp
ot ion
ot ibial
Ġma kes
Ġby pass
Ġex ternus
ep end
Ġmed ullary
tern oc
Ġde v
Ġde fic
Ġtr ack
lo b
Ġver tex
ap ter
cc ess
if lex
if ying
Ġcomp rom
Ġen c
ĠC oronal
Ġinter s
Ġcl ot
ill ed
Ġinc omp
Ġinc isions
Ġsh own
ist ing
ĠIn nervation
Ġsmall est
Ġop p
ĠL IV
qu es
athe r
Ġvis ion
Ġch iasm
Ġch oroid
oph aryngeus
Ġcord s
Ġend ing
erm atomes
Ġse qu
ĠP er
ĠP NS
Ġso unds
Ġul cer
Ġdig est
ke letal
tric le
Ġdors iflex
Ġcontr alateral
10 9
Ġun it
gn osis
Ġme tab
ĠV III
Ġlab rum
Ġrot ator
Ġsign al
Ġpo le
Ġsphenoid al
Ġrep air
ont ory
Th oracic
Ġtal ar
Ġvar iable
Ġpalat opharyngeal
Ġopen ed
Ġelev ates
Ġdiagn osed
Ġvisual ized
Ġsupport s
Ġassess ed
Ġdesc ent
Ġef ferent
Ġscan ning
Sp hen
Ġaneurysm s
av ing
Per ineal
Ġpyramid al
Ġsal ivary
Ġrim a
Ġische mic
Ġta ke
Ġreflex es
Ġhig hest
ĠTo gether
Ver tebral
Ġgingiv ae
mo hyoid
Ġrela x
Lat in
Ġspong iosum
rost atic
Ġlacer um
Ġprog ress
Ġtarge t
Ġaud itory
Ġbene ath
tro chanteric
occ ipital
rapez ius
Ġsten osis
imilar ly
Ġspina e
Ac rom
Ġsug gest
Ġhosp ital
9 2
A orta
M ajor
N as
P art
R oot
T ibial
a xial
b ec
b earing
f ferent
g ra
h y
k en
m ond
p oint
s is
Ġt ars
he p
in ate
or um
Ġs ella
Ġp opliteus
at ellar
at tached
on se
Ġc ost
Ġm er
Ġf am
Ġl ost
Ġl ined
Ġl apar
ed s
le ft
Ġd rug
os ing
os to
as h
ul d
ul nar
Ġsup erolateral
Ġbe ars
Ġh um
Ġh ind
Ġr ate
ol es
ep tal
Ġlateral is
ir rh
am ination
Ġhe aring
Ġab ility
ym us
erv ed
ap s
Ġen able
Ġpat ellar
ĠC VI
op or
ros pinal
Ġpl ates
Ġco uld
Ġbranch of
Ġtend er
eb ral
Ġcons cious
oph ys
Ġne w
ĠP ar
Ġgro oves
Ġexternal ly
fer red
Ġorb its
ula e
Ġins ide
lute us
Ġimp air
Ġgen iohyoid
Ġaf ferents
12 2
Ġmin ora
Ġproject ing
Ġback ward
Ġrem nant
alcane al
Ġrot ate
Ġcur ved
Ġtuberos ities
itt ing
Ġtal i
vers ion
Ġmy el
Ġterminal is
Ġplac ing
Ġsem ilunar
Ġho ok
Ġobs truct
Ġnar es
Ġrou tes
Ġcommunic antes
Ġsta nd
Ġvestib uli
ĠOn ce
ios us
Ġpromin ence
Ġneed s
asp inous
Ġcoccy geal
Ġcaud ate
Ġpull s
Ġdil ation
Ġhel d
Con traction
jun ctiv
Ab dominal
Ġinject ed
Ġdec reas
Ġcollection s
Ġpapilla e
Ġsubscapular is
Ġgingiv a
Ġparticip ate
Ġrelationsh ip
Ġemiss ary
Ġrequir es
Ġundersta nding
ĠUl trasound
Ġdegener ative
Ġread ily
Ġprem olar
Ġfam ily
9 6
C l
D istal
E p
F acet
I f
P alatine
P ectoral
S e
S em
S ensory
S omatic
S pinal
V astus
f usion
g ram
i ence
m as
n ed
p ulla
Ġt ap
Ġo x
Ġo mohyoid
or ect
Ġs ocket
Ġm ic
Ġm ig
ac ula
Ġw ire
Ġd ro
Ġd ial
os ter
Ġn ature
id ence
usc ular
Ġre as
Ġg as
el ationsh
Ġcon junctiv
ch ond
ep ig
Ġpro gnosis
Ġinf und
Ġat rophy
ass ing
ut ion
oc iliary
oc olon
Ġde cuss
ĠC II
Ġad v
Ġcl oses
Ġdeep est
Ġco ord
ort ance
Ġtend s
Ġprocess us
Ġob ject
Ġocc asionally
Ġmajor a
oph renic
Ġmembran es
Ġcor ne
Ġcor pora
Ġili o
Ġse ven
Ġfascia e
Ġover lap
ĠP elvic
ystem ic
Ġsep ta
Ġsac cule
An al
her y
Ġdiv ide
Ġcervical is
Ġimp ortance
10 2
Ġout put
uter ine
Ġlumb orum
12 8
Ġhand le
ĠV II
Ġsubc ostal
Posterior ly
yn ovial
Ġdep artment
Inferior ly
Ġdo uble
Ġel astic
Ġprov ided
Ġvar ic
Ġmuc osal
Ġemer ging
Ġinfr aspinatus
Ġsem inal
Ġcontribut ion
Ġed ema
Ġvisual ization
Ġpalmar is
Ġcommunic ans
Ġbul ge
Ġam pulla
Ġhy dro
usp id
As cending
Ġlat ae
Ġsole us
Ġperip hery
Ġorgan ized
icul us
oh ypogastric
Ġnarrow ing
Ġdescrib e
Ġsternoc lavicular
Ġref lection
Ġabs cess
Ġpotent ially
Ġident ify
Ġcompress ed
Ġinject ion
Ġcontro lled
cin ate
Ġderm atomes
Ġadult s
Ġprev ents
Fr ontal
ioc lavicular
Ġant ib
Pre ganglionic
Ġpier ces
Inf r
ĠJ ust
Ġnuch al
Ġgenital ia
Ġu tricle
Ġreflect s
uloc ochlear
Ġunc ommon
Ġdiff use
Br achial
ĠNer ves
Ġfrequ ently
Ġchem otherapy
ygen ated
Ġprincip al
Ġproxim ally
Ġmeth od
esam oid
Ġdigest ive
Acrom ion
irrh osis
1 10
7 4
8 1
9 3
A x
C A
C orac
G lans
L aryngeal
L ingual
N eck
P opliteal
S ec
S kin
S mall
T yp
U p
V est
V isualizing
c ing
c lavicular
f illed
g ent
g loss
l ing
o un
o hyoid
t omatic
u tr
x t
Ġ ill
er omedial
Ġc lavipectoral
Ġf all
Ġb est
ac tic
Ġw ater
os ystemic
ion al
ul ating
ul ature
id ance
Ġan us
Ġre tract
ran ium
te ad
Ġpos itive
Ġcon e
ol i
ect ed
Ġartery Posterior
Ġartery Left
ub oid
Ġca me
oc ular
rough out
Ġmedial is
Ġper iod
ĠT wo
Ġen ables
Ġinter trochanteric
ymp tomatic
iv en
op le
Ġcar cinoma
ast ing
iss ion
Ġk e
Ġdia me
Ġso urc
ust ent
Ġins trum
10 5
10 6
Ġun ite
ĠO r
anc ed
Ġgen itofemoral
Ġmes ocolon
Ġpul ses
Lateral ly
Ġsign s
Ġgastro duodenal
ĠW ithin
Ġpalat oglossal
Ġsem imembranosus
Ġprom ontory
Ġvisual ize
Ġresp onse
Ġcommunic ation
Ġbronch ial
Ġhorizontal ly
Ġur gent
Ġble nds
Ġcap it
Ġaccompan ies
Ġaccompan ying
Ġcavern osa
Ġsut ures
Ġcre ase
Ġanesthe sia
Inter osseous
Ġconsider able
Ġembry ological
Ġconf luence
Ġham ulus
Ġham str
Ġexit ing
Ġcorac obrachialis
Ġabduct ed
Ġstud ies
Ġfibro cartil
Ġchild ren
Ġrepres ents
Pro ximal
Ġhypert rophy
Ġbilateral ly
Ġinfect ions
Ġperioste um
Ġappar atus
Man ubrium
Un like
Ġconst ant
Ġstylo pharyngeus
var ia
Ġcune iform
Ġdiver tic
Ġhealth y
Ġdeg ree
Ġwa ves
Ġdial ysis
Ġcorne a
Ġantib iotic
Ġsourc es
H ow
L igament
O ccasionally
S o
a ud
c ol
c lav
d al
d en
i at
i oglossus
i ques
j ust
l ed
l ated
p end
s ociated
u de
y ed
Ġt reat
Ġt ree
al es
or opharyngeal
Ġp op
es cending
Ġc yl
Ġc irrhosis
ar r
en ch
Ġf ine
Ġf lav
Ġb all
Ġb acter
ter ing
ic uspid
re g
ro t
Ġl ig
Ġl ying
an y
it ing
ac ed
Ġw or
Ġw ork
Ġd ent
Ġd ys
id is
Ġth ymus
Ġe ti
om ental
Ġan trum
Ġg lott
Ġg lob
tr insic
tr acheal
Ġor der
ol id
ol acrimal
od e
ĠI X
Ġmed ic
Ġmed ium
Ġle ast
oc utaneous
Ġcan ine
Ġfib er
In c
lu ded
Ġcomp ared
ĠC l
asc ulature
Ġinc us
ab ly
Ġorig ins
iss ure
Ġass ist
Ġass ists
Ġcol ostomy
ĠB lood
Ġpar anasal
Ġres ist
Ġlong er
de ep
yp oglossal
oph y
Ġdia g
Ġcontinu ity
ĠP atients
An other
of acial
Ġcr ista
Ġins piration
Ġdrain ed
Ġac qu
Ġthere by
ĠO p
Ġ9 0
atom ical
12 1
Ġsepar ating
Ġcross ed
Ġarm s
dition ally
ath y
Ex tensor
Ġradi o
Ġexam in
Ġmal e
Ġcond uit
Ġtest ed
11 3
thmoid al
Ġport osystemic
olog ically
Ġexc ision
Ġscal a
Ġact s
Ġobs erved
Ġreach ing
Ġsupport ed
ĠPosterior ly
for ward
Ġaur iculotemporal
Ġanter osuperior
Ġbeh av
Ġhigh ly
Ġtrapez ium
Ġbound ed
Sp inous
Ġscro tal
Ġprevent ing
Ġinfla med
Ġabs ent
Ġtermin ate
Ġev idence
Ġcre mas
pro cess
Ġtom ogram
Ġconf ir
Ġham ate
Ġspecial ized
Ġmalign ancy
ped ius
Ġsubst ant
Ġacrom ioclavicular
Ġstraight forward
Ġgr acilis
ĠArter ies
Ġgo od
ĠUn like
Ġshow s
Ġcal varia
Ġnuch ae
Ġcortic al
tinu ing
Arter y
Ġmamm ary
ĠAb dominal
Ġpneum othorax
Ġmon ths
ĠCh apter
atr ial
Ġgu idance
Ġmenisc i
oan ae
hep atic
Ġdrug s
Ġhind gut
ophys ial
epig lottic
Ġinfund ibulum
Ġdiame ter
ustent aculum
Ġeti ology
Ġglott idis
Ġbehav ior
B ucc
F acial
J ust
N umerous
S t
V E
a vern
d ing
h o
m atic
o ice
p art
p aired
q ual
r ontal
s urface
t ension
w ise
he m
er osis
Ġs tem
es oph
at a
at arsal
en ign
Ġf ist
ter ion
ic ate
Ġin h
re ted
Ġl ack
Ġw id
Ġd ra
Ġe ver
Ġe ars
Ġv ary
Ġv ir
Ġar rangement
Ġre duction
Ġre ticular
Ġre nder
Ġfor ced
eral l
Ġh inge
Ġcon cer
Ġma king
Ġartery Right
Ġartery Internal
Ġpro ce
Ġpro duction
Ġsp l
Ġat he
Ġpart ial
Ġal b
oc occy
Ġde vic
Ġvein Right
ĠT V
ĠT ransverse
ang er
und um
asc ia
Ġbranch ing
Ġnec rosis
ĠL ike
Ġocc ipit
Ġflex ible
Ġend o
ĠP re
ĠM agnetic
Ġsuperficial is
Ġmost ly
Ġconnect ing
Ġins pect
Ġacc ount
Ġun able
Ġun paired
Ġgen iculate
Ġleg s
ten ed
12 5
12 7
Ġsepar ation
Ġperf us
Ġov erall
Ġring s
phal on
Ġradi ation
Ġfunction al
Ġtest ing
ĠR elationsh
ĠH ere
Ġrot undum
Ġsupr atrochlear
Ġfe el
Ġisch iopubic
ĠW ith
Ġtal ofibular
Ġdif fer
Ġact ive
Ġpalat oglossus
ĠAnterior ly
Ġelev ate
Ġthick ening
Ġent ry
Ġtravel ing
Ġflat tened
Ġanterolateral ly
Ġcoccy geus
Ġinterv al
Ġerect or
Ġstr ess
oma xillary
Ġmuscul ocutaneous
It s
Ġretur ning
Sub mandibular
Ġclose ly
Ġlocal ized
Ġir is
Ġdeterm ined
sequ ently
Ġactiv ities
Ġreturn ed
Ġoment al
Ġtechn iques
Ġdepend s
Ġroughen ing
Ġcys tic
Ġbund les
Ġeffect ively
Par asympathetic
Ġprotr usion
Ġangi ography
Ġangi ogram
ĠUn fortunately
Ġparticip ates
Ġred uce
Ġoste opor
Ġbloc ked
Ġconve x
Ġpossib ly
Ġpunct ure
Ġpe ople
Orb ital
Ġhorm one
pend icular
Ġconfir med
) âĢ¢
. )
1 12
B lood
B etween
C o
C occy
D eltoid
E nd
J ugular
L ower
M otor
M astoid
M andibular
R ound
R eg
S ternoc
T rapezius
] [
a f
b d
b order
b ody
c ut
c ers
c ulum
e fore
f low
f unction
l ie
l ined
m alle
n aculum
o te
o ug
o arth
p o
t osis
u is
u ous
Ġ ess
Ġ External
in u
al ine
Ġs ud
Ġs esamoid
Ġs ustentaculum
Ġp ut
at ome
Ġc alf
ar m
is pinal
Ġm m
Ġm ild
ter ed
ic itis
it ial
it ation
it ral
ig ital
Ġw edge
Ġd ense
as m
Ġn utr
ul b
ul ates
ib ia
Ġbe nd
Ġpos ture
Ġr ather
ol ution
Ġas ymptomatic
ĠThe ir
em ia
em ber
Ġex per
od orsal
Ġartery C
un ate
ach ing
Ġsp iral
ĠI m
Ġsur al
oc olic
oc uboid
âĢ ľ
Ġab ducent
ĠA ccess
ta il
ord ig
ip heral
Ġmid clavicular
ove a
et acarpal
ast y
Ġlow est
yg dal
Ġcol or
ĠS ub
Ġstruct ural
ĠIn f
fic ient
ĠB ones
st ances
Ġdia mond
Ġne xt
ening eal
Ġili otibial
ĠP osition
ĠM ore
ĠM any
her ent
Ġdiv iding
Ġoccur red
illa e
10 0
10 3
Ġborder ed
Ġey es
Ġun e
Ġun cinate
Ġterm s
ĠF ib
Ġfac ing
12 4
12 6
ĠV er
ĠD orsal
dition al
Ġrec ons
ugh t
11 1
11 4
11 9
Ġatr ial
flex or
Ġser ious
Ġint ro
uber naculum
Ġbrachial is
15 8
Ġbas ic
Ġbas ilic
Th yro
Ġvag al
14 4
Ġtal oc
13 6
Ġsw e
br onch
ĠN ear
Ġcircum stances
Ġsta pedius
ĠLateral ly
Ġam ygdal
Ġhy aline
Ġvestib ulocochlear
oce cal
Ġmaxilla e
Ġhep at
Ġdef ec
Ġdef orm
Ġef fusion
Ġdel icate
eur ons
Ġfree ly
Ġnas ociliary
19 1
Ġindic ate
Ġped icle
Ġperfor ation
Ġsynap tic
Sp ec
Ġmod ified
Ġabs ence
Ġabs orb
Ġappend icitis
Ġhorn s
Ġcre ated
Ġbifurc ates
Ġhel ps
Ġthyro cervical
pro xim
Ġreduc es
Ġembry o
Ġpup illae
Ġenlarg es
Ġaction s
Ġfind ing
Ġamount s
ĠInferior ly
Ġvol unt
Ġproble m
Ġempt ies
Ġstyl omastoid
inter osseous
Ġsty lohyoid
Ver tebra
Ġmyocard ium
Ġclear ly
Ili o
Ġtonsil s
long us
Ġcomb ined
our se
Ġhypert ension
Ġmechan ism
Pteryg oid
Ġcare ful
Ġlumbrical s
Ġrepl acement
Pal at
Ġdetect ed
Ġperioste al
Ġanteromedial ly
Ġmeas ure
Ġfacilit ate
Ġfus ed
Ġvom er
Ġcomplet es
Ġcolla gen
Ġpedun cle
Ġdiscuss ion
Fract ures
Ġsto p
Ġinver ted
Ġans a
ĠLymph atic
Ġgener ated
Ġsuprac ondylar
Ġaccommod ate
erg y
Ġfrag ment
Ġequ ina
Ġincomp et
Ġstand ard
Ġcapit ulum
Ġexamin er
Ġcremas teric
Ġsud den
ispinal is
: âĢ¢
C G
C omp
F ibular
G luteus
M RI
O v
O phthalmic
P l
P ron
S ome
S eptal
T eres
T erminal
a u
a ult
b et
f r
f ibular
g or
i ter
i ft
i ating
j ugular
m ove
o ok
s ually
s uperficial
Ġt il
Ġa ch
Ġa la
er ratus
Ġs et
Ġp ig
Ġp yloric
on ic
on ally
Ġb iliary
Ġb enign
us ual
Ġl aryng
an ent
ed uct
ed ded
ig in
Ġw asting
ent ial
id us
Ġth alamic
Ġv ibr
Ġg a
Ġg ran
Ġg ubernaculum
rom andibular
Ġfor eb
Ġsup ine
Ġsup rap
Ġh aving
ot omes
ment ed
tr ation
Ġnerve Inferior
ect ions
ep icond
Ġsp e
se c
am ic
Ġpart ition
Ġpart ner
one uro
Ġvein Left
Ġtr acheal
Ġtr icuspid
ong iosus
Ġdis ting
if er
oss ible
ip lo
Ġmid axillary
Ġinter med
Ġinter vent
Ġreg ard
Ġad herent
op ic
op elvic
und ice
age ment
ell ent
Ġorig inally
ĠS agittal
Ġsub ject
Ġph ase
ĠL igament
ĠB etween
Ġocc l
qu id
qu educt
Ġst ent
embran ous
Ġpre tracheal
Ġch ain
Ġne u
Ġinternal ly
ĠP al
Ġposition ing
Ġother s
rag lenoid
ov aginal
der ly
Ġ2 4
Ġacc ident
Ġlymph oma
Ġtra bec
irc um
Ġgen ioglossus
ĠF unction
Ġloc ate
ind rical
ĠD ia
Ġinj ured
Ġep is
Ġrem ember
Ġnucle ar
Ġsphen omandibular
Superior ly
11 5
11 8
Ġlab ii
ĠR eg
vent ful
alcane onavicular
Ġser ves
olog ist
Ġprov iding
Ġexc ellent
15 0
15 6
Ġzygomatic us
14 3
Ġvar ies
Ġpalat opharyngeus
Ġcalcane ocuboid
Ġretin acula
Ġsw ing
roph aryngeal
Ġsem en
Ġcircum duction
Ġcommunic ate
Ġbul la
Ġassess ing
16 4
cul es
Ġsta ge
ak er
for amen
Ġneed ed
Ġencl ose
Ġche eks
Ġret inal
Ġabnormal ity
Ġperipheral ly
Ġimag inary
Ġperfor ated
Ġile ocolic
Ġile ocecal
che d
Sub clav
av ity
Ġrid ges
Ġappend icular
Ġpull ed
Ġcub oid
Ġextra peritoneal
Ġdepress ions
pl ant
Ġanesthe t
Ġpla y
omet acarpal
Ab duction
Al so
Ġsusp ensory
Ġembry onic
Ġpup illary
Ġbreat h
Ġlandmar k
Ġconch ae
Ġderm atome
Ġstabiliz es
Ġburs ae
Ġdisrup ted
Ġthorac is
Ġta king
Ġunders urface
Par ietal
inter costal
Ġembol i
Ġembol ization
Ġnon articular
Ġrare ly
Ġrela y
osp ongiosus
Ġadm inis
Ġadm itted
Ġapprec iable
Ġmechan ical
Ġoste oarth
Lat issimus
Ġves ical
Ġspong y
Ġanteroinferior ly
Ġbloc k
Ġrelationsh ips
Ġappar ent
Ġsend s
Ġdest ro
Ġestablis h
Ġexpans ion
Sac ro
Ġposteroinferior ly
Ġclinician s
Ġsle e
Ġcann ot
Supr ascapular
Ġcy cle
Ġrestrict ed
ĠOver view
Ġhippocam pal
gra de
Ġtars us
Ġsella e
ash ion
Ġtender ness
Pectoral is
Ġmig rate
Ġreas on
Up per
Ġinstrum ents
Ġantibiotic s
Ġmedic ine
Inc is
Ġdiag onally
Ġdra w
Ġalb a
ĠRelationsh ip
ordig itorum
Ġune ventful
bet es
Ġforeb rain
oneuro tic
Ġdisting uis
Ġintermed ius
B C
B as
B ladder
C or
C ol
C ut
D escending
G lenoid
L arge
L umbar
O cc
P udendal
S acral
T rans
T reatment
U ter
V ascular
V essels
W h
b e
c o
c one
d orsal
g r
l umbar
m an
m ary
m uc
m era
o per
s ess
x ine
y lohyoid
Ġ )
Ġ ide
Ġt ips
Ġa vascular
in ning
or pt
Ġp ac
Ġp ont
Ġp terion
on ad
on ens
ar k
en u
en ulum
Ġm em
Ġm otion
Ġf ul
Ġf und
Ġf ashion
ter ectomy
ter oposterior
Ġin tern
Ġl a
Ġl em
Ġl unate
it us
it ical
ed ic
ig lottis
Ġw ord
Ġw ave
Ġw ings
Ġto o
Ġto uch
Ġd id
Ġd ay
Ġd omes
as is
id ity
Ġth us
Ġv ent
Ġv ault
Ġg ently
Ġg yr
ran ce
el ve
rom uscular
eral ly
Ġh air
im a
ol uble
Ġas pir
Ġartery Anterior
Ġartery Superior
Ġpro te
ate way
Ġsp an
la ps
ine ae
Ġca mera
Ġab le
ec eptors
th is
th oscope
Ġcav al
ĠT X
Ġdis app
ys t
ys terectomy
ord ing
ord ae
lu x
lu de
Ġligament of
ag ing
Ġra ises
Ġen ough
ard iac
Ġinter rup
Ġreg ulate
Ġatt enu
Ġregion al
op ulmonary
ear s
ell ow
Ġap oneurotic
Ġtend ineae
Ġenter ed
ĠS up
ĠS II
ĠS imilarly
Ġob li
Ġph ot
Ġop t
ĠB y
Ġpar asternal
bran ches
Ġbr id
Ġst ance
Ġmajor ity
Ġclin oid
Ġili olumbar
Ġili ohypogastric
ĠP l
Ġsuperficial ly
Ġfr enulum
Ġnod al
Ġnod ules
ov ing
Ġlimb ic
of rontal
Ġdors um
Ġpteryg omaxillary
Ġun usual
Ġlo o
Ġloc ating
Ġunder ta
Ġme ans
sh ort
Ġcirc le
Ġman agement
Ġcour sing
Ex amination
Ġplantar is
Ġel derly
11 7
Ġsupr aspinous
row n
Ġport ions
Ġinclud ed
Ġint ens
Ġpect ineal
ĠE n
14 1
14 8
14 9
13 3
Ġlin ks
Ġlin ked
Ġrece iving
Ġwe eks
Ġag g
Ġag ents
Ġconstrict ors
Ġer ection
for ating
Ġradiograph y
Ġcontain ed
Ġcric o
Ġdef ine
17 5
Ġnas opalatine
Ġnas olacrimal
Ġped icles
Sp ine
Ġmod al
arter ies
Tr igeminal
Sub scapular
Ġintra peritoneal
Ġpull ing
Ġgall i
Ġstab ility
Ġkn ow
Ġthyro xine
Ġdepress or
Ġrespir ation
pl er
Ġbulb s
Ġpla que
Ġemb edded
Ġcurv atures
Ġtem per
Ġtem ple
ĠSuperior ly
Ġderm is
iov ascular
Ġja undice
Op tic
Ġthromb us
Ġy ellow
Ap ex
Ap oneurosis
par ent
Ġgr ip
Ġnam es
Ġprotr ud
Ġpad s
Sc iatic
tend inous
Ġclos ing
Ġclos ure
Ġapprec iated
Musc le
Ġinfect ed
Ġadduct s
Ġadduct ed
Ġens ue
Ġfil m
Ġperm anent
Ġu v
uloc utaneous
Ch orda
Ġfacilit ates
Ġestablis hed
Sac rospinous
Ġisol ated
Sh aft
Ġbl ind
Ġelect ro
Ġrele ase
Ġphysi ological
dent ifying
pec ially
Ġav oid
Ġsex ual
Im mediately
amp les
Ġcollic ulus
Ġimpro ve
Ġaccum ulation
Ġste thoscope
Ġmetab ol
Ġconscious ness
Cl in
Se veral
orect al
Ax is
Ġhamstr ing
Ġcyl indrical
Ġflav a
Ġbacter ia
Ġdys function
Ġdevic e
Ġendo lymph
Sternoc leidomastoid
po uch
Ġdefec ation
Ġdeform ity
Ġvolunt ary
ircum flex
ĠReg ions
Ġosteoarth ritis
Ġslee ve
Ġpac em
ofrontal is
: (
A cetab
B oth
B iceps
B ulb
C r
C artil
G ray
H ypoglossal
J oint
L I
L oss
N e
P ostganglionic
P assing
R enal
R homboid
S artorius
S urgical
T ensor
T ympanic
] ),
a que
b ers
b ack
c i
e thmoidal
g ia
i ations
k ull
m b
m er
m en
m iddle
n a
n eck
p able
p uce
p yloric
r ine
r ip
s up
t ibial
u ing
w ith
y z
Ġ 11
Ġt ert
he um
Ġo tic
or enal
Ġs ections
Ġp tosis
es cent
on y
on asal
Ġc ranium
en n
Ġm ix
Ġm orb
Ġf it
Ġf ovea
Ġl ist
le v
ig it
Ġto l
Ġd on
Ġd ram
Ġd ays
Ġn ame
Ġn inth
ct opic
Ġ( âĢľ
Ġv as
Ġv ul
Ġv oice
Ġan gular
ra d
Ġg l
Ġg am
Ġg onad
art s
tr ast
Ġr ich
Ġnerve C
Ġnerve Medial
Ġcon genital
ch ing
ol ars
Ġwh ose
Ġartery Inferior
Ġinf erolateral
ass ociated
ce phal
ad ing
ad dle
Ġpart ially
Ġhe ight
ĠA p
Ġtr ig
Ġtr ache
th oracic
ap ophysial
est ing
Ġdis pl
if est
Ġen h
Ġen ergy
Ġmid point
ĠC ross
ĠC ommon
ĠC ourse
Ġpal sy
Ġad vent
Ġad just
ie t
ie ve
iv al
op athy
op pler
Ġpl at
Ġpl aces
Ġco ugh
asc ial
ons cious
Ġcol l
ĠS p
Ġsub traction
Ġsub mental
ĠIn tra
ĠB r
ĠB ound
Ġpar s
Ġbr im
Ġax onal
Ġst ate
Ġst ates
Ġst ill
Ġpr one
Ġpr actic
Ġfasc iculus
Ġview s
Ġdia betes
Ġend oscope
Ġcor rect
erm ost
Ġili op
Ġdes ign
Ġapp lied
ĠP ostganglionic
Ġsac s
ĠM usc
Ġother wise
Ġbec ame
ov ascular
Ġimp inge
Ġ2 5
Ġacc ording
Ġconsist ent
Ġcereb rospinal
tain ed
Ġli quid
Ġtransverse ly
Ġcell ular
12 9
Ġme tal
ĠV enous
ĠV isualizing
Ġes pecially
ind ing
ĠD ermatomes
Ġman ifest
Ġstern ohyoid
âĢĿ ),
Ġpalp ating
Ġte g
Ġrec ept
Ġqu est
Ġpoint ed
Ġappro aches
tab le
Ġcond ylar
11 6
Ġind epend
ĠR e
Ġfe ver
Ġfe et
row s
Medial ly
Ġcur ve
Ġrep ort
Ġmar k
Ġneur on
14 2
Ġcard iovascular
Ġpath ology
13 1
13 2
Ġanastom osis
Ġcomm issure
tom otor
Ġsw ings
chan ge
Ġapproxim ate
ner ves
Ġag ain
Ġconstrict ion
Ġhy per
Ġpenetr ating
Ġsl it
Ġsl ight
oce le
Ġany where
Ġent rance
Ġfat ty
Ġspread s
Ġnarrow s
Ġche ck
Ġinterv ening
Ġret romandibular
Ġaffect ing
Ġexcept ion
Ġmo le
Ġlam bd
24 9
Ġaccompan ied
eg inning
umbil ical
Ġquadran ts
iliz ation
Ġureter ic
Ġsens itive
Ġreturn s
Ġextr ac
Ġreduc ing
Ġcerv ic
Ġlum p
Ġfront onasal
Ġabduct s
Ġstud y
ĠFor earm
Ġthough t
Ġrupture d
Ġunderg one
acer ebral
Ġcham bers
Ġprofund a
Ġpier cing
Ġgo iter
Ġhemorrh oids
Ġtak es
Ġfal se
Ġcompla ined
Ġplace ment
Ġcomb ine
Ġtw elve
Ġelong ated
Musc ulocutaneous
Ġcortic ospinal
Pteryg opalatine
lap se
Ġrepl aced
Ġoss ification
Ġcollect ively
Ġtransm it
Ġemiss ion
Ġmeas ured
Arter ies
Car pal
Man y
Ġdest ined
Ġpossib ility
Ġmon itor
Ġfus es
Ġisol ation
Ġmeet s
Ġvom iting
Ġcomplet ed
omed iastinal
Ġcolla ps
Ġpedun cles
Ġrapid ly
Ġfec al
Ġfec es
Ġejac ulation
Ġarth ritis
Ġunlike ly
Line a
Ġmer ge
Ep iglottis
Corac oid
Sec ond
Ġke y
ench ym
rot ympanic
esoph ageal
Ġinh ib
Ġoccipit ofrontalis
Ġosteopor osis
Reg ional
Ġess ential
ĠVer tebral
Ġrecons truction
bronch ial
ifer ous
iplo ic
Ġoccl usion
Sacro tuberous
cone us
Ġtemper ature
Ġpacem aker
Ġtert ius
Ġgam ma
ĠBound aries
A re
D iaphragm
E T
F unction
G reat
H y
L umb
L IV
M ental
P atients
S D
S usp
S ynovial
S erratus
T ibia
V al
V ocal
W ith
] ).
b or
b it
c ard
d own
f emoral
g row
g reater
h allucis
k les
l ess
l arge
l edge
o chond
r in
r ing
t ine
t ransverse
v ir
y ond
z o
Ġ rough
Ġt ightly
er ation
or ph
Ġs um
Ġs low
Ġs its
Ġp all
Ġp ump
at ur
Ġc all
Ġc ate
Ġc osto
ar pal
Ġb ed
Ġb ip
Ġin ward
us ed
Ġl od
le ural
Ġto tal
os ity
ul s
ur g
ur ce
om er
om ing
om fort
Ġre al
Ġre enter
el astic
rom astoid
il ation
Ġbe t
Ġbe nds
Ġh ous
Ġh ands
ot al
ot ome
ot ransverse
art icularis
tr ical
Ġr heum
Ġnerve Lateral
Ġnerve Right
ol low
Ġas c
Ġex erc
Ġex change
Ġwh at
Ġinf eromedial
se al
tic ation
Ġat tem
Ġsur v
ia e
ia xial
ad es
ad en
Ġpart ly
tern a
Ġvein Inferior
ym en
ym me
ft en
Ġper ily
Ġper istal
Ġper pendicular
ĠT VIII
ys es
if acet
Ġligament a
Ġcomp uter
ĠC ranial
ĠC ont
ĠC hest
Ġreg ular
Ġsc re
iv us
iv ot
ros cl
und ant
Ġinn ermost
II II
Ġsh or
ort unately
ell ular
Ġap ical
og n
ĠS A
ĠS h
ĠS t
ĠS mall
Ġro b
Ġsub occipital
Ġsub muc
and ible
ors ion
ĠIn s
Ġ4 5
Ġneck s
Ġocc up
qu us
ĠTh roughout
Ġtrans port
Ġtrans plant
Ġlong est
Ġnot ches
iz es
st ones
Ġch ordae
Ġfasc ias
Ġend ovascular
Ġover lie
Ġso urce
Ġ5 0
rag us
Ġtuber cul
Ġcr itical
Ġtib i
Ġdors ally
Ġins tead
Ġimp aired
Ġimp ossible
Ġbel ieved
Ġacc ent
Ġrect o
Ġpteryg omandibular
ject ing
Ġac id
Ġout flow
Ġout grow
Ġun re
Ġun ion
Ġun ilateral
Ġlymph oid
ack et
Ġtra vers
ĠO ne
ĠF emoral
Ġsec ret
yn amic
ĠD oppler
Ġcirc les
Ġcirc uit
Ġman ip
Ġbre ak
Ġpalp ation
Ġele ment
Ġperf usion
Ġrec ogn
Ex tending
ex tensor
ex cept
ex tension
Ġradi ological
Ġfunction ing
len ic
Ġexp la
Ġatr ia
Ġcolumn s
Ġdisc omfort
Ġpo ly
Ġfollow ed
Ġinvol ving
Ġpet romastoid
15 1
15 4
Ġcur rent
Ġbas is
Ġcentral ly
Ġvar ices
Ġmy otomes
13 4
13 7
Ġplate au
Ġcalcane onavicular
Ġaccess ed
Ġho le
ĠU sing
Ġrou tine
Ġbul ges
Ġthick ness
16 8
Ġshort ness
ĠG en
ĠG iven
ĠG VE
Ġcarp ometacarpal
Ġsegment ally
17 3
duc ed
Ġfat al
Ġnarrow ed
Ġnas i
Ġsever ity
Ġstr ip
Ġaffect s
24 8
Ġile al
eg mental
Ġcaud a
Tr ibutaries
Sub lingual
Ġol ivary
Ġsphinc ters
tect omy
Ġintra abdominal
Ġdil ator
Ad duction
Ġinfra hyoid
Ġdepress es
Ġdepress ed
Ġbulb ospongiosus
Ġlabyrinth ine
Ġrest s
Ġreveal s
Ġembry ologically
Ġmas tication
Ġsitu ations
Ġretro peritone
Ġsal ping
Ġstud ied
ĠEx amples
Ġeffect s
Ġsubdiv ision
ĠCon tinuing
Ġant i
ĠTyp ical
mo oth
Inf ra
tend on
tend ed
Ġcal ices
Ġves icle
Ġoss icles
Ġens uing
Ġstim ulate
rost ate
Ġsecre tion
Ġmamm illary
Ġalter ed
Ġdiff usion
Ġrequir ing
Ure thral
Ġpoor ly
Ġcalc ium
Ġinvestig ation
Ġprotect s
Ġprevious ly
Ġslop e
Ġpers ist
Ġpred ic
con trast
Rect us
Ġejac ulatory
Ġcollic uli
Ġimpro ved
Fib rous
Ġopp onens
Root s
Ġimpair ment
Ġdecreas es
Ġdecreas ed
Ġox ygenated
Ġdro p
Ġconjunctiv a
Ġadv anced
Ġvaric ose
Ġreflection s
gloss us
Ġill us
oli osis
Ġfibrocartil aginous
So ft
Ġball o
Ġresist ance
ophy seal
ho od
qual ity
Ġvir us
Ġspl its
ococcy geal
Ġinspect ion
Ġput amen
Ġtaloc alcaneonavicular
Spec ial
Ġmeasure ments
Ġach ieved
Ġga it
epicond ylar
ĠDia gram
Subclav ian
Occ ipital
orpt ion
Ġlem n
Ġgyr us
Ġaspir ated
Ġmorb idity
Ġpractic e
Ġrecept or
Ġmole cules
large ment
ochond rium
ymme trical
Ġperily mph
, âĢĿ
2 23
A ur
C N
C er
C entral
D ep
E fferent
G all
L am
L oc
L II
L ab
M ed
M ylohyoid
N ear
O ral
P ed
P rom
P et
P iriformis
R oug
S E
S imilarly
T emporal
T ransvers
V A
V ag
V aginal
b irth
c r
c ro
c ome
c ose
d eltoid
f orm
g g
g us
g ative
i en
j e
j oint
k able
l or
o anterior
o unds
p in
p re
r ation
r ist
r enal
r ix
s ies
t ens
u ated
v al
v aginal
x ic
x ia
Ġt ect
Ġt ort
Ġt able
Ġt ension
Ġa queduct
er inus
in ess
in der
al e
al ves
Ġs ucc
Ġs uf
Ġs ense
Ġs inu
Ġp ur
Ġof s
at o
ar ly
ar se
Ġm ul
Ġm ane
Ġm ention
Ġm itral
Ġf art
Ġf oc
Ġb ar
Ġb il
Ġb ot
Ġb rough
Ġb low
ic ipital
ro genital
an ic
an ion
it ect
le vel
ac ing
Ġw ent
Ġw ays
Ġto ugh
Ġd om
Ġd one
Ġd omed
Ġd ynamic
os tic
os terolateral
os keletal
Ġn ip
ion uc
ul ations
ur kin
Ġe ight
om en
Ġan ular
Ġan orectal
Ġan coneus
ib ule
Ġg et
il s
Ġsup erc
Ġh ysterectomy
Ġh ymen
ment ary
Ġnerve Posterior
Ġcon us
Ġcon ical
Ġwith d
ph renic
od ular
od iaphragmatic
Ġartery Deep
Ġartery External
Ġpro t
ate ways
la y
la mm
ub in
tic al
tic ul
Ġmuscle Posterior
Ġmuscle Adductor
ir es
ir ation
ir ubin
Ġal tern
oc y
oc rine
Ġcom ing
Ġde br
Ġde tail
ity mp
ta ge
ens ation
Ġfib ros
Ġfib rosis
Ġfib romuscular
ĠT r
ĠT um
lu cose
Ġcomp anion
Ġen vir
Ġpat ent
ĠC o
ĠC III
Ġinter m
Ġinter st
Ġinter articularis
arg inal
Ġatt ack
Ġsc oliosis
iv isions
op tic
Ġcl us
Ġcl ivus
ros es
ill aries
Ġdeep ly
act ive
Ġco un
uc ed
Ġsh ift
Ġcol lapse
Ġro w
Ġro om
Ġsub acromial
li x
ne es
Ġus ual
ĠL oc
rain age
ĠB E
Ġrad ical
Ġres ol
Ġbr acket
Ġst atus
Ġst ret
Ġtrans jugular
Ġtrans parent
de f
embran e
Ġpre ferred
st im
ree k
iang ular
Ġattach ing
Ġdes truction
Ġso ught
oth alamic
Ġ3 5
ov arium
An y
Ġrel ates
Ġcr escent
Ġdors olateral
lute al
Ġout lined
ĠO b
velop ment
ert ion
ence phalon
ĠF lex
Ġme an
sh aft
ĠV eins
ĠV essels
ĠV asculature
Anterior Posterior
ĠD e
ĠD igital
Ġmat rix
Ġqu ite
mar kable
Ġradi otherapy
Ġexam ining
iac ophrenic
Ġexp iration
Ġang uli
Ġang led
Ġind uce
vent h
ĠH g
Ġvena e
astro cnemius
Ġbeg an
Ġhyp ochondrium
Ġexc ised
Ġzyg apophysial
Ġgastro esophageal
15 7
Ġzygomatic ofacial
ĠW h
ĠE nd
Ġpath ological
13 8
Ġflu or
Ġlin k
Ġanastom osed
rap atellar
Ġpericard iacophrenic
ĠN ormally
Ġwe ek
Ġed ges
Ġfl an
Ġho arse
ĠU sually
Ġrefer ence
Ġfracture d
ple en
Ġdiagn ostic
Ġnar is
Ġintr acerebral
Ġbul k
Ġperform ing
Ġthick er
16 2
16 6
16 7
Ġgra d
Ġflow s
Ġbronch opulmonary
As sociated
Ġdesc rip
Ġhern ial
Ġhern iation
ĠG SA
Ġsul ci
loc k
Ġdef ines
Ġcap illaries
lan to
pos ition
Ġtrapez oid
18 6
18 8
ysm a
Ġindic is
Ġsynap sing
Ġparal yz
20 5
Ġmuscul ophrenic
Ġbif id
Ġcaud ally
Ġder iv
Ġintra hepatic
Ġmarked ly
Ġir r
Ġev ident
Ġdeterm ining
Ġcre ate
Ġsubd ural
Per ioste
Per ipheral
Per forating
Ġbulb o
Ab ducent
Ġoppos ition
Ġsusp end
Ġris ks
Ġcathe ters
lect ively
Ġoper ating
Ġswell ings
Ġpyramid s
othe lial
Ġretro grade
Ġdist ention
Ġsupra epicondylar
Ġthorac olumbar
Ġthorac odorsal
Ġmaintain ed
Ġparallel s
Ġfibro id
Ġfix ation
Flex ion
Ġcompla int
Lymphatic s
Ġcontract ions
Ġmasseter ic
Ġundergo es
Ġadm ission
Ġves icles
Ġepithe lial
Ġcollect ing
Pal mar
Ġtent h
Ġdetect ing
sp ace
ospinal es
Ġtransm its
Car otid
Car cinoma
ĠComp uted
ĠComp artment
Ġpara vertebral
Ġposteromedial ly
cartil age
ĠNer ve
Ġinvestig ations
Sh ort
Ġbl unt
Ġprec ise
Ġstylo glossus
Ġsom ite
Ġsom ites
roscop y
ĠK nee
ĠPro ximal
Ġplantarflex ion
Ġmob ility
Fract ure
Ġans erinus
Ġsuprac lavicular
Ġrepresent ed
Ġevalu ation
Ġhold s
Ġcorn iculate
Ġhippocam pus
Ġcomprom ise
Ġcomprom ised
Ġenc irc
Ġinters ect
Ġmetab olic
Ġsignal s
Ġhum or
Ġremnant s
Ġconjunctiv al
Infr atemporal
Vest ibular
Ġpop ulation
Ġglob us
Bucc al
St yl
avern ous
Ġvary ing
Ġproce ed
Ġathe roscl
ĠPre ganglionic
ĠAccess ory
Ġintro duced
Ġswe at
Ġamygdal a
proxim ately
Pron ator
Ġlaryng opharynx
Ġsuprap ubic
sec ond
Ġintervent ion
Ġregard ed
ĠLigament s
Ġdestro yed
Cor on
sess ment
Ġide al
Ġintern eurons
Ġunderta ken
Ġknow ledge
enn ate
lev ation
cephal us
Ġplat ysma
Ġquest ion
Ġlambd oid
Susp ensory
Ġpall idus
Ġcate gor
Ġasc ites
Ġshor ter
Ġunre markable
Ġillus tr
Aur iculotemporal
Roug hen
Ġmul tin
Ġmane u
Ġbrough t
Ġnip ple
ionuc l
urkin je
itymp anic
Ġenvir on
2 25
B A
B one
B efore
C I
C ranial
C alcaneal
C aud
D uct
D ura
D rainage
E levation
F ascia
G r
G iven
H umerus
I CA
M es
M eningeal
N ormal
O ver
P le
P ect
P yramid
P rostatic
R e
R et
T B
T I
V ar
W here
a ur
b re
b el
c ross
d s
d ose
f use
h am
i ency
l ac
l aryngeal
m id
m etacarpal
m embrane
o tendinous
p ly
p ulmonary
s te
s ympathetic
s inus
s pr
u ches
v it
Ġ iod
Ġt in
Ġt ight
er ed
in ce
in iform
Ġo t
or us
Ġs and
Ġs olid
Ġs addle
Ġp ast
Ġof g
es h
es ide
at ous
ar is
Ġm ight
Ġm ons
Ġb ag
Ġb ud
Ġb are
Ġb ox
Ġb eside
ic ulum
re ous
it ic
le vator
ac ile
Ġw ider
Ġto ol
Ġto urn
Ġd ose
Ġd ark
os tr
os ure
as ilar
ve in
Ġn ine
ul cus
ur ally
Ġe Fig
Ġe version
Ġe gg
om as
Ġv asculature
Ġan emia
um inal
um ps
usc ult
erior bit
Ġre action
el eration
Ġsup eromedial
Ġbe yond
Ġh ome
Ġpos to
tr igeminal
Ġnerve Radial
Ġnerve Nerve
Ġor th
im br
Ġma j
Ġex act
Ġartery S
ver tebra
Ġpro p
Ġpro s
Ġpro be
Ġsp ort
ub ital
Ġinf luence
se g
ĠI nd
tic k
Ġal ve
Ġal ign
Ġcom es
Ġhe ard
Ġhe av
the sis
Ġvein Superior
Ġvein Internal
ec urrent
Ġcan cers
th ra
ta e
per matic
ĠT reatment
ĠT erminal
Ġdis p
Ġdis tr
if ies
if ically
lu id
lu ding
Ġligament ous
Ġcomp r
Ġcomp ound
ag n
Ġra ise
ĠC A
ĠC er
ĠC ol
Ġreg ulating
arg ed
op ian
ant s
uc k
ab s
et atarsal
ell s
ator enal
ĠS I
ĠS c
ĠS e
ĠS ec
ĠS ympathetic
ĠS III
ĠS ynovial
Ġob long
Ġsub t
Ġsub sequ
Ġsub iculum
ĠIn c
Ġtub ules
ĠL ong
Ġocc luded
Ġrad ionucl
qu ad
Ġpar ent
ĠTh oracic
Ġres ected
Ġext rem
Ġbr ight
Ġax es
Ġcanal iculus
Ġch oanae
Ġflex ing
Ġflex ors
low er
duct s
Ġse al
iang le
Ġover use
ĠP udendal
ĠP oster
ĠP assing
ĠP arts
ĠP urkinje
Ġso on
ĠM R
Ġfr esh
Ġnod ule
Ġrel ation
Ġrel ieve
Ġtuber culum
Ġgland ular
Ġimp ar
Ġacc ur
tur ition
Ġout pouch
Ġaorta Superior
Ġlo ok
ĠO f
anc ies
Ġgen e
Ġarticul ating
ert y
ĠF inally
ign ificant
ĠAn y
ĠAn terolateral
ĠD is
Ġstern othyroid
Ġsympathetic s
Ġbut to
Ġep itympanic
Ġproject ed
Ġpain ful
Ġpub erty
Ġrec ur
Ġlob ar
Ġinv ade
uod enum
opl asty
Ġextens ors
Le vel
Ġcrest s
gen icular
Ġcava e
Ġcava Inferior
Ġdem ifacet
alcane us
Ġshe l
Ġrot ated
Ġser ve
ĠAs sociated
Ġint ima
15 2
15 3
Ġwr in
Th ird
Th roughout
itt ent
ĠE CG
14 0
13 0
13 5
Ġanastom osing
Ġanal ges
ll ing
Ġspec ulum
Ġspec ifically
Ġeyeb rows
Ġsem ispinalis
ĠN ote
Ġapproxim ated
ner able
ĠU p
Ġmalle olar
Ġer ode
Ġval gus
Ġsupport ing
Ġthick est
16 3
ful ly
Ġdirection s
Ġbronch omediastinal
Ġsole al
Ġhep atorenal
ios cro
Ġef ficient
17 9
Ġremov ing
Ġbro ken
Ġsmo king
Ġaccomp lis
18 0
19 7
23 5
Ġobtain ing
Ġindic ates
Ġperfor ate
Ġtraum atic
Ġmuscul oskeletal
Ġmuscul otendinous
Ġcavern osum
Ġsevere ly
Ġref lux
Ġuro gram
Ġol der
ique t
Ad ditionally
Ġdeterm ines
ĠAr ticular
Ġcre ates
Ġepicond yles
Ġdifferent iate
Ġbifurc ate
Ġthyro gloss
Ġrest ing
Inter costal
Ob lique
Ġsens ations
omet atarsal
over ed
Ġextr acranial
Al veolar
Ġconf irm
Ġphysician s
Ġdec rease
ox ygenated
Ġmalign ancies
atomy otome
Ġacrom ial
Ġce il
Ġdisrup t
ĠEx tending
Ġthorac o
Ġplan tae
Ġreinfor ce
Esoph ageal
par asympathetic
Ġpassage way
ĠCon traction
ĠCon sequently
Ġdisloc ations
Ġchild birth
Ili ac
Ġpier ce
Ġprotr ude
Ġconsequ ences
Ġfore ign
Ġscl erosis
Ġcontract s
une iform
Ġapprec iate
Musc ular
Ġpus hing
tinu ous
Ġrepl ace
cept ual
tra dural
Ġperm it
Ġsix th
Ġdefect s
Ġunc onscious
Ġpregn ant
Ure ter
Ġsle ep
Ġsom at
roscop ic
Ġshunt s
Ġposterosuperior ly
Ġdiscuss ed
Ġinterp ret
Ġinterp reted
Ġphysi otherapy
Ġmob ile
dent ification
Ġhorm ones
Ġsex es
Ġindirect ly
Rect um
amp iniform
Ġclass ified
Ġcorn ers
ABC D
epend ing
Ġclot ting
Ġrotator s
Ġprogress es
Ġmyel inated
Ġdecuss ate
Ġobject s
Ġhydro cephalus
Typ ically
oun ced
Ġretract ed
Ġfibrocartil age
Ġdivertic ula
Ġdivertic ulum
Ġlig ated
Ġanterosuperior ly
Ġfist ula
Ġever y
Ġconcer n
Ġconcer ned
Ġperfus es
Ġfeel ing
Ġstress es
Coccy x
Ġexper ience
ĠInf ection
ĠMore over
Ġabsorb ed
Ġincompet ence
Ov arian
Ġala e
Ġtrabec ulae
Ġanesthet ized
Ġadminis tering
Incis ive
Ġdistinguis hed
Bas ilic
Ġmem ory
Ġful ly
Ġword s
Ġattenu ates
Ġloo king
Ġagg reg
Ġuv ulae
Ġvul nerable
Ġtrache ostomy
Ġdispl acement
Ġcoll ar
ĠMusc le
Ġreport ed
Ġcervic is
Ġcollaps ed
Ġinhib it
Are a
Lumb osacral
zo a
Ġcall osum
Ġcosto cervical
Ġbet ter
Ġattem pt
Ġsurv ival
ĠIns tead
Ġsecret ions
Ġpoly ps
Ġballo on
Ġlemn iscus
Gall bladder
Ġtort uous
Ġpur p
ato zoa
Ġmention ed
Ġbil irubin
Ġbot tom
Ġaltern ative
Ġfibros us
Perioste um
Ġquestion ing
Ġmultin odular
Ġmaneu ver
Ġenviron ment
Gr acilis
spr ing
Ġtin y
Ġsand w
Ġtourn iquet
eriorbit a
Ġposto per
Ġorth op
Ġoblong ata
Ġsubsequ ent
ioscro tal
Ġthyrogloss al
2 21
A xilla
A ccess
B ones
B eginning
C L
C II
C ost
C ostal
C utaneous
D ermatomes
D uodenum
E m
E n
F e
F und
F ren
F urther
F inally
F inding
H or
H yoid
I dentifying
L V
L ook
M embranous
N ormally
O f
P en
P anc
P yloric
P atellar
P rostate
S aphenous
S ty
S pleen
T est
T arsal
T rochlear
U sing
U rogenital
V T
V V
V omer
] âĢĶ
a xilla
b etween
c ons
c rum
c onnect
e phalic
f ate
f ossa
f old
g an
g la
h ip
h ab
i ates
i mentary
j oin
l factory
m om
m ong
n ce
n owing
p iriformis
p elvic
r ence
s uch
s ensory
s phinc
s acral
s oluble
w a
w ell
y tic
Ġ 12
Ġ quality
Ġt en
Ġt orsion
Ġt ragus
Ġthe rapy
Ġa id
Ġa im
Ġa rous
er n
in f
in ar
in ates
in ations
in fr
in opelvic
al a
al us
or ectomy
or eceptors
Ġs ph
Ġs am
Ġp ivot
Ġp ampiniform
Ġof c
Ġof d
Ġof p
at oid
at ives
at ella
on ents
Ġc at
Ġc is
Ġc up
Ġc reat
ar ct
en o
is ms
Ġm ac
Ġm ortal
Ġm orph
Ġf unnel
Ġb ell
Ġb eds
ter omedial
ic ed
Ġin version
us ions
re lated
ro pl
Ġl ac
Ġl ent
an ome
an atomical
an teroposterior
it ron
le eding
ac c
ig astric
Ġw rap
Ġd i
Ġd rap
Ġd ental
Ġd ience
os ph
os ensory
as ive
Ġn ause
ent le
ing ula
ul ses
ur round
id uous
Ġe t
Ġe ctopic
ct or
om al
Ġv iral
Ġan ulus
Ġar r
Ġre hab
Ġg ateway
Ġg lucose
ran k
el ed
rom atous
il tration
te ction
Ġbe ar
Ġh im
Ġh ang
Ġh alves
ot ransvers
Ġarter iosus
tr ally
Ġr hy
Ġnerve Left
Ġnerve Median
Ġnerve Femoral
im b
im ate
ol a
ol ang
Ġas king
Ġon ce
ph ric
ph yl
all s
Ġex ists
Ġex acer
ep ar
Ġartery Lateral
Ġartery Ulnar
Ġpro pert
Ġsp asm
Ġinf rapatellar
se where
Ġj ug
Ġat lanto
Ġmuscle Inferior
Ġmuscle Aponeurosis
ut es
ad ductor
am edian
oc ostal
oc lavicular
tal k
oid al
oid ing
Ġhe nce
Ġde oxygenated
ĠA reas
Ġtr ibut
th roscopy
hes es
ta ke
ens es
teb rae
ap ula
Ġdis use
Ġdis tended
In tra
Ġsurface Posterior
Ġcomp act
Ġbone Frontal
Ġmid shaft
ĠC are
Ġsc ans
Ġad hes
Ġad heres
Ġad renal
ition er
ition al
Ġpl as
ill is
act iferous
act itioner
Ġco unt
Ġco ales
Ġinc ident
Ġcar un
Ġsm ell
Ġim m
Ġim mo
iss ary
Ġsk i
umb ens
ay ed
yg mom
Ġcol ick
ĠS pinal
ĠS che
Ġprocess T
Ġob es
Ġro ds
ne y
ĠL arge
ĠB ased
qu arter
Ġpar enchym
Ġbr ing
Ġst ra
Ġst art
Ġst rain
Ġst rap
Ġtrans ient
Ġtrans abdominal
Ġtrans ferred
Ġtrans pyloric
Ġpr actitioner
Ġk eep
Ġk nees
Ġvis ited
oph orectomy
Ġne ver
Ġne gative
Ġcontinu ing
ĠP h
oth oracic
ome tr
Ġtrunk Superior
Ġtrunk Left
Ġsep sis
ĠM e
Ġem otion
Ġul cers
An g
of f
her ical
Ġgland Submandibular
Ġins tab
Ġacc umbens
Ġun s
Ġmain tains
Ġlo ud
Ġarch itect
aneous ly
Ġarticul ations
ence phalic
ĠF irst
ĠF our
ĠF ortunately
Ġmes ovarium
Ġpul pos
pal atine
pal pable
Posterior Posterior
Ġinsert ing
ĠD ural
ĠD istal
Ġbre a
âĢĿ ).
Ġmin utes
Ġpalp ate
ucle ar
Ġdep os
Ġrec ip
ept ion
Ġqu iet
Ġsecond arily
Ex tens
ex ternal
Ġradi ologist
Ġfunction ally
len ius
Ġdo ctor
Ġexp lor
oul der
Ġel sewhere
Lateral Medial
acr um
flex ion
Ġlab ium
Ġlab ioscrotal
Ġcava Right
ĠH ow
Ġquad rate
Ġfe ed
Ġfe eding
Ġ1 5
Ġser um
Ġport ac
Ġcutaneous nerve
Ġpo uches
Ġexc reted
Ġexc itation
Ġpect en
15 5
ĠW e
ĠW illis
Ġmening itis
Th orac
14 5
Ġact ing
13 9
Ġplate lets
Ġnumb ness
tom ach
Ġsw allow
ĠFig s
cl osed
Ġrece ived
Ġfluid s
br ach
ĠN ot
Ġelev ations
Ġobs ervation
ĠU re
Ġag es
tuber cle
Ar y
oneu roses
16 0
16 9
cul omotor
Ġam ong
Ġshaft s
alam inar
Ġsl iding
Ġlat ter
ĠG reek
Ġsul fate
loc king
Ġdef ining
Ġef ferents
17 0
17 1
17 4
17 8
Ġoval is
icul i
Ġarticulation with
Ġble ed
Ġcap illary
Ġnarrow er
res olution
Ġche wing
Ġposter oanterior
18 7
23 9
Ġappear ed
24 3
Ġrespect ive
20 3
27 0
27 1
Ġmuscul us
Ġpresent ed
Ġspin othalamic
26 5
Tr iangular
Ġref ers
Ġtransvers arium
Ġtransvers ospinales
urf aces
Ġbreast s
iliz ed
Ġtermin ology
Ġdevelopment al
Ġgall stones
Ġstab le
Ġev ents
Ġpron ounced
fund a
Con tinuing
Con ceptual
Ġpla ys
Inter vertebral
Ġconver ted
Ab ove
Ġfail s
Ġinject ions
lect ed
Ġorific es
Ġsplen ius
Ġsplen orenal
Ġpattern s
Ġcontro lling
Ul trasound
Ul na
orn iculate
Ġcec al
Ġsal ts
Ġdepend ent
Ġstud ent
Ġcomplic ation
Ġempt ying
Ġce ment
Ġarc ades
Ġthorac otomy
Ġplan ned
Ġta ut
Ġcenter s
Ġheal ing
ioc avern
Ġgr acile
Ġconc ent
Or igin
Ġgut ters
Pre vertebral
Ġbiop sies
Pro jecting
Ġcompla ins
Ġcompla ining
ilit ation
Esophagus Trachea
Ġclos est
ĠJ oint
Ġirregular ly
Long issimus
Ġros trally
Ġjejun al
tinu ity
Ġoss ified
Tend ons
rect or
rect us
Ġwide ly
Ġperm itting
Ġtransm itted
Ġsecre te
Ġsecre ted
Ġsecre tomotor
Ġcontrol s
Gen erally
To gether
dro p
Ġalter ation
Ġexpans ive
Ġexpans ions
Br ach
Ġstro kes
Ġcalc uli
Ġbene f
Ġinvestig ated
ĠInter costal
Ġloose ly
Ġincreasing ly
Ġundersta nd
Orb icularis
Ġcune ate
Ġprotect ed
roscop e
Ġslop ing
Ġpers on
Ġpred is
Ġpred isp
Ġyoung er
pec ific
Ġdens ity
ĠAd ditional
Quad riceps
Ġevalu ated
Ġevalu ating
Im aging
Tuber cle
Tuber osity
Ġcut s
Ġdefic ient
Ġdefic its
Ġsequ ences
Ġulcer ation
Ġdorsiflex ion
Ġprogress ively
Ġtars ometatarsal
Ġcost otransverse
Ġcost odiaphragmatic
Ġhum an
Ġobstruct ed
Distal ly
Sem itendinosus
Ġox ygen
chond ral
Ġdecuss ation
Ġcoord inated
Ġvaric ocele
Ġhydro gen
Ġmethod s
Vest ibule
Ġke eps
reg ion
Ġwor king
Ġdent ate
Ġdent iculate
Ġacqu ired
Ġsubstant ial
Ġwid ens
Ġrender ing
Ġproce eds
Ġdiffer ence
Ġdiffer ences
malle olus
Ġnutr ient
ĠarteryC ircumflex
ĠIm mediately
ĠFib rous
Thyro hyoid
Ġhepat is
Ġstop ped
Fibular is
Pl antar
move ment
Ġpig mented
Ġvibr ations
Ġgran ulations
ĠFunction ally
Ġepis i
Ġdraw er
Ġfund us
Ġla ke
Ġdisapp ears
Ġbrid ges
Ġintens ive
Ġmodal ities
Subscapular is
Ġprotrud es
Ġelectro ly
Acetab ular
Ne uro
sup r
Ġdon or
Ġdram atic
Ġgl iding
Ġtrig one
ĠIntra venous
ĠBr onch
Ġiliop soas
Ġextrac ellular
Ġrough ly
Ġlod ge
uls ion
Ġrheum atoid
Ġexerc ise
Ġtubercul osis
Ġtibi ofibular
Ġcurrent ly
Dep ression
Lab ium
Ġsucc ess
Ġfart her
Ġfoc us
Ġdom inant
Ġsuperc iliary
Ġwithd ra
Ġdebr is
ĠTum or
Ġinterm ittent
Ġinterst itial
def ined
ĠOb turator
ĠEnd oscopic
Ġgrad ually
Ġparalyz ed
Ġderiv atives
Ġcategor ies
Duct us
Ple ura
aur icular
lac tin
Ġiod ine
uscult ation
Ġmaj us
Ġdistr ibute
ĠSe veral
ĠSec ond
ĠInc reas
Ġextrem ities
Ġgene tic
Ġanalges ia
Ġceil ing
Ġsomat osensory
Ġpurp oses
Ġpostoper ative
Ġorthop edic
Fren ulum
sphinc ter
Ġsph ygmom
arct ation
Ġmortal ity
Ġbell ies
ropl asty
anome ter
Ġdrap es
Ġdience phalon
Ġrehab ilitation
Ġrhy thm
phyl actic
Ġexacer b
Ġpropert ies
Ġjug ul
ocostal is
Ġtribut ary
Ġimmo b
Ġcolick y
ĠSche matic
Ġparenchym a
Ġinstab ility
Ġpulpos us
iocavern osus
Ġsphygmom anometer
' s
A D
A ortic
B ack
C P
C onnect
C SF
C ardiac
C uneiform
C ephalic
D igit
E thmoidal
E CG
F ive
H ep
H am
I mportant
L E
L III
L aryng
M in
M ove
M alle
M itral
M axilla
N ot
O ropharyngeal
O ste
P ortal
P isiform
P atella
R ad
R ecurrent
S T
S ternal
S quamous
S tomach
T ro
T ra
T rapez
T alus
W alls
X iphoid
a zygos
b on
b all
b ore
b asilar
c ranial
c alc
c omp
d uce
d igit
e f
e ch
e ated
f al
f action
f oot
f ifth
g ulation
g luteal
h inal
h umeral
h orn
i ogram
j ejun
k iew
k ene
m at
m uscles
o le
o ag
o ked
o lec
o ophorectomy
p ollicis
p read
p rostatic
p ebral
p athy
r act
r ons
r iform
s ens
s ection
s aphenous
s mall
s urgical
s mooth
s ulcus
t arsal
t ransvers
t rapezius
u k
u x
u ity
u ising
u tical
v a
v entral
v ulus
v essels
y x
y li
z ym
Ġ est
Ġt el
Ġt ach
Ġt urc
Ġthe rap
Ġa que
er otic
or ial
or hinal
Ġs at
Ġs en
Ġs ed
Ġs uc
Ġs qu
Ġs aphen
Ġs itting
Ġs af
Ġs talk
Ġp es
Ġp iriform
Ġp eriorbita
Ġof inter
Ġof flexor
at ically
Ġc ing
Ġc la
Ġc ast
Ġc ore
Ġc lavicular
Ġc rown
ar c
ar es
ar ch
ar ves
ar ietal
is h
Ġm inus
Ġm ind
Ġm ound
Ġm acula
Ġf ert
Ġf its
Ġf imbr
Ġb i
Ġb o
Ġb ind
ic a
ic z
ic ose
ic hed
Ġin te
Ġin gest
us ually
re w
re es
re am
re ast
ro cy
ro gen
ro peritoneal
Ġl ate
Ġl ub
Ġl iving
an el
it ia
it oral
le y
le gia
ig ur
ig ue
Ġw at
Ġw ors
Ġw eb
Ġw ides
Ġd up
Ġd anger
Ġd iploic
os quamous
as ing
as seter
Ġn ons
ent ed
ent ially
ul se
id way
om olog
om ohyoid
up per
Ġv ital
Ġan ococcygeal
Ġre tained
Ġg yn
Ġg rew
ran t
ran gular
el s
rom a
Ġfor c
il a
il ed
il trum
Ġbe nding
Ġh app
Ġh ollow
Ġh arves
Ġh omolog
Ġh ila
ot op
Ġpos tur
Ġarter iosum
Ġr ub
Ġnerve Ulnar
Ġnerve Flexor
Ġnerve Zygomatic
Ġcon j
Ġcon es
Ġcon oid
im ary
ol in
Ġas ymmetrical
od es
Ġartery Common
Ġartery Axillary
Ġartery First
Ġpro fuse
Ġpro lactin
ation al
Ġsp ut
Ġsp ont
Ġinf iltration
se t
ĠI s
ĠI Rib
ĠI dentifying
Ġle uk
Ġat h
Ġat tribut
Ġmuscle Anterior
Ġmuscle Lateral
Ġmuscle Medial
Ġmuscle Vastus
ace utical
ut ure
am us
am age
am mary
am kiew
tal ar
Ġde tached
ĠA ir
ĠA mong
Ġvein External
Ġtr ench
ta nd
ens ity
Ġper cuss
Ġper cept
Ġper cutaneous
Ġver m
ap oneurosis
est ed
ĠT arsal
ĠT III
Ġdis tur
Ġsurface Medial
lu e
Ġligament Posterior
Ġligament Inferior
Ġligament Femoral
Ġra y
Ġra ys
ip ping
Ġmid th
ĠC ric
ĠC ervical
ĠC utaneous
Ġinter space
arg in
Ġsc arr
Ġad en
Ġup right
ient ation
iv entricular
op arietal
Ġcl itoral
Ġabdom inopelvic
ill ar
ill ation
Ġco at
Ġco uch
uc iate
Ġinc ons
Ġbranch ial
Ġcar ne
Ġcar bon
et ium
Ġap ices
Ġap oneuroses
ist ent
ĠS kull
Ġsub end
Ġsub sequently
Ġsub talar
ire ction
Ġ4 0
Ġph osph
Ġop ac
Ġus es
ĠB ack
ĠB efore
ĠB leeding
Ġocc asion
qu ate
Ġ6 0
ĠTh ose
Ġres ides
eb ellar
eb rospinal
Ġbr uising
Ġax on
Ġst asis
Ġtrans fer
Ġtrans loc
Ġpre puce
Ġnot iced
Ġch all
Ġch olang
Ġch yli
Ġforamen Lesser
Ġcord is
Ġend oscopy
Ġend anger
Ġili ofemoral
Ġover laps
Ġapp lies
ĠP ET
ĠP leural
ĠP osterolateral
ud imentary
Ġlim its
Ġgreat ly
Ġsep ti
ĠM iddle
Ġbec oming
Ġem it
Ġfol lic
ov al
An atomical
of ascial
Ġrel ating
Ġnasal is
Ġdors omedial
vis c
Ġimp act
Ġimp ulses
ress ive
ress ions
Ġrect a
Ġac uity
Ġout line
Ġout come
otor eceptors
Ġun attached
Ġlymph aden
Ġlymph ocy
Ġterm ination
Ġtra verse
enter ic
Ġaorta Left
let ing
ĠO ften
anc reat
uter ization
Ġpen ile
ĠF acial
itone al
Ġunder lies
ĠAn teroposterior
pal at
pal ate
ĠD if
ĠD oug
ĠD epending
Ġmin imal
Ġpub orect
Ġqu ick
Ex tension
Ġradi ate
lic ation
Ġexam ine
Ġsphen o
Ġlob ules
Ġcond ensation
Ġinv ading
Ġinv asive
Ġexp osed
Ġcoron a
Ġple ur
ĠR ec
ĠR ather
ĠH is
ĠH em
Ġrot ating
Ġfe tal
Ġcolon ic
astro intestinal
Ġhyp ophysial
Ġhyp ophyseal
Ġint act
Ġint ram
Ġexc it
Ġexc lude
Ġpet rotympanic
idne y
Ġrep aired
ĠW here
Th yroid
ĠE soph
14 6
Ġvar iations
Ġmuc us
icard ium
Ġsim ply
Ġcalcane ofibular
tom y
Ġinfr ascapular
Ġnumber ed
ĠN e
Ġcontribut ing
Ġduod eno
Ġelev ating
Ġag ent
phthal m
Ġconstrict ed
Ġno te
Ġintr alaminar
Ġvisual izing
Ġthick ens
Ġsta ges
Ġsl ing
Ġsl ides
Ġsl ips
ĠAt tach
Ġsymph yses
Ġent orhinal
Ġpouch Perineal
17 7
urrent ly
Ġscan ner
ips oid
Ġfat igue
oh ol
tribut ion
Ġerect ions
18 5
18 9
19 0
19 3
19 4
23 0
23 3
Ġstr iat
rib riform
isc i
Ġleng the
Ġdistribut es
Sp lenius
20 2
27 7
Ġmod ify
Ġvocal is
Ġdescrib ing
Ġspin dle
26 9
Ġmult if
Ġabs orption
Sub arachnoid
ique trum
Ġlocal ize
For earm
Ġneuro pathy
Ġsubd eltoid
fund ibulum
pro aching
Ġident ifying
On ce
Inter c
Inter mediate
Ġcompress es
28 2
pr ioc
Ġconf ined
Ġconf igur
VI VII
Ġinject ing
Ġgap s
Ġdec eleration
Ġdec iduous
Ġoper ations
Ġoper ative
Ġanch ors
Ġpyramid alis
Ġtechn etium
Ġhemisp here
Ġsal iv
Ġderm atomyotome
Ġmetast as
Ġcle ft
Ġabduct ors
Ph arynx
Ph aryngotympanic
Ġstabiliz ed
Ġcys ts
Ġinst ance
ingiv a
Ġarc ade
Ġsupra hyoid
Ġsperm atozoa
Ġcatheter ization
ĠEx cept
Ġplan ning
Ġmaintain ing
Ġeffect ive
Ġsubdiv isions
Par otid
Ap ical
Ap proximately
Ġfinal ly
Ġgut ter
Ili otibial
Ili ohypogastric
Ġforn ices
Ġweak ened
Ġcompla in
Ġangi oplasty
oot s
Â° âĢĵ
Ġcontract ing
Sc ala
Ġtw isting
Ġsharp ly
Ġconto urs
Pteryg omandibular
Ġpus hes
Ġdim inis
Ġens ure
Ġfil ms
Ġperm its
Ġstim ulation
Ġepid ural
Ġsheet s
Isch iopubic
Ġtransition s
sp in
Ġconve y
Ch oanae
Gen eral
Gen itofemoral
Gen iohyoid
sub cutaneous
Ġalter ing
ĠComp onents
Trachea Left
Ure thra
Ġpneum on
Ġprog ram
Ġtarge ts
Ġaud ible
Ġpe a
omed ullary
ĠInter esting
Ġprec ision
Ġelect rical
Ġfield s
Ġcann ulated
Ġslop es
Ġrele ased
Ġdeg rees
Ġipsilateral ly
ob lique
Ġinver t
ĠAd amkiew
Ġdeliver y
Ġdeliver ed
Quad ratus
Quad rate
Ġcorn u
Ġaccum ulates
Ġfrag ments
lymph atic
Ġdev iation
Ġenc oun
Ġinters pinous
Ġclot s
Ġincomp lete
Ġopp osed
Ġsequ ence
ĠPer ineal
ĠPer ipheral
Ġtalar articular
Sphen opalatine
Sphen oidal
Ġrelax es
Ġrelax ation
Ġsuggest ed
Nas opalatine
Nas opharynx
Ġmer ges
Ġlapar otomy
Ġlapar oscopic
osto brachial
aps ular
aps ule
Ġmyel in
Ġobstruct ing
Sem ispinalis
Ġmic ro
Ġdro op
Ġreas ons
Infr aspinatus
Ġfall opian
Ġperiod s
Interosseous border
Ġhamstr ings
So le
ĠCl in
ĠCl ose
ĠOp ening
Ġsubstant ially
Ġbehavior s
Ġbehavior al
Bucc inator
Ġlack s
Ġathe romatous
ococcy geus
ĠPre vertebral
Ġaccount ed
af fect
arm aceutical
Ġexper ien
ĠFib ers
Ġcareful ly
Ġincompet ent
Ġtil t
Ġpig ment
igin ating
Ġspe ed
Ġspe ech
Ġneu tral
Ġanesthet ize
Ġblock age
Uter us
Uter ine
Wh ite
Ġpont ine
Ġpont omedullary
Ġvent ilation
Ġprote in
Ġinterrup tion
Ġobli quus
Ġphot ograph
ĠPl antar
Ġintens ity
Ġmodal ity
Ġmetabol ism
Clin ical
Clin ically
Cartil age
Cartil aginous
Ġmix ed
Ġlist en
Ġtol d
Ġtol er
Ġvas a
Ġindepend ent
Ġindepend ently
ĠRe aching
Function ally
Hy oglossus
Val ve
Ġsum mar
atur ia
urg ery
Ġreenter s
Ġhous es
Ġperistal tic
ĠCont ents
Ġaccent uate
Ġoutgrow ths
ĠGen erally
Ġretroperitone um
Ġsalping o
Lam ina
Loc ation
Ped icle
Pet rotympanic
Vag al
pin x
Ġsuf fer
Ġprot ons
Ġcoun tr
ĠWh ile
Ġfluor oscopy
Ġflan k
Ġdescrip t
Ġirr itation
Styl oid
Ġatheroscl erosis
Ġillustr ated
Pyramid al
ham str
vit reous
Ġofg astrocnemius
Ġsport s
Ġheav y
Ġdisp la
Ġcompr ises
ĠCol lectively
ĠLong itudinal
Ġfresh man
Ġaccur ately
Ġrecur rence
Ġsandw iched
Fund us
Hor izontal
Test is
VV VIVII
Ġarous al
infr atemporal
Ġsam ple
Ġcreat ing
Ġmorph ology
Ġnause a
urround ing
otransvers ales
ĠCare ful
Ġcoales ce
Ġcarun cle
Ġobes ity
Ġstra nds
Ang le
brach ii
Ġpredisp ose
Ġwithdra wn
Rad ius
jejun al
Ġturc ica
Ġaque ous
Ġsen ior
Ġinte gr
Ġlub ric
Ġwides pread
Ġdup lex
Ġnons pecific
Ġgyn ec
Ġpostur al
Ġsput um
Ġpercept ion
Ġdistur b
Ġscarr ing
Ġcarne ae
Ġlymphaden opathy
ĠDoug las
Ġpuborect alis
Ġduodeno jejunal
Ġstriat um
Ġconfigur ation
ĠInteresting ly
ĠAdamkiew icz
Ġencoun tered
% .
2 15
2 28
A P
A la
A per
A mp
A fferent
B ile
C D
C an
C ys
C ric
C enter
C IV
C oronal
C avity
C avernous
C ubital
C alcaneus
C orniculate
C ribriform
D G
D ia
D ens
D ors
F ascial
F rank
G ap
G anglion
G lossopharyngeal
G aps
G VE
G ateways
G astrointestinal
H em
H igh
H and
H yp
H umeral
I P
I dentification
L iver
L actiferous
M od
M ore
M ult
M etacarpal
M olars
M asseter
M argin
N o
N avicular
N uclear
O tic
O ut
O roph
O CT
O lfactory
O culomotor
P D
P la
P ub
P iriform
P oster
R ap
R CP
R amus
S al
S im
S ta
S truct
S keletal
S esamoid
S permatic
S kene
T ongue
T orus
U S
U v
U sually
U mb
V agus
W rist
a ily
a ined
b ul
b ach
b lood
b iceps
b ility
b ucc
c ar
c yl
c alled
c ohol
d es
d ors
d iaphragmatic
d ivisions
d ensity
e lect
e quate
f ace
f ree
f ness
f ormation
f acial
f luid
g o
g er
g al
g ans
g kin
g luteus
h icle
i ocephalic
i ography
j ur
k nee
l ate
l ation
l ight
l bow
l esser
m in
m eningeal
m oving
m andible
n ot
n erv
n asal
n ormally
o ly
o od
o end
o nds
p les
s kin
s keletal
t ent
t te
t use
t ific
t ongue
u ation
u ild
v ular
v ol
v ius
v ious
v oiding
w hen
w allowing
x is
x ide
y e
y ph
Ġ Y
Ġ ut
Ġ 120
Ġt ur
Ġt rough
Ġt imes
he a
he ck
he lix
Ġa ug
er ve
er ver
er ies
in to
in ternal
in king
in ences
in iferous
al so
al veolar
al uminal
Ġo ur
Ġo phthalm
or ks
or atory
or ner
or por
Ġs on
Ġs trict
Ġs uit
Ġs ymmetrical
Ġs ince
Ġp in
Ġp ure
Ġp hen
Ġp ack
Ġp ylor
Ġp orta
Ġp ocket
Ġp oles
Ġp umps
Ġof zyg
Ġof anterior
Ġof intercostal
Ġof tibial
at in
at ible
at ile
at ified
at ectomy
Ġc ure
ar ius
ar ters
en ess
en ital
en iae
en largement
Ġm ell
Ġf ur
Ġf ast
Ġf ocal
Ġb un
Ġb olus
Ġb orn
Ġb ioc
Ġb icipital
Ġb uild
ter ol
ic o
ic s
ic ation
Ġin ten
re ed
re tomotor
ro of
ro cal
ro lled
ro basilar
Ġl ed
Ġl ytic
Ġl ingula
an terolateral
an oma
it iv
it ating
it ially
it ude
ed al
le arly
ig id
ig ra
Ġw orm
Ġw ound
Ġw ires
Ġd ie
Ġd ual
Ġd rag
Ġd io
Ġd rin
Ġd aily
os te
Ġn or
ul th
ul ospinal
ur ity
id iaphragm
id irection
Ġe qual
ct ing
om ous
om ies
om ening
Ġan te
Ġan tic
Ġan kles
Ġan omal
um es
um mary
Ġar tific
ra xia
ib ility
ib ulocochlear
Ġre tain
Ġre ticul
Ġg ir
Ġg ast
Ġg ross
Ġg ain
Ġg entle
el anoma
rom edial
il k
il ia
il ities
Ġsup inate
Ġsup raglenoid
Ġh a
Ġh it
ot r
ot rem
Ġpos itron
Ġare ola
art os
tr iangle
Ġr ates
Ġr udimentary
Ġr igid
Ġnerve Deep
Ġnerve Internal
Ġnerve Superficial
Ġnerve Pudendal
ol k
ol len
Ġma p
Ġon set
ph ys
em b
all ate
Ġex ist
Ġex terna
od gkin
Ġwh y
ep id
ep iploic
Ġartery Medial
Ġartery Radial
Ġartery Ascending
Ġartery Septal
Ġpro ducts
Ġpro phylactic
to p
ate ver
Ġsp ond
Ġsp ike
Ġsp ared
Ġinf lu
Ġinf requ
Ġinf lated
Ġinf raglenoid
Ġmed ull
Ġle vers
Ġca ught
Ġca uterization
ace ts
ce le
ad ed
ad ver
am ed
Ġpart of
Ġal one
Ġal ters
Ġal cohol
oin fund
Ġhe lix
Ġde x
Ġde tection
Ġve hicle
Ġab undant
ĠA xillary
ĠA SD
ĠA CL
ves t
the se
ong enital
erv ing
lo pharyngeus
Ġper it
Ġper iventricular
ap legia
ap raxia
per ineal
ĠT ra
ĠT emporal
ĠT IX
ĠT XI
ĠT ransvers
ang u
In s
In trinsic
In fundibulum
Ġsurface of
ys tectomy
ord s
if fness
lu cent
Ġligament Sacrospinous
Ġcomp ounds
ag ic
Ġbone Palatine
Ġbone Maxilla
ip olar
ip ennate
Ġen ema
Ġverteb robasilar
Ġsupp le
ĠC N
ĠC V
ĠC ort
ĠC ardiac
Ġinter fer
Ġinter atrial
Ġreg ulation
Ġad equate
Ġad ulth
Ġup take
ie f
op rostatic
op aque
ros tomy
Ġpl astic
so f
Ġdeep ens
act s
Ġco iled
II X
Ġinc enter
Ġinc orpor
Ġsh are
Ġsh rug
Ġbranch Anterior
et s
ell ed
Ġhead ache
Ġhead medial
Ġap ron
Ġorig inal
iss ures
reat hing
og en
umb rical
Ġass ume
essel bach
ĠS im
ĠS truct
ĠS uch
ĠS ten
ĠS yl
ĠS pec
ĠS urgical
ĠS ignificant
Ġprocess Inferior
Ġro les
Ġsub phrenic
Ġstruct urally
li er
li quus
ĠIn guinal
ĠIn trinsic
Ġph otoreceptors
Ġop tion
Ġop aque
Ġtub eral
ĠL ow
ĠL ung
ĠL ying
rain ing
Ġ7 0
ĠB ranch
ĠB orders
ĠB ony
ĠB reast
Ġocc lude
qu arters
Ġ6 5
Ġpar aplegia
ĠTh rough
Ġres ide
Ġres ident
Ġres isting
Ġst ran
Ġtrans ected
Ġtrans vaginal
Ġtrans lucent
de velop
pect oral
Ġplexus anterior
Ġpre par
st raight
Ġassoci ate
Ġcanal Inferior
Ġcanal iculi
Ġch oles
Ġch oice
Ġch olec
Ġflex ordigitorum
Ġview ing
Ġview Superior
ric tion
Ġne ph
Ġne igh
Ġend ocrine
Ġse venth
Ġover weight
Ġapp lication
ĠP ain
ĠP ortal
ĠP ron
ĠP ulmonary
ĠP ICA
Ġ3 0
Ġ3 3
ĠM en
ĠM andibular
ĠM axillary
ĠM eck
ĠM idway
rag lottic
Ġem p
Ġem inences
Ġem phys
Ġfol ia
An terolateral
Ġrel ate
Ġfoot drop
teryg oid
Ġtuber oinfund
verse ly
Ġsinus Right
Ġperine phric
Ġoccur ring
Ġcontr ac
Ġgland Right
Ġins ula
Ġins oluble
ull ed
jac ulatory
Ġduct ules
Ġlayer of
Ġline Inferior
Ġconsist ently
Ġborder Lateral
Ġtra ditional
umer o
let es
ĠO ral
anc ing
Ġli ft
ĠF e
ĠF loor
ĠF ascia
itone um
Ġflexor hallucis
Ġloc king
Ġforearm Radial
Ġforearm Musculocutaneous
Ġunder lie
Ġsurg eries
Ġpul s
Ġpul ley
ĠAn kle
ĠAn other
ĠAn atomical
sh oulder
ĠV ol
ĠV est
ĠV iew
ĠV isceral
Anterior Anterior
Anterior border
Posterior Anterior
ĠD iaphragm
ĠD irect
ĠD iaphragmatic
ĠD VT
Ġstern otomy
Ġmat urity
Ġoblique aponeurosis
Ġthyroid ectomy
Ġele venth
alc iform
Ġrem ained
Ġear lier
Ġte chnic
Ġrec o
Ġrec ently
ept um
Ġganglion ic
Ġpoint ing
Ex cept
ex isting
Ġradi ated
Ġradi ating
Ġradi ations
Ġradi opaque
VII IIX
Ġmal es
Ġinv ag
Ġintercostal s
Ġdo ing
Ġexp osure
Ġind uced
Ġcontinuous ly
Ġlab eled
Ġlab oratory
ĠR o
ĠR ect
ĠR enal
ĠR adial
Ġcrest Foramen
Ġpulmonary artery
ĠH ypoglossal
ĠH orner
Ġquad r
Ġspine Anterior
Ġtubercle Cuneiform
Ġhem i
Ġhem op
Ġhem idiaphragm
Ġ1 9
Ġcutaneous branches
ĠAs sessment
Ġdisc on
Ġorg asm
Ġexc luded
Ġisch iocavernosus
Ġpect inate
Medial Lateral
trict or
Ġbow l
Ġbow ing
Ġinlet s
Ġgeneral ized
15 9
Ġcur ative
Ġlea k
Ġbas ically
Ġrep eated
ont ine
ont anel
Ġnear ly
Th ose
Ġneur apraxia
ĠE D
ĠE mer
14 7
Ġvar iation
icard ial
Ġpalat al
Ġpalat ovaginal
Ġprim itive
Ġsw ollen
chan ters
cl ature
Ġpericard itis
Ġatrium Right
Ġmass ive
Ġminor Rhomboid
Ġaortic orenal
Ġfl ip
Ġfl acc
Ġobs erver
Ġnotch ing
ĠU ter
Ġconstrict s
Ġconstrict ions
Ġdiagn ose
Ar m
Ar achnoid
Ar rangement
Ar throscopy
Ġintr ac
Ġintr aluminal
Ġresp ond
etr ates
Ġval vular
Ġsupport ive
ram us
ram astoid
16 1
16 5
Ġsta ging
omes encephalic
Ġam n
Ġam en
oscop ically
Ġpost rem
Ġoptic al
Ġpenetr ation
Ġtro chanters
As sessment
Ġsl ip
Ġlat ency
Ġsimilar ly
AB Posterior
ĠG SE
ĠG VA
Ġhalf way
17 2
17 6
ymptom s
Ġble nding
Ġcap able
Ġbiceps brachii
term ination
Ġdel ayed
eng th
Ġencl osing
pos ite
pos terolateral
At las
18 1
18 2
18 3
18 4
19 2
Ġstr ia
Ġstr atified
Ġstr ength
Ġouter most
Ġret ropharyngeal
24 2
24 5
24 7
Ġperfor ations
Ġbroad er
Ġeas y
20 8
27 2
27 6
Ġmuscul ofascial
Ġmod els
iop ancreat
Ġsternoc ostal
26 0
26 6
Ġmult iaxial
Ġcollateral s
Sub costal
Ġder ives
Ġappend ectomy
Ġlocal izing
ĠAr rangement
25 4
Ġsubd iaphragmatic
Ġpron ate
fund us
Per pendicular
Ġinterventricular branch
Con tinuous
Ġpla ying
Inter tubercular
Ġemb olus
Ob liquus
Ġconver t
Ġconver ges
Ġconver ts
Ġcompress ing
28 1
Ab ductor
Ġoppos ing
Ġnetw orks
Al ong
Ġfail ed
Ġham mer
Ġdec omp
Ġdec ided
Ġhist ological
Ġinterconnect ing
Ġtrochanter ic
Ġmas tectomy
Ġsurge ons
Ġsitu ation
Ġsal t
ocard ial
pert ures
Ġsubst ances
Ġcircular es
Ġcorac oclavicular
Ġdist ant
Ġcomplic ated
Ġprev al
Ġroughen ings
Ġstabiliz ation
Ġinst it
Ġsupra optic
Ġsuture d
Sup inator
ĠEx tensor
ĠEx amination
Ġreinfor ces
arp a
Ġforce fully
Par a
Ġtons illar
Ġmaxim um
Ġembol ism
par a
ĠCon versely
pir atory
Ġant it
Ġchild hood
Ili ocostalis
Pre puce
Ġremain der
Pro funda
Ġconsequ ently
Ġshow ed
Sc ro
Sc aphoid
Sc arpa
Ġclos er
Ġhypert roph
He art
Ġcal yx
ĠMedial ly
Ġros trum
Ġ10 0
Ġpus h
Ġwal k
omm unic
Ġdifficult y
Ġbronchi oles
Ġens ues
Ġbloc ks
Ġlif est
neum othorax
Ġstim ulus
Ġstim uli
Ġstim ulated
Pal pebral
osal pinx
ĠMove ment
Ġmaterial s
Ġreflect ed
sp hen
Ġtransm ission
Ġinvolve ment
sub deltoid
rem oval
ĠAb ove
Un fortunately
Un cinate
Ġpunct um
Ġlacer ation
Ġisol ate
gener ative
Ġhelp ful
oves ical
Ġcalc ification
apar oscopic
Ġeval uate
Ġcharacteristic s
Zygomatic otemporal
Ġfrequ ency
ĠInter mediate
Ġconst it
Ġprec ipit
Ġelect rom
Ġsle nder
Ġdiver ge
Ġcann ula
iasm atic
Ġfew er
Ġorganization al
Supr aspinatus
Ġcy an
Ġreview ed
Ġpers ists
app end
Ġinterp re
Ġinterp osed
Ġplantarflex es
Ġmob ilized
Branch ial
De velop
De velopment
De generative
ob turator
Ġgu ide
Ġproxim ity
ĠAd ditionally
Quad rangular
Tuber culum
Ġaccommod ation
Fib ula
port ion
Ġste ps
Ġdev iated
Ġsequ entially
Sphen omandibular
Ġrelax ed
Ġsuggest s
Ġsuggest ive
Nas ociliary
Nas olacrimal
Ġlapar oscopically
ĠPar asympathetic
Ġimpair ing
Sem imembranosus
Ġmic roscope
Ġmig ration
Ġdecuss ating
Ġadv an
Ġcoord inate
Ġelastic us
Acromion Glenoid
Acromion Spine
Ax ons
Typ e
Typ ical
Ġill ness
Ġinstrum ent
col umn
Ġtreat ments
Ġpop ular
Ġflav um
Ġwor se
Ġassist ed
Ġacqu ires
ĠOp tic
Ġsubstant ia
hem ical
esoph agus
Ġever t
Ġvir t
Ġrender ed
Ġspl it
Ġaccount s
Ġperfus ed
Ġosteopor otic
malle olar
ĠIm ages
ĠSub divisions
Ġintro duce
Thyro cervical
Ġtaloc alcaneal
Ġswe ating
Spec ific
Ilio inguinal
Palat opharyngeal
Comp leting
Pl ane
superficial is
Ġtil ted
Ġset s
Ġlaryng oscopy
Ġpartition s
ĠPal mar
Ġtrabec ula
Incis ors
Ġdraw s
Bas ilar
Col les
Ġmem or
Ġful crum
Ġvent romedial
Ġdisapp ear
Ġinterrup t
ĠSup erolateral
Ġobli ter
Ġbrid ge
Ġagg ressive
Ġgrip ping
Ġprotrud ing
Ġuv ula
Ġendolymph atic
Acetab ulum
Cr us
Cr ista
Ġlist ening
Ġdram atically
Ġname ly
rad ial
Ġenh ance
Ġenh anced
Ġadvent itial
Ġadvent itia
Ġcough ing
Ġiliop ubic
Ġdesign ed
Ġteg mental
Ġhyper extension
Ġextrac apsular
Second ary
Ġslow ly
Ġbip ennate
otal ar
ĠSh aft
Ġsubmuc osa
Ġsubmuc osal
Ġoccup ies
Ġtransplant ation
Ġoutgrow th
Ġtravers ing
Ġexpla ined
Ġretroperitone ally
Ġanti helix
Ġpredic table
Prom inence
Ġtect um
omen clature
lay ered
lamm atory
Ġclus ters
Ġresol ve
lock age
Ġbifid a
Ġretrograde ly
Ġfibroid s
Ġcomplaint s
second ary
Coron ary
Roughen ed
Pect ineus
bre vis
bel ow
sinus es
Ġpros thesis
seg mental
ĠInd ivid
Ġalve ar
Ġalign ment
ĠCer tain
Ġsubt le
Ġradionucl ides
Ġparent heses
Ġoutpouch ings
ĠDis tribution
Ġbutto ck
Ġshel f
Ġwrin kles
ĠUp per
Ġaccomplis hed
Ġinterpret ation
Ġalae que
Access ory
Em issary
Fe tal
Panc reas
Sty lohyoid
gan ization
gla nd
wa ke
Ġcis terna
Ġlent iform
Ġadhes ion
Ġcount ing
Ġstart ed
Ġbrea ks
Ġrecip rocal
Extens ordigitorum
Ġportac ath
Thorac odorsal
Ġswallow ed
Brach iocephalic
Ġbenef its
Ġpredis position
Ġepisi otomy
Ġelectroly tes
Ġimmob ilization
Laryng opharynx
Min or
Move ments
fifth s
oag ulation
zym es
Ġsaphen ofemoral
Ġcing ulate
rogen ic
Ġleuk emia
Ġath letes
Ġverm is
Ġmidth igh
Ġsubend ocardial
Ġcholang iopancreat
Ġendanger ing
Ġemit ter
Ġfollic les
visc eral
Ġquick ly
Ġexcit atory
ĠEsoph ageal
ĠAttach ments
Ġpneumon ia
affect ed
Ġexperien ced
Ġtoler ated
Ġsummar ized
Ġcountr ies
VVVIVII VIIIIX
Aper ture
Amp ulla
Cys tic
Frank fort
Oroph arynx
Pla in
Uv ula
cyl inder
nerv ated
Ġsuit able
Ġpure ly
Ġofzyg omatic
Ġmell itus
Ġfur row
Ġbun ion
Ġbioc hemical
Ġinten se
itiv ity
Ġdio xide
idirection al
otrem a
Ġmedull aris
ĠCort i
Ġadulth ood
ĠSyl vius
ĠSpec ial
develop ed
Ġcholes terol
ĠPron ation
ĠMeck el
Ġemphys ema
Ġtuberoinfund ibular
Ġtechnic ian
ontanel les
Ġflacc id
Ġpostrem al
Ġcholangiopancreat ography
2 14
2 24
A L
A ir
A round
A zygos
B y
B ur
B ase
B arth
B ony
B icipital
C erv
C ap
C ons
C hest
C ochlear
C lavipectoral
C apsule
C heck
C ords
D is
D em
D if
D ivisions
E thmoid
E CT
E mb
E arly
E rector
E lbow
F loor
F ix
F our
F ortunately
G la
H ard
H owever
H inge
H ook
H ern
I nd
K nowing
K idney
L es
L arynx
L AD
M id
M uch
M ain
M agnetic
M andible
M etatarsal
M IP
N eurons
N aris
O lecranon
O LE
P es
P ia
P ost
P ain
P soas
P NS
P opliteus
P ET
P osterolateral
P ECT
R E
R upture
R CT
R elationsh
R ima
S om
S tern
S ural
S agittal
S ingle
S eminal
S igmoid
S ometimes
S egmental
S mooth
S acrum
S urgery
T IV
T eg
T aste
T esticular
U B
V is
V entral
W I
] (
b al
b es
b ut
b ase
b orn
b ony
c m
c ap
c ell
c ric
c ks
c king
c ommon
c uate
c arp
c omm
c alcaneal
c aud
c avity
c yst
c arpal
c overed
d a
d im
d ue
d ay
d istal
d escending
d igital
d raining
e ard
e Table
e ye
f at
f ib
f all
f ers
f ive
f irst
f loor
f fort
g ro
g lossopharyngeal
g erminal
g ional
h ig
h ang
h ard
h yp
h iatus
h our
i ant
i osis
i olog
i vers
i ofemoral
i ologist
i esselbach
j o
k er
k et
l d
l at
l od
l oin
l acrimal
l arged
m y
m es
m ell
m ain
m axillary
m olars
n own
n ix
n avicular
n utr
o es
o ub
o ir
o uble
o bronchial
o append
p ation
p tic
p ap
p ite
p ans
p lic
p udendal
p ain
p ortal
p soas
p lenic
r or
r ically
r ios
r iding
r ites
r illation
s al
s ed
s ternal
s ix
s ized
s agittal
s pir
s kull
s eptum
t on
t est
t ening
t ime
t rochlear
t ibia
t otal
v as
v ia
v agus
w s
w ire
w alled
w rist
x ture
y re
y ema
y card
z e
Ġ $
Ġ ion
Ġ umb
Ġ Qu
Ġ iat
Ġt ing
Ġt one
Ġt enses
Ġthe r
Ġa uscultation
er ge
er ect
er ebellar
in at
in ent
in ase
in ternus
in dex
in opathy
al en
al ed
al ong
al ign
al ysis
al anges
Ġo cular
or ough
or king
or rent
or pus
nd ers
nd rites
Ġs ol
Ġs lic
Ġs elf
Ġs ymptomatic
Ġs atur
Ġs tick
Ġp is
Ġp ins
Ġp ill
Ġp itting
Ġp yre
Ġof e
Ġof the
Ġof temporal
Ġof sub
es cop
on ro
on to
on tin
on itis
Ġc os
Ġc ent
Ġc ran
Ġc op
Ġc ult
Ġc ath
Ġc lavic
Ġc lue
Ġc ilia
ar um
ar otid
ar cinoma
en ervation
en ergy
is thmus
is factory
is Pubic
is otop
Ġm ot
Ġm ir
Ġm ural
Ġm other
Ġm olars
Ġm elanoma
Ġm ilk
Ġf lo
Ġf unic
Ġf ilum
Ġf lap
Ġf riction
Ġf alciform
Ġb ic
Ġb ab
Ġb iaxial
ter osuperior
ic ion
ic ranium
Ġin ch
Ġin adver
re nd
re te
re ction
re nder
ro l
ro p
ro ad
ro ke
ro vaginal
Ġl ith
Ġl ive
Ġl act
an te
it ary
it our
it ching
ed ed
ed le
ed les
ed undant
le ments
ac ute
ac lavicular
ac olic
ig od
ig one
ig ger
Ġw ra
Ġw ast
Ġto xic
Ġd r
Ġd og
Ġd ull
Ġd ied
Ġd iast
os yn
as ic
as ia
as ure
as agittal
as cending
ve ins
Ġn igra
ion avicular
ent a
ent ary
ul itis
ul omotor
Ġis s
ur ge
ur able
id i
Ġth um
Ġth reat
Ġth orough
Ġe ch
Ġe la
Ġe ating
Ġe lic
ct omy
up s
up ying
up tures
Ġv it
Ġv ast
Ġv allate
um s
um pt
ra hyoid
usc ommunic
Ġre verse
Ġre traction
Ġre abs
Ġre nders
Ġg end
el ic
el igament
el lop
el ae
rom ammary
il ion
il ated
Ġsup reme
Ġh ab
Ġh arm
ot ator
ment um
tr ue
tr usion
tr acranial
Ġnerve Superior
Ġnerve Greater
Ġnerve Dorsal
Ġnerve Axillary
Ġnerve Tibial
Ġnerve Optic
Ġnerve Mental
Ġnerve Perforating
Ġnerve Auriculotemporal
Ġnerve Saphenous
Ġnerve Thoracodorsal
ess es
Ġcon tex
Ġcon gest
Ġcon joint
im p
im ulation
ch arged
ch iasmatic
ol ute
ol uminal
ge mell
Ġas piration
Ġon es
ph y
ph aryngeal
ph aryngotympanic
em ur
em erge
ect asis
Ġex ertion
od ies
od erm
od igastric
Ġartery A
Ġartery B
Ġartery Superficial
Ġartery Dorsal
Ġartery Femoral
Ġartery Pulmonary
Ġartery Popliteal
Ġartery Artery
Ġartery Hypoglossal
Ġartery Thyrocervical
ver tebrae
Ġpro ct
Ġpro cer
Ġpro prioc
to e
to xic
un like
un ning
un cular
Ġsp ot
Ġsp herical
la il
la de
la wing
ub rios
Ġinf raglottic
ĠI dentification
Ġj our
Ġj ux
Ġat om
Ġat omic
Ġat tending
Ġlateral genicular
Ġsur pr
Ġmuscle and
Ġmuscle External
Ġmuscle Superficial
Ġmuscle Greater
Ġmuscle Middle
Ġmuscle Obturator
Ġmuscle Common
Ġmuscle Tendon
Ġmuscle Clavicle
Ġmuscle Trapezius
Ġmuscle Sciatic
Ġmuscle Gracilis
Ġca da
ass es
ace ous
ace tab
ut ures
ut ions
ce cal
uct ion
am ate
am ina
Ġpart Duodenum
Ġal ert
Ġal mond
oc ervical
oc arpal
oc erebellar
oc ulomotor
tal us
Ġhe lic
Ġde ad
Ġde ndrites
one al
Ġsuperior iliac
Ġve il
Ġab normally
Ġinferior is
ĠA fferent
ĠA CA
ĠA BC
ĠA cting
ĠA pertures
the re
the lium
Ġvein Anterior
Ġvein Posterior
Ġvein Superficial
Ġvein Middle
Ġvein Median
Ġvein Trachea
Ġvein Ophthalmic
Ġtr iquetrum
th umb
th yroid
th ick
Ġmedial genicular
ong y
erv ous
erv oir
Ġ8 0
ens ive
Ġper i
ap ert
ap ez
ap ters
Ġfib rillation
per icardium
per sed
ĠT B
ĠT II
ĠT rans
Ġdis lod
Ġdis charged
ang ed
ang ular
ament al
end rocy
In ner
In jur
cc omp
ide tect
if e
if urc
if iable
if acets
lu des
Ġligament Anterior
Ġligament Middle
Ġligament Suspensory
Ġcomp atible
ag ul
Ġbone Greater
Ġbone Lacrimal
Ġra ising
Ġen ab
Ġen zymes
Ġen jo
Ġpat ch
Ġpat ches
ĠC iliary
ĠC IV
ĠC onnect
ĠC urrently
ĠC learly
Ġpal ates
Ġinter ped
Ġinter face
arg ins
Ġsc ars
Ġad d
Ġad oles
Ġad join
ie tom
op ia
op ens
Ġbranches Cardiac
ros plenic
so le
act ure
Ġpel v
Ġco up
Ġco ils
Ġco arctation
Ġinc oming
Ġinc ontin
orm ing
Ġsh oes
ab dom
ab ducent
Ġbranch Posterior
Ġbranch Obturator
age ctomy
ell ation
ell ipsoid
Ġap art
ast ating
iss ural
og ens
og lenoid
ist ed
ay ers
Ġtend inopathy
Ġcol i
ĠS ever
ĠS urface
ĠS ometimes
ĠS cal
ĠS keletal
ĠS egmental
ĠS permatic
ĠS tand
ĠS wallowing
ĠS ummary
ĠS ymptoms
Ġprocess Lateral
Ġob tuse
Ġob vious
Ġsub s
Ġsub lux
Ġupper most
li ves
ĠIn ters
ĠIn put
ĠIn itially
orac obrachialis
ne ur
ne ural
ne edles
ost atic
Ġlower ing
Ġph iltrum
Ġop in
Ġtub arius
Ġfem ales
Ġfem ale
fic iency
ĠL oss
ĠL ab
ĠL arynx
ĠL acrimal
ĠL andmar
ĠL umbar
ĠL ayers
Ġ7 2
ĠB one
ĠB ene
ĠB iop
ĠB eginning
ĠB reathing
Ġpar av
Ġpar amedian
Ġpar acolic
Ġpar asagittal
ore ticular
ore gional
ĠTh us
ĠTh yroid
Ġres ect
Ġres olution
Ġres ervoir
eb aceous
Ġbr ings
Ġcons olid
Ġst ump
Ġst uck
Ġst iffness
Ġtrans ection
Ġtrans rect
Ġtrans urethral
Ġmajor Pectoralis
Ġpr ior
Ġplexus Internal
Ġplexus Prevertebral
Ġpre peritoneal
Ġnot es
Ġnot ched
iz z
st rap
st ret
st ream
st roke
ian opia
Ġch yl
Ġch ains
Ġch apters
Ġforamen Lateral
Ġforamen Ischial
Ġview Posterior
oph thal
oph armaceutical
Ġend oscopic
Ġend point
Ġend othelial
Ġend oluminal
Ġmiddle meningeal
ening itis
Ġcontinu ed
Ġse em
Ġse wn
Ġover come
ult aneously
ĠP art
ĠP anc
ĠP ath
ĠP opliteal
ĠP ectoral
ĠP rostatic
ĠP apez
unk s
ome gal
Ġgreat est
Ġ3 1
Ġ3 60
Ġtrunk Right
Ġsep tom
Ġaor to
Ġsac cules
ĠM edian
ĠM embranous
ĠM edic
ĠM onro
ĠM argins
Ġ5 2
Ġem itted
Ġnod ular
fer t
ov itis
An t
An atom
An atomy
An ococcygeal
of ug
her s
Ġrel oc
ust ra
teryg opalatine
Ġsinus oids
Ġven osus
Ġgland Left
Ġins ult
Ġins uff
Ġrect angular
Ġduct Sublingual
Ġcereb ellop
Ġcompartment of
Ġout stret
ile al
tain ing
Ġnodes External
Ġun well
Ġun affected
Ġdiaphragm a
Ġmain bronch
enter ies
Ġattachment of
Ġaorta Thoracic
Ġlo ad
ific ance
ĠO cc
ĠO phthalmic
ĠO veral
Ġram uscommunic
anc er
Ġgen us
Ġgen itour
Ġinterc ourse
Ġinterc ostobrachial
ogra p
ĠF usion
ĠF inding
ĠF ract
Ġmes enchym
Ġmes osalpinx
Ġloc oregional
ars us
ars eness
Ġdevelop ments
Ġdorsal interosseous
Ġme al
Ġsec ured
pal mar
ĠV ar
ĠV agus
ĠV ocal
ĠV SD
Ġradial ly
ĠD ise
ĠD amage
Ġcirc ulatory
Ġman aged
Ġman ubrios
ograph ical
Ġmin ute
Ġmat ch
Ġarm Medial
Ġep ista
Ġfold ed
alc ells
Ġrem ark
Ġinjur ing
Ġpub ofemoral
Ġpub ococcygeus
Ġpub oprostatic
Ġte xture
Ġov oid
Ġdep osition
Ġrec ent
Ġrec alled
Ġrec omm
ept ive
Ġqu ant
Ġmotor cy
Ġganglion Preganglionic
Ġtract ion
Ġgroup ed
Ġpterygoid process
Ġring Superficial
Ġfibular nerve
Ex trinsic
Ex tradural
Ġesoph agectomy
ex t
Ġradi opharmaceutical
Ġlob ule
Ġsyn the
Ġplantar artery
Ġinv asion
Ġinv aded
len ohumeral
len omegal
Ġulnar nerve
Ġexp lan
Ġexp elled
Ġcont ent
Ġliver Right
Ġind ent
acr im
acr istal
ĠR ib
ĠR el
ĠR ep
ĠR oots
Ġextens ordigitorum
Le ast
gen itofemoral
Ġtube Round
ĠH igh
ĠH ence
ĠH odgkin
Ġspine Pubic
Ġobturator internus
Ġsign ificance
Ġsupr asternal
Ġtubercle Pubic
Ġhem ianopia
Ġureth rovaginal
Ġ1 6
Ġcolon oscopy
Ġcolon Ascending
Ġparasympathetic s
me tic
Ġuter o
Ġhyp othyroid
Ġint estinal
uber cle
Ġexc luding
Ġpect inat
Medial surface
Ġlea f
ferent ially
Ġmar king
Ġlaryngeal nerve
Ġrectus Inferior
Th us
mic turition
ick ing
ĠE m
ĠE ctopic
Ġcard ial
vers ible
Ġpath olog
Ġpath ogens
Ġmy enteric
astom oses
Ġpress ing
Ġact ually
Ġthird s
Ġanatom ically
Ġterminal e
Ġlin king
Ġfemoris Vastus
Ġramus Pubic
Ġcomm issures
onch ae
Ġinfr arenal
Ġinfr atrochlear
Ġinfr aspinous
thal amic
Ġpres erved
Ġpres erve
cl ot
Ġsem iniferous
Ġatrium Left
ĠN o
ĠN asal
ĠN umerous
Ġcontribut or
Ġmass ively
Ġlevator ius
Ġelev en
Ġho arseness
Ġnotch Laryngeal
Ġtriangular ly
ĠU nder
Ġag o
Ġag ing
Ġprom ot
Ġprom ote
orb ed
Ġresp ired
Ġbul ging
inc is
inc luding
Ġthin ner
Ġclitoris Glans
for nix
Ġair ways
oscop es
Ġmagn ified
Ġmagn ets
Ġradiograph ic
Ġpost ulated
Ġpost part
Ġvestib ulospinal
Ġpenetr ated
Ġcaps ules
Ġshort ening
Ġsl ide
ĠAt las
ven a
ĠOn ly
Ġent rap
Ġhern iating
ĠG lossopharyngeal
ĠG ateways
ĠG ingiva
ĠG alen
duc ing
Ġneed les
Ġflat tening
asp ing
Ġrequ ested
Ġtrap ped
oh yp
oh amate
ail able
Ġvia bility
Ġprost atectomy
eng ing
Ġvascular ity
pos teromedial
Ġnecess itating
19 5
19 6
Ġstr iated
rib ed
isc al
isc era
Ġcarpi radial
Ġmo lec
Ġindic ating
Ġindic ations
ted ly
Ġlam ella
24 0
24 6
Ġperfor ant
Ġbroad est
Sp iral
Sp lenic
Ġtraum at
20 4
20 7
27 4
27 5
27 8
27 9
Ġile us
Ġile ostomy
Ġcomplex es
Ġmod ulate
Ġrotation al
arter ial
arter ectomy
Ġhallucis longus
Ġspin omesencephalic
Ġspin ocerebellar
Ġspin oreticular
Internal ly
Ġsplanchnic nerves
26 1
26 2
26 3
26 8
Tr unks
Ġmult idetect
Ġabs olute
Ġtransvers em
av al
Ġuro logical
Ġuro gra
Ġuro thelium
Ġol faction
Ġol igod
sc apula
Ġintra dural
Ġintra articular
Ġintra oper
Ġinit iate
Ġinit iated
Ġinit iates
Ġappend ices
Ġtermin ating
Ġlocal ization
For amina
rup tion
esthe sia
isp osterior
Ġdil ate
Ad duct
Ad ditional
ron ated
Ġturn ed
25 2
25 5
Ġdifferent iating
When ever
Ġtear ing
Per itoneal
Ġbucc opharyngeal
Ġdepress ing
Con us
Con joint
pl ing
pl ate
pro ducing
Ġident ifies
Ġanesthe s
Ġpla ques
Ġsens itivity
ĠAx is
Ġcompress or
scapular is
over ing
pr imary
Ġmov able
Ġextr action
Ġcruc iform
Al ar
iver tebra
Ġsusp ension
Ġsusp icion
Ġepicondyle Medial
Ġembry ology
Ġris es
Ġris orius
Ġshould ers
Ġoper ate
Ġoper ator
Ġbreat he
Ġlimit ing
Ġlimit ation
Ġinterconnect ions
ox ic
Ġtip ped
othe rap
othe lium
Ġweight bearing
Ġsal ine
Ġlum inal
Ġgrow s
Ġexpand ing
Ġexpand able
Ġvol vulus
Ġdiss em
Ġdiss ect
Ġdiss ected
Ġminim izes
Ph renic
Ph alanges
Ġdist ort
Ġempt ied
Ġindivid ually
Ġsupra duodenal
ĠEx t
ĠEx trinsic
Ġthromb oly
elf th
Ġy olk
Ġta eniae
Ġunders ide
Ġauricle Left
Par asternal
rec urrent
Ġstraight en
Ġembol ic
Ġembol iform
Ġembol ize
Ġheal ed
ĠCon tinuity
ioc alcaneal
Ġant ig
Ġconc avity
omic rons
Ġclear ance
Pre molars
Ġnon toxic
Ġgo es
Ġhemorrh agic
Ġconcha Middle
ĠUn ited
Ġirre versible
Is thmus
long ed
long itudinal
Â° )
Ġcomb ination
Inf raglenoid
Ġcontact s
Ġundergo ing
Esophagus Arch
Esophagus EsophagusTrachea
Ġtw ists
Ġtw ice
Ġtw itching
Ġtw elfth
Ġcal va
Ġinfect ive
Ġcortic es
Ġcortic oster
Ġmechan isms
Ġoste ophy
Pteryg omaxillary
ĠLe vel
Ġwindow s
Ġz ones
Ġfil ters
rect ile
ock wise
Ġstim ulates
Ġbronchus Right
Ġcollect s
Ġauton omous
Pal pable
Ġgemell i
Ġreflect ing
Ġconve ys
Ġconve ying
Ġconve yed
Ġstrong est
Opening s
Gen ital
Ġdest ination
Ġinfar ct
ĠAb duction
Ġunt reated
Ġexpans ile
Ġpossib ilities
Br onch
Ure ters
Ġfus ing
Ġcharacteristic ally
Zygomatic ofacial
Ġfrequ ent
Ġbl inking
occ upying
ĠInter vertebral
Ġconst ellation
Ġ20 15
Orb it
ĠUl nar
ĠK nowing
ĠK UB
Ġrele asing
Ġplantarflex ed
Ġphysi ologically
Ġspinosum Infratemporal
Ġprincip ally
Clavicle Superior
De f
De termination
con traction
Ġav ulsion
Ġav ailable
Ġinver ts
arth roplasty
ĠInternal ly
Ġgener ate
Ġcut ting
Ġhold ing
Ġclass es
Ġclass ic
Ġclass ically
Ġrestrict s
Ġmenisc al
ABC Anterior
Fib ers
oan a
erg ic
Ġcusp Posterior
Ġequ ival
Ġdev iates
Ġdev astating
Ġdefic it
Ġdefic iency
Ġtrack s
Ġcomprom ising
Ġopp oses
Ġsequ elae
ĠPer ine
Ġdorsiflex es
Ġdorsiflex ed
Sphen oparietal
Ġprogress ive
Aorta Inferior
hy per
hep at
Ġcost arum
Ġmer ging
Ġsuperolateral ly
opor osis
Ġnew born
ĠPar amedian
Ġobstruct s
Cl osure
Se ven
Spinal is
Ġtap ping
Ġmic turition
Ġdro ps
Ġadv ance
Ġcoord ination
Ġcoord inates
Ġoverlap ped
Ġcommunicans Gray
Brachial is
Corac obrachialis
Sec ret
Sec retomotor
Ġfall ing
Ġretract s
ĠarteryPosterior interosseous
ĠOr b
ĠOr ientation
ĠOr iginating
Ġcapit ate
Interosseous membrane
Manubrium of
Ġcuneiform s
Ligament s
Ligament um
col lateral
iat al
Ġcyl inder
Ġbacter ial
rot ation
Ġlig ate
Ġlig ation
Ġwor ld
Ġdent ists
Ġglob ose
Ġdiag onal
Ġacqu ire
ĠOp posite
Spinous process
St raight
hem aturia
Ġwid ening
Ġdevic es
Ġoccipit omastoid
Ġconvex ity
Co arctation
Coccy geal
Coccy geus
Reg ion
Trapezius Deltoid
Trapezius Latissimus
malle us
ĠExternal ly
Ġnutr ients
Ġnutr itional
Ġrecons truct
Ġamygdal ofug
Ġhepat oduodenal
proxim ating
Palat ovaginal
Comp uted
Ov ary
Pron ation
fr ont
fr acture
Ġset t
Ġvibr ation
Ġga ze
Ġgran ule
Ġintervent ions
Ġregard ing
Ġsubject ed
ĠPal at
Ġepis odes
Subclav ius
Ġadminis tered
Ġreason ably
Upper Lower
Ġdistinguis hing
Trans pyloric
Wh at
co agul
Ġfund amental
Ġtouch ing
Ġprote ins
Ġspan ning
laps ed
yst olic
ĠSup r
Ġopt im
Ġopt ions
Ġopt imal
ĠEn largement
Ġblind ness
Ġelectro card
Ġimprove ment
Ġmetabol ites
Bulb o
Joint s
Ne edle
Ġmix ing
Ġdon ors
Ġgonad s
ĠAp proximately
ĠAp proaching
ĠCommon ly
ĠBr achial
Ġmanifest ation
Ġteg men
Ġteg mentum
Ġcervic othoracic
Ġcollaps es
Val lec
bor ate
Ġbip olar
Ġhous e
Ġrheum atic
ollow ing
Ġinferomedial ly
Ġperistal sis
Ġregular ly
Ġscre ening
IIII II
IIII III
ĠSt ates
Ġrob ot
Ġrob otic
Ġtubercul ous
Ġtibi otalar
Ġaccent uated
Ġtravers es
Ġcircuit ry
Ġmanip ulation
Ġmanip ulating
Ġexpla ins
Ġroutine ly
Ġstrip ped
Ġsalping opharyngeus
Ġpersist ent
Ġpredic t
Ġvirus es
Cer tain
Cer ebral
Central ly
Lam bd
Ped icles
Prom ontory
Pet rous
Transvers us
Vag ina
cr uciate
val ve
val uation
Ġtect ospinal
Ġofs eptal
Ġbar oreceptors
Ġblow s
Ġprot on
lamm ation
Ġdetail ed
ĠTr iangle
Ġclus ter
Ġcoun ter
Ġrow s
ĠLoc ating
Ġstret ched
Ġstret ching
stim ating
stim ulating
ĠFlex ion
ĠDe velopment
Ġflan ked
Ġdescrip tion
Ġirr it
Ġsuspend s
Ġencirc le
Ġencirc les
Styl omastoid
Ġatheroscl erotic
Roughen ing
Caud a
TB I
Var icose
mid line
mid brain
metacarpal arteries
Ġot itis
Ġot oscope
Ġsolid s
Ġbud s
ostr iate
Ġhome ostatic
ĠarteryS egmental
seg ment
uck et
ĠSc iatic
Ġradionucl ide
Ġseal s
ĠPoster omedial
Ġoutpouch ing
Ġbutto cks
Ġshel ves
Ġaggreg ations
Ġinhibit ors
Ġattempt s
Cost otransverse
En tering
Pen etrates
Spleen Left
connect ed
well ing
Ġaim s
inf lammatory
Ġofc orpus
Ġlac unar
Ġwrap ped
Ġhang s
imb ing
Ġplas ter
Ġplas ma
Ġski ing
ometr ium
ĠMe chan
Ġuns table
Ġarchitect ure
Ġarchitect ural
Ġdepos its
Ġfeed back
Ġconcent r
Ġconcent ration
ĠJoint s
malleolus Lateral
Neuro logical
ĠIncreas ed
ĠIncreas ing
Ġexacerb ation
Ġexacerb ated
Ġjugul o
Ġjugul odigastric
Hep atic
Malle olar
Oropharyngeal isthmus
ST OLE
Tro chlea
Trapez oid
calc ified
fal x
sens itive
section al
Ġest imate
Ġtel escop
Ġtach ycard
Ġtherap ists
Ġsat isfactory
Ġsed ation
Ġsuc ce
Ġsaf e
Ġbo y
Ġingest ed
Ġhapp ens
Ġharves ted
Ġrub rospinal
Ġconj unction
Ġprofuse ly
Ġspont aneously
ĠIs ch
Ġattribut able
Ġpercuss ion
ĠCric othyroid
Ġcoat s
Ġincons istent
Ġoccasion al
Ġtransloc ation
Ġchall enging
Ġlymphocy tes
Ġpleur ae
ĠHem orrh
Ġintram uscular
Ġlengthe n
Ġmultif idus
Ġdiminis hed
Ġprogram s
Ġdroop ing
Interosseousborder Medialsurface
Sole al
ĠClin ically
Ġphotograph ic
Ġdescript ive
hamstr ings
Ġofgastrocnemius muscle
Ġdispla yed
Ġintegr ity
Ġlubric ates
Ġdisturb ed
Can ines
Cric oid
Mod iolus
Mult iple
Metacarpal s
Out side
Rap he
Umb il
oend othelial
yph osis
Ġut most
Ġtur ning
Ġophthalm oscope
Ġstrict ures
Ġphen omen
Ġoftibial is
Ġreticul oendothelial
Ġgir dle
Ġgast rosplenic
otr acheal
Ġspond yl
Ġinfrequ ently
Ġperit onitis
ĠTransvers us
Ġsupple mented
Ġincorpor ated
ĠStruct ure
ĠSten otic
ĠBranch ing
Ġstran gulation
Ġcholec ystectomy
Ġneph rostomy
Ġneigh bor
Ġemp yema
ĠFe atures
Ġpuls atile
ĠVol ume
ĠView s
Ġreco il
Ġinvag inations
Ġquadr iple
Ġhemop neumothorax
Ġdiscon tinuous
ĠEmer ging
Ġamn iotic
Ġamen able
Ġdecomp ression
Ġinstit uted
Ġantit ragus
Scro tum
Ġlifest yle
Ġconstit ute
Ġelectrom agnetic
Ġcyan osis
Ġinterpre ting
Ġguide wire
Fibula Tibia
Ġadvan tage
Ġvirt ually
ĠIndivid ual
Barth olin
Cerv ix
Cap it
Les ions
Relationsh ips
Teg men
Vis ible
eard rum
hig her
oub tedly
oappend ix
spir al
Ġumb o
Ġiat rogenic
Ġting ling
orrent ial
Ġcos metic
Ġcran ioc
Ġclavic les
isotop e
Ġmir ror
Ġfunic ulus
render ed
Ġwra ps
osyn ovitis
Ġthum ping
Ġthreat ened
Ġela borate
Ġcontex t
Ġprocer us
Ġjour ney
Ġjux ta
apert ure
ccomp an
ifurc ation
Ġinterped uncular
Ġadoles cent
Ġadjoin ing
ietom astoid
ĠStand ard
ĠLandmar ks
Ġparav entricular
Ġconsolid ation
Ġtransrect al
ĠPectoral is
Ġseptom arginal
Anatom ically
Ġcerebellop ontine
Ġoutstret ched
Ġmainbronch us
ĠOveral l
Ġramuscommunic ans
Ġgenitour inary
Ġmanubrios ternal
Ġepista xis
Ġremark ably
Ġmotorcy cle
lenomegal y
Ġexplan ation
Ġurethrovaginal is
Ġpectinat i
Ġpostpart um
Ġcarpiradial is
Ġmolec ule
Ġlamella e
Ġmultidetect or
Ġurogra phy
Ġoligod endrocy
Ġamygdalofug al
Ġelectrocard iogram
Ġtelescop e
" "
% ,
% ).
) (
. âĢ¢
2 10
2 12
2 11
2 13
2 16
2 17
2 18
2 19
2 20
2 27
2 26
2 29
5 67
8 123
9 10
? âĢĿ
A tr
A ch
A the
A vascular
A Rib
A Incisive
A voiding
A ccompan
B E
B el
B aker
B US
B lockage
B road
B lade
C K
C am
C VII
C Medial
C ont
C Deep
C iliary
C NS
C eliac
C VI
C ondylar
C rem
C irrhosis
C uboid
C ells
C ongenital
D es
D el
D erm
D ural
D uodenal
D irect
D igital
D epending
D VT
D amage
D RE
D WI
E F
E RCP
E US
E jaculatory
E ffort
E rectile
E valuation
E stimating
F B
F o
F ul
F il
F ol
F ree
F ung
F oot
F issure
F ovea
F imbr
F DG
F lat
F emur
F orming
G SE
G reek
G luteal
G astrocnemius
G ingiva
H D
H ig
H ypogastric
H elic
I r
I mp
J unction
K nee
L o
L t
L ung
L ying
L ocal
L ittle
L ob
L ingula
L aparoscopic
M c
M or
M en
M ons
M ater
M oving
M arginal
M ammary
M RCP
M eningitis
O uter
O mental
O mohyoid
O ften
P r
P is
P it
P os
P up
P aired
P orta
P terion
P ossible
P ivot
R P
R t
R id
R el
R em
R etr
R AL
R edundant
R otator
R unning
S O
S Y
S II
S yn
S RI
S ustentaculum
S kull
S ince
S ignificant
S epar
S urfaces
S urrounding
S PECT
S utures
T um
T ib
T ect
T ip
T op
T ear
T ric
T ail
T orn
T unica
T ables
U nder
U tricle
U SE
V e
V es
V erm
V isual
W est
X USE
a x
a ine
a way
a orta
a queduct
a phylactic
a ustra
b l
b o
b ab
b and
b ery
b ella
b ock
b ased
b ably
b ulb
b ook
b urg
b lock
c or
c ies
c ord
c ave
c occy
c arr
c uneiform
c ongenital
c ribed
c overing
d or
d ep
d les
d uring
d ermatomes
d anger
e u
e an
e ach
e eth
e ople
e lev
e yond
f e
f an
f luence
f issure
f ascia
f acing
f usions
f lected
g s
g u
g on
g ic
g as
g ow
g ist
g onal
g lans
g ma
g ateway
g agn
h k
h it
h id
h ave
h yroid
h ind
h ysterectomy
i ar
i ph
i ately
i king
i kes
i quid
i hood
i omas
j u
k y
k el
k ins
k nees
l m
l im
l ub
l ass
l ore
l ocal
l iding
l ifer
l ipsoid
m it
m os
m et
m ay
m otor
m oses
m ajor
m atr
m ade
m ission
m ylohyoid
m atozoa
m oclavicular
n al
n at
n on
n ose
n ail
o en
o ch
o ft
o king
o ften
p at
p en
p it
p el
p rom
p ub
p lexus
p ress
p opliteal
p ted
p ower
p atellar
p onens
p rostate
p ulled
p ronated
r d
r im
r ata
r itic
r uciate
r hea
r asping
s a
s um
s el
s em
s ta
s ite
s ural
s ame
s ize
s we
s artorius
s ites
s wing
s ternoc
s eptal
s erratus
s tage
s epar
s uture
s Navicular
s angu
t il
t ow
t ub
t ip
t rans
t yp
t ysis
t ently
t aste
t unica
t orus
u ed
u ates
u its
v ated
v ant
v astus
v olution
v iations
w er
w ear
w ithin
w edge
x al
x ed
x ing
x ious
y otomes
Ã ©
Ã «
Ġ unk
Ġ ions
Ġt et
Ġt umb
Ġt went
Ġt rem
Ġt ables
Ġt enn
he el
he art
he tte
he lm
er um
er ate
er ations
er red
er rant
in im
in ition
in ating
in let
in nervation
in nervated
al ing
al though
Ġo ra
Ġo lives
Ġo dor
or es
or ig
or ation
or ec
or so
or ne
or able
or ific
or ically
or iginating
or rhea
nd om
nd ular
nd ie
Ġs a
Ġs ter
Ġs ent
Ġs tic
Ġs ad
Ġs ay
Ġs que
Ġs esam
Ġs olution
Ġs tained
Ġs erving
Ġs uction
Ġs ebaceous
Ġs ystolic
Ġp H
Ġp ial
Ġp lu
Ġp ie
Ġp oth
Ġp its
Ġp sy
Ġp onto
Ġp icking
Ġof ans
Ġof lateral
Ġof posterior
Ġof superficial
Ġof greater
Ġof azygos
Ġof omohyoid
Ġof perineal
Ġof sphen
Ġof navicular
Ġof pharyngotympanic
Ġof vertebrae
Ġof genitofemoral
Ġof scapula
Ġof malleus
Ġof met
es is
es ia
es kin
es piratory
es pite
es moses
at ter
at ation
at ural
at inous
at ology
at las
at tered
on in
on ve
on ent
on um
on ary
on ate
on ation
on omic
on tract
on iosis
Ġc oc
Ġc asc
Ġc ili
Ġc ram
ar ran
ar ia
ar ches
ar row
ar ret
ar ii
en is
en ular
en osis
en ced
en eration
en burg
is k
is y
is tr
is Medial
is hed
is inter
is thesis
Ġm L
Ġm ach
Ġm athe
Ġm ista
Ġf a
Ġf ed
Ġf ig
Ġf as
Ġf les
Ġf ight
Ġf ove
Ġf ear
Ġf ell
Ġf ans
Ġf row
Ġf av
Ġf air
Ġf itted
Ġf laps
Ġf reed
Ġf ontanelles
Ġf lail
Ġb it
Ġb ac
Ġb ig
Ġb im
Ġb lad
Ġb oun
Ġb arr
Ġb oots
Ġb orne
Ġand inferior
ter ity
ic all
ic ated
ic ranial
ic ious
Ġin terior
Ġin ap
us s
us ae
us trum
us hed
us tration
re y
re it
re la
re tin
re cess
ro in
ro at
ro ot
ro tic
ro cess
ro vascular
ro itus
ro aden
Ġl b
Ġl uc
Ġl og
Ġl ose
Ġl ept
Ġl ute
Ġl actiferous
Ġl angu
an ual
it ium
ed uced
le um
le eds
le ading
le asing
ac ular
ac ity
ac ological
ior espiratory
ig ial
Ġw ear
Ġw ears
Ġw ounds
Ġw ife
Ġto x
Ġto day
Ġd os
Ġd ul
Ġd oc
Ġd ata
Ġd iet
Ġd rows
Ġd artos
Ġd enervation
Ġd izz
Ġd orso
os en
os eb
os tral
as ions
as teric
as urable
Ġn ur
Ġn one
Ġn ail
Ġn atural
ent h
ing ing
ul os
ul as
ul ent
ul ant
ul opelvic
ul ci
Ġis oen
ly c
ur v
ur ated
ur ia
id ly
id ual
id idymis
id den
Ġth ym
Ġth alam
Ġth rown
Ġth roat
Ġe c
Ġe ct
Ġe ut
Ġe ase
Ġe ust
Ġe Table
om ph
om otion
om arginal
Ġv oiding
Ġan em
Ġan ta
Ġan aphylactic
um en
um ination
um ented
Ġar bit
ra vity
usc le
usc hk
ib i
ib rium
ib ulopelvic
Ġre te
Ġre un
Ġre op
Ġre vers
Ġre active
Ġre amed
Ġre volution
Ġg el
Ġg ol
Ġg ang
Ġg ag
Ġg li
Ġg ave
Ġg ame
Ġg lial
Ġg ums
el om
el itis
el omic
el inated
el erations
el enburg
rom as
Ġfor t
il ine
il les
il atory
il ibrium
Ġsup ers
Ġsup ramastoid
te tric
Ġbe an
Ġbe am
Ġbe ak
Ġbe aring
Ġh op
Ġh oles
Ġh itting
Ġh umero
Ġh iatal
Ġh idden
ot ions
ot ence
ot henar
ot omies
Ġpos e
ment ation
Ġfrom the
Ġfrom segmental
Ġarter iov
tr ary
tr ut
tr unk
tr acerebral
tr iangular
Ġr ule
Ġr ules
Ġr uptures
Ġr ushed
Ġnerve B
Ġnerve and
Ġnerve Anterior
Ġnerve Ex
Ġnerve External
Ġnerve Obturator
Ġnerve Lesser
Ġnerve Adductor
Ġnerve Common
Ġnerve Long
Ġnerve Lacrimal
Ġnerve To
Ġnerve Branch
Ġnerve Nerves
Ġnerve Brachial
Ġnerve Popliteal
Ġnerve Tensor
Ġnerve Iliohypogastric
Ġnerve Nasopalatine
Ġnerve Otic
Ġnerve Olfactory
Ġnerve Profunda
Ġnerve Sphenomandibular
Ġnerve Penetrates
Ġor ally
Ġwith arytenoid
im m
im en
im ated
im med
im uscle
ch ow
ch ym
ch iop
ch oanae
ch anged
ol ated
ol ae
ol umbrical
ol isthesis
ĠThe n
ĠThe nar
Ġon c
Ġon ward
Ġon go
em ed
all ic
all ot
all ine
Ġanterior ethmoidal
Ġanterior Serratus
ect rum
Ġex ce
Ġex pected
Ġex ocrine
Ġex sangu
Ġex changed
Ġwh om
ep er
ep ithe
ep icardium
ep rocess
Ġartery T
Ġartery in
Ġartery Greater
Ġartery Middle
Ġartery Sup
Ġartery Lesser
Ġartery Adductor
Ġartery Arch
Ġartery Maxillary
Ġartery Tendon
Ġartery Tibial
Ġartery Brachial
Ġartery Lingual
Ġartery Terminal
Ġartery Musculocutaneous
Ġartery Pterygopalatine
Ġartery Second
Ġartery Subclavian
Ġartery Perforating
Ġartery Pronator
Ġartery Third
Ġartery Ureter
Ġartery Triangular
Ġartery Sphenopalatine
Ġartery Profunda
Ġartery Adduct
Ġartery Subclavius
Ġpro ductive
Ġpro longed
Ġpro lifer
to f
to es
to arch
un ch
un ae
un ological
un attached
ate Ham
ach us
ach ian
Ġsp ur
Ġsp illa
Ġsp astic
Ġsp ectrum
la ys
la que
la med
Ġinf l
Ġinf ant
Ġinf low
Ġinf used
Ġinf ants
Ġinf erred
se ous
se wn
ine a
ĠI li
ĠI ll
ĠI dent
Ġj u
Ġj ud
Ġmed i
Ġmed iate
Ġmed usae
Ġle ar
Ġle thal
Ġmuscle Superior
Ġmuscle Deep
Ġmuscle Long
Ġmuscle Rib
Ġmuscle Isch
Ġmuscle Transverse
Ġmuscle Branch
Ġmuscle Levator
Ġmuscle First
Ġmuscle Facet
Ġmuscle Artery
Ġmuscle Bulb
Ġmuscle Sartorius
Ġmuscle Short
Ġmuscle Semitendinosus
Ġmuscle Geniohyoid
Ġmuscle Pectineus
Ġmuscle Anococcygeal
Ġca ve
ass ess
ass ium
ass isted
ies t
ace tal
ut s
ia d
ia queduct
ce ased
igh ter
ir chow
ad d
ad ow
ad owing
ad just
am ine
am pl
Ġpart iculate
Ġpart Tib
Ġal read
Ġal gor
oc cul
oc ranium
oc arcinoma
oc oniosis
Ġcom a
tal ofibular
Ġhe red
tern um
Ġde b
Ġde hy
Ġde emed
ure ter
Ġve loc
Ġinto xic
Ġab und
Ġab bre
Ġab errant
Ġinferior alveolar
ĠA P
ĠA c
ĠA ur
ĠA ction
ĠA ud
ĠA xilla
ĠA ortic
ĠA uscultation
ĠA voiding
ves tig
Ġvein Deep
Ġvein Foramen
Ġvein Dorsal
Ġvein Esophagus
Ġvein Common
Ġvein Femoral
Ġvein Maxillary
Ġvein Biceps
Ġvein Piriformis
Ġvein Brachiocephalic
Ġtr un
Ġtr ump
Ġtr ipping
Ġtr immed
Ġtr iad
ec um
Ġcan cell
ym al
th at
th ing
th rough
th reat
th and
erv ative
erv ain
Ġ8 17
tw o
ens ations
lo op
lo ading
lo gist
Ġper cent
Ġper col
Ġper icranium
Ġper iaqueduct
ap ital
Ġfib rin
per forating
per oneal
per matozoa
ĠT end
ĠT ensor
ĠT VII
ĠT riceps
ĠT rochlear
ĠT ears
ĠT esting
ĠT orrential
ĠT reit
ang ing
end s
end ous
end ocrine
end ymal
Ġwall Posterior
In let
In cus
In ters
In term
In put
In side
In ability
In itial
Ġsurface Anterior
Ġsurface Lateral
Ġsurface for
Ġsurface Middle
ide ment
ord uodenal
Ġligament Superior
Ġligament Right
Ġligament Arch
Ġligament Pelvic
Ġligament Ischial
Ġligament Anal
Ġligament Sacrotuberous
Ġligament Lumb
Ġligament Tibia
Ġligament Tuberosity
Ġligament Coccygeus
Ġjoint Manubrium
Ġjoint Forearm
Ġjoint Hand
Ġcomp ens
Ġcomp et
ers hed
oss y
ag ue
ag ina
ag ination
Ġbone Posterior
Ġbone Superior
Ġbone Maxillary
Ġbone Nasal
Ġbone Ethmoidal
Ġbone Squamous
Ġbone Scaphoid
Ġra ge
Ġra ndom
ip ed
ip lop
Ġen gor
Ġen cephal
ard s
ard ing
tin ct
Ġcavity E
Ġcavity Pelvic
Ġcavity Fetal
Ġcavity Infraglenoid
Ġmid arm
Ġmid level
Ġmid portion
Ġmid dles
ĠC ord
ĠC ons
ĠC ell
ĠC ond
ĠC lavicle
ĠC oma
ĠC olon
ĠC aud
ĠC ircumflex
ĠC ubital
ĠC arotid
ĠC onchae
Ġpal e
Ġinter t
Ġinter act
Ġinter spinal
Ġinter articular
Ġinter body
Ġinter lock
Ġinter transvers
Ġinter segment
Ġreg ression
Ġreg ulates
Ġreg urg
Ġreg eneration
Ġreg imen
Ġatt ention
Ġsc ar
Ġsc ore
Ġad ne
Ġad ding
Ġad itus
ie ce
iv ational
Ġnerves Sympathetic
Ġnerves Postganglionic
op o
op ening
op soas
op edal
Ġcl ub
Ġcl umps
Ġcl ockwise
Ġcl imbing
Ġbranches Inferior
Ġbranches Vagal
ros ternal
ill i
ill ing
ill othalamic
ill umination
Ġdeep artery
und er
ant aneous
act ing
ther ing
Ġco ating
Ġco her
Ġco ef
Ġco existing
uc oma
uc osal
Ġinc idence
orm ed
orm agn
Ġsh ot
Ġsh ut
Ġsh ock
Ġsh rin
Ġsh rank
Ġsh adowing
ab ove
Ġbranch Right
Ġbranch Dia
age ndie
ons ils
Ġcar ina
Ġcar cin
et itive
et roperitoneal
Ġsm ear
Ġim a
Ġim mediate
Ġap ophys
Ġnec rotic
reat itis
Ġsk is
Ġsk ier
og y
og lyc
ist ently
umb ed
Ġfossa Lateral
Ġfossa Greater
Ġfossa Foramen
Ġfossa Position
Ġfossa Palatine
Ġfossa Pterygoid
Ġfossa Coccyx
Ġtend ency
Ġass isting
Ġass umes
ili i
ili opsoas
yg lucose
ator s
Ġcol d
Ġcol li
Ġcol orectal
mon is
ĠS ac
ĠS em
ĠS ensory
ĠS aphenous
ĠS acral
ĠS ty
ĠS ternoc
ĠS olid
ĠS ounds
ĠS ensation
ĠS pleen
ĠS acrum
ĠS urfaces
ĠS urgery
ĠS oft
ĠS trut
ĠS permatozoa
Ġprocess A
Ġprocess Anterior
Ġprocess Posterior
Ġprocess Superior
Ġprocess Transverse
Ġprocess Mastoid
Ġprocess Tympanic
Ġprocess Humerus
Ġprocess Pedicle
Ġprocess Dens
Ġprocess Pterygomaxillary
Ġprocess Stylomastoid
Ġro lled
Ġsub tendinous
Ġsub chondral
Ġsub gro
Ġsub thalamic
orac es
ne ic
Ġfibers Parasympathetic
ost omies
Ġ4 8
Ġ4 49
Ġph ases
Ġph armaceutical
Ġtub al
Ġtub ule
Ġveins Left
Ġveins Right
Ġus age
ĠL aryngeal
ĠL ingual
ĠL anger
ĠL imb
ĠL atin
ĠL aparoscopic
ĠL iquid
ĠL uschk
rain d
tem por
Ġ7 5
ĠB ase
ĠB ladder
ĠB ucc
ĠB ilateral
ĠB arium
ĠB lockage
ĠB asic
ĠB ifurcation
ĠB eyond
ĠB arret
Ġocc ludes
Ġocc asions
Ġrad icular
Ġ6 2
Ġ6 65
Ġpar am
Ġpar ame
Ġpar esthesia
Ġpar ietomastoid
Ġarteries Pulmonary
Ġbody Superficial
Ġbody Position
ĠTh ird
ĠTh ick
Ġres ort
Ġres ists
Ġres emb
Ġres orbed
Ġres idual
eb r
eb rae
Ġwas hed
Ġspinal is
Ġspinal cord
Ġbr ace
Ġbr ief
Ġst rains
Ġst ances
Ġst arts
Ġst ream
Ġst roma
Ġst ores
Ġtrans it
Ġtrans ect
Ġtrans fusion
Ġtrans umbilical
Ġtrans lation
Ġtrans illumination
Ġmajor Levator
Ġmajor Teres
Ġmajor Latissimus
Ġvessels Ductus
Ġlong issimus
de ferens
pect ive
Ġplexus Vagal
Ġpre prostatic
Ġpre chiasmatic
Ġpre patellar
yp ical
yp neic
Ġk ick
Ġk inase
Ġk yphosis
iz able
iz ations
st enosis
vel ing
Ġcanal Medial
Ġcanal Frontal
Ġcanal Pterygoid
Ġcanal Cartilage
Ġvis it
Ġvis its
Ġch ance
Ġch apter
Ġch oana
Ġch osen
Ġch anging
Ġflex ures
Ġflex ibility
Ġforamen Superior
Ġforamen Body
Ġforamen Jugular
Ġforamen Carotid
Ġfasc iat
Ġview Lateral
Ġview Dorsal
Ġview Surface
Ġview Facet
oph ysis
Ġmargin Jugular
Ġcord Lateral
Ġcord Medial
ymph yses
Ġne o
Ġend pl
Ġend ocard
Ġend othoracic
Ġend oscopes
Ġend arterectomy
Ġcor rug
Ġcor rection
Ġmiddle temporal
ening es
erm is
xim ally
Ġthoracic aperture
Ġili ococcygeus
Ġse iz
Ġse ek
Ġse wing
Ġdes ired
Ġfascia Lateral
Ġfascia Deep
Ġover lo
Ġover extension
Ġover active
Ġover riding
Ġover lays
Ġover sewn
ult ing
Ġapp lying
ĠP D
ĠP r
ĠP os
ĠP res
ĠP soas
ĠP LE
ĠP laque
oth oraces
ud ates
ud ication
Ġblood stream
ome chan
Ġ3 6
Ġ3 8
Ġtrunk Deep
Ġtrunk Pulmonary
Ġtrunk Subclavian
Ġsac cul
Ġsac cular
Ġmembrane AB
Ġmembrane External
Ġmembrane Perineal
Ġexternal occipital
Ġexternal pudendal
ĠM es
ĠM ar
ĠM ed
ĠM otor
ĠM outh
ĠM eningeal
ĠM oving
ĠM andible
ĠM agn
ĠM etatarsal
ĠM TBI
ĠM agendie
Ġsystem To
Ġrib Superior
Ġrib Dem
Ġ5 5
Ġtendon External
Ġtendon Head
Ġem otions
Ġaspect of
Ġbrach ium
ov ed
An coneus
atus Sup
Ġrel ief
Ġfoot wear
Ġdiv ot
Ġnasal artery
Ġsinus Inferior
Ġsinus Superior
Ġsinus Left
Ġsinus Groove
Ġsinus Roots
Ġsinus Cavernous
Ġcr ack
Ġtib ionavicular
Ġtib iocalcaneal
Ġalong side
Ġven ular
Ġven ogram
Ġven osum
vis ual
Ġgland Lacrimal
Ġgland Tendon
Ġgland Sublingual
Ġgland CD
Ġiliac artery
Ġins uf
Ġins inu
Ġcranial ly
Ġimp lies
Ġthigh s
Ġthigh Medial
Ġ2 1
Ġ2 2
Ġ2 7
Ġ2 43
Ġ2 41
Ġbase ball
Ġacc ept
Ġacc eleration
Ġrect ovesical
jac ulation
tur ing
Ġmand atory
ject ions
Ġduct Right
Ġduct Esophagus
Ġduct Bile
med ian
Ġline Posterior
Ġline External
Ġline Articular
Ġconsist ency
Ġcereb rum
Ġcereb rovascular
Ġcompartment Posterior
Ġborder Posterior
Ġborder Superior
Ġborder Medial
Ġund oubtedly
ile ptic
Ġnodes Pectoral
Ġnodes Central
Ġnodes Apical
Ġun n
Ġun w
Ġun loc
Ġun ified
Ġun ites
Ġun ited
Ġun fortunately
Ġun less
Ġun iaxial
Ġun ipennate
Ġun idirectional
Ġdiaphragm Contraction
Ġmain ten
enter y
Ġaorta Inferior
Ġaorta Esophagus
Ġaorta Arch
Ġaorta Ascending
Ġtriangle A
Ġtriangle Anterior
Ġtriangle Anal
Ġtriangle Hyoid
ĠO t
ĠO ropharyngeal
ĠO lfactory
ĠO culomotor
Ġarch ing
Ġarch Posterior
Ġarch Lateral
Ġarch Articular
Ġarch Palatopharyngeal
Ġvisc er
Ġvisc us
Ġli ter
Ġli kel
Ġgen u
eFig s
Ġarticul ated
ert ubercle
ogra ms
ĠF at
ĠF ace
ĠF ull
ĠF ind
ĠF oot
ĠF used
ĠF luid
ĠF DG
ĠF ollowing
ĠF allot
ĠF ormed
Ġcarotid artery
Ġmet allic
Ġmes encephalon
Ġmes encephalic
Ġmes othelium
Ġmes ometrium
Ġmes oappendix
Ġloc omotion
Ġforearm Ulnar
Ġunder sec
12 23
12 34
Ġdirect s
Ġdorsal metacarpal
Ġme ticul
ĠAn al
ĠAn at
ĠAn esthe
ĠAn teromedial
ĠAn astomoses
Ġcartilage Lateral
Ġcartilage Coracoid
Ġcartilage Naris
Ġsec ure
pal m
Ġabove piriformis
ĠV entral
ĠV aginal
ĠV ater
ĠV alves
ĠV iscera
ĠV irchow
ĠV agina
Ġbelow piriformis
Ġlung Inferior
Ġlung Superior
Ġlung AB
Ġlung Apex
Ġsubc onscious
Ġsubc apital
Posterior intercostal
Posterior longitudinal
Ġinsert ions
out flow
ĠD rum
ĠD ouble
ĠD espite
Ġcirc ling
Ġbre ach
Ġbre gma
Ġstern oper
Ġmat ure
Ġarm Axillary
Ġarm pit
Ġep iph
Ġep endymal
Ġep ileptic
Ġoblique Anterior
Ġoblique Inguinal
Ġoblique Aponeurosis
Ġplane Supr
Ġplane Subcostal
Ġplane Intertubercular
Ġplane Umbil
Ġfold Posterior
Ġfold Medial
Ġfold Vocal
Ġfold Ary
Ġpain less
Ġlongus Adductor
Ġlongus Tendon
Ġlongus Groove
Ġlongus Extensor
Ġlongus Origin
Ġlongus Fibularis
Ġele vator
Ġperf use
alc arpal
ath oracic
Ġear External
Ġte am
Ġte tral
Ġte xt
Ġte thering
Ġov ulated
Ġrec ord
Ġrec urs
Ġrec lass
ept ives
Ġextensor hallucis
Ġextensor carp
Ġextensor retin
Ġganglion Greater
Ġganglion Sympathetic
Ġganglion Auriculotemporal
Ġtract Gastrointestinal
Ġgroup of
Ġpterygoid s
Ġpterygoid Superficial
Ġpterygoid muscle
Ġring ed
Ġring Deep
Ġring Position
Ġring Fibrous
Ġappro ached
yl oid
ex p
ex y
ex tra
ex tradural
Ġradi ates
Ġradi ology
Ġradi ologically
Ġradi ata
Ġradi ocarpal
Ġaxillary skin
Ġmandible Anterior
Ġfiss uring
Ġsphen osquamous
Ġsphen oparietal
Inferior Lateral
Ġmal abs
Ġmal formation
Ġmal rotation
Ġall erg
Ġfour che
Ġcond enses
Ġexp ose
Ġexp ense
Ġexp osing
Ġexp ulsion
Ġexp ressions
Ġexp ensive
Ġexp lore
Ġcont amination
Ġcont raind
Ġimportant ly
Superior Middle
Ġple uro
Ġple asurable
Ġel lipsoid
Ġpelvis es
11 101
Lateral process
Ġind welling
Ġind urated
flex ed
Ġcells Mastoid
Ġhumerus Medial
Ġhumerus Head
Ġhumerus Clavicle
opl asia
ĠR are
ĠR homboid
ĠR ecurrent
ĠR etroperitoneal
Ġextens ively
Ġcrest Anterior
Ġcrest Groove
Ġcava Oblique
Ġpulmonary veins
ĠH D
ĠH ip
ĠH yoid
ĠH eal
ĠH RCT
Ġdem arc
Ġdem ifacets
Ġshe aring
Ġspine Attachment
Ġspine Acetabulum
Ġscapula Inferior
Ġtubercle Anterior
Ġtubercle Posterior
Ġtubercle Inferior
Ġtubercle AB
Ġtubercle Obturator
Ġtubercle Adductor
Ġtubercle Mandibular
Ġfissure Inferior
Ġfissure Lesser
Ġfissure Lacrimal
Ġfissure Chorda
Ġfissure innervated
row ing
Ġhem at
Ġ1 8
Ġ1 97
Ġcolon ography
Ġcolon Omental
Ġpenis Glans
Ġpenis Prepuce
Ġser ial
Ġser rata
Ġcutaneous branch
Ġparasympathetic outflow
ĠAs sess
Ġpalate Soft
Ġdisc itis
Ġdisc rim
me atusSup
Ġuter ovaginal
Ġhyp oplasia
Ġint ub
Ġint rap
Ġint imately
Ġint imate
Ġprov oked
Ġmater End
Ġmater Subarachnoid
Ġmater Arachnoid
Ġexc urs
Ġisch iofemoral
Ġsphenoid Superior
Ġscal e
Medial border
Medial tubercle
Medial AnteriorAnterior
Medial cuneiform
trict ive
Ġdise ased
Ġoccipital pro
Ġinlet Laryngeal
Ġcur tains
Ġethmoid alcells
Ġlea ks
Ġbas ket
Ġrep ro
Ġrep etitive
ĠW orking
Ġrectus Superior
Ġrectus Medial
Ġwr ong
Ġnear est
Ġnear by
Th rough
Th ymus
Ġpanc reatitis
ick le
ĠE R
ĠE y
ĠE ding
ĠE mb
ĠE BUS
ĠE jaculation
Ġdigitorum pro
Ġdigitorum longus
Ġdigitorum superficialis
Ġfacet for
Ġcard inal
Ġcard ia
Ġcard iop
Ġcard iorespiratory
Ġvar iant
Ġmy otome
icard itis
Ġact ively
Ġplate let
Ġplate Nasal
Ġsternum Right
Ġsternum Rib
Ġsternum Clavicle
Ġsternum Xiphoid
Ġventricle Left
Ġventricle Coronary
acar pophalangeal
Ġanal og
Ġanal ysis
Ġfemoris muscle
Ġcomm a
Ġcoronary artery
Ġfrontal is
Ġpres ents
Ġpres ervation
ĠFig ure
roph ages
cl in
cl era
Ġplac enta
Ġlobe Superior
Ġtuberosity Position
Ġtuberosity Pubic
ĠN ature
ĠN eur
ĠN eck
ĠN eurons
ĠN uclear
ĠN amed
ĠN ervous
Ġafter ward
Ġapproxim ates
Ġbrachii Lateral
Ġbrachii Radial
ren e
Ġmass aged
Ġminor ity
Ġlevator es
Ġradius Humerus
Ġfl uct
Ġfl ight
Ġfl occul
Ġobs c
Ġobs erving
Ġobs tetric
Ġnotch Sternoc
Ġnotch Transpyloric
ĠU rine
ĠU rogenital
Ġag gra
Ġag reed
ple ural
Ar ches
Ar cuate
Ġno ises
Ġno xious
Ġno isy
orb it
Ġintr athoracic
lateral ly
omy elitis
Ġjunction s
Ġurethra e
cer ebellar
Ġpalmar interosseous
Ġresp onds
Ġorbital is
Ġcircum ferentially
Ġer os
Ġer od
Ġmetat arsus
cul osis
Ġsta y
Ġsta pling
Ġangle Articular
Ġaperture Anal
ak ness
for ce
Ġam put
Ġam bul
Ġam monis
Ġmagn ification
Ġpost contrast
Ġpost surgical
Ġpost comm
Ġperitoneum Artery
Ġalveolar artery
Ġmetacar pus
Ġkidney Left
alam ohyp
Ġcaps ular
Ġshort ly
Ġbronch oscopy
Ġbronch oscope
As sum
ĠAt ypical
Ġascending pharyngeal
ven ae
Ġsole ly
Ġuterus Ligament
Ġhern iate
AB Pulmonary
ĠG all
ĠG ently
ĠG reater
ĠG las
ĠG aps
ĠG ateway
ĠG entle
ĠG rasping
int ing
int roitus
Ġmaxilla Superior
Ġmaxilla Alveolar
Ġmaxilla Horizontal
Ġcarp us
Ġcarp opedal
Ġdef ense
Ġsegment of
Ġef fort
Ġef fusions
Ġorient ations
Ġsymphysis Ischial
Ġsymphysis Jugular
Ġclavicle Coracoid
Ġscan ned
Ġflat ter
Ġur achus
icul ates
icul ostriate
Ġeyel ash
Ġble eds
urc hette
Ġspread ing
Ġcap ut
Ġcap acity
Ġcap turing
Ġduodenum AB
term inal
Ġtoward midline
Ġdel ivers
Ġaponeurosis Linea
Ġremov able
res ulting
Ġsymptom atology
Ġupward Look
pos ing
Ġche mo
Ġcolle ague
At tached
urs ing
Ġnecess arily
19 8
19 9
23 1
23 2
23 4
23 6
23 7
23 8
Ġstr iae
isc he
Ġret romammary
Ġret rosternal
Ġexcept ions
Ġappear ances
Ġforamina Ethmoid
Ġpredom inates
Ġindic ation
ug ate
ug inea
Ġos seous
Ġcircumflex humeral
24 1
24 4
icond ylar
Ġhis to
Ġhis top
Ġdistribut ions
Ġimag ed
Ġsynap ses
ĠWhen ever
Ġconstrictor Inferior
Ġconstrictor Superior
Ġconstrictor Middle
Sp read
Ġeas iest
Ġparal ytic
20 0
20 1
20 6
20 9
27 3
Ġmuscul i
Ġlength s
Ġtunnel s
Ġmod ification
Ġmod ern
Ġmod erate
Ġtympan osquamous
otic otympanic
wh ite
Ġspin otransversales
Internal oblique
Ġprevent ion
Ġbrachiocephalic vein
26 4
26 7
Tr iquetrum
Tr acts
Tr igone
Ġref r
Ġref ract
Ġposs esses
Ġtransvers um
Ġtransvers eskin
Ġtransvers aria
Ġacoustic meatusSup
Sub cutaneous
Sub acromial
Sub tendinous
Ġol d
Ġol ive
sc al
Ġder ive
Ġpot assium
Ġinit iation
Ġinit iating
Ġlip id
iliz e
Ġhorn Body
rup ted
Ġir rad
Ġthem sel
isp l
Ġdil ates
Ġdil atation
Ġneuro endocrine
Ad ult
Ad itus
ron ator
Ġturn over
Ġev ac
Ġev agination
Ġdeterm ination
ĠAr ch
ĠAr ising
ĠAr throscopy
25 0
25 1
25 3
25 6
25 7
25 8
25 9
Superficial inguinal
Ġpron ated
Ġkn owing
Ġdifferent ial
Ġdifferent iation
Ġbifurc ating
rh y
Ġhel ped
Ġureter oscopy
Ġureter opelvic
Per itoneum
Per icarditis
Ġextra anatomical
Ġpalatini Levator
Con oid
Con tains
Con sequently
Con tinuity
Con fluence
pl antar
pl ified
pro per
pro ximal
pro priate
Ġident ifiable
Ġbulb us
Ġbulb ous
Ġlabyrinth Orbital
45 1
45 59
45 67
Ġrest ore
Inter arytenoid
Inter trochanteric
Inter chondral
Ġsphincter otomy
ĠAx onal
Ġconsider ably
28 0
28 3
28 4
28 5
28 6
28 7
28 8
28 9
Ab s
Ab normal
over lies
pr iately
Ġextr ude
Ġcruc ial
ulus External
Ġincis ure
Ġincis ors
Ġcurv iline
Ġhood Flexor
Ġcoccyx SII
Ġevent ual
Ġventral ly
Ġconf usion
Ġsplen ium
Ġsplen ectomy
Ġdec ay
Ġdec ades
Ġoper ated
Ġoper culum
Ġspecial ist
Ġspecial ization
Ġspecial ists
Ġspecial izations
Ġenlarg ing
ox yglucose
Ġinves ts
Ġtip toe
Ġtechn ology
Ġcondyle Lateral
Ġhemisp herical
Ġurethral sphincter
Ġurethral orific
Ġweight ed
Ġretro cecal
Ġlum ps
ocard iography
pert rophy
Ġfossae Anterior
ĠOther s
Ġmetast asis
Ġneural gia
cuss ion
Ġvol tage
Ġvol umes
ension al
Ġstud ents
Ġstud ying
Ġminim ally
Ġminim ae
Ġminim ize
artery Anterior
artery Dorsal
Ġorifice Glans
Ġarytenoid s
Ph iltrum
Ġrein f
Ġdistin ction
Ġcalcaneal surface
Ġstabiliz ing
Ġanchor ing
Ġinst antaneous
Ġinput s
Ġtop ographical
Ġmeniscus Attachment
Ġmeniscus Area
Op ponens
Sup ra
Sup erolateral
Sup inated
ĠEx tradural
ĠEx pans
Ġstyl omandibular
Ġsubdiv ide
Ġreinfor cing
Ġdistinct ive
Ġy ards
Ġreflex ive
Ġforce ful
Ġparallel ing
29 0
29 1
29 2
29 3
29 4
29 5
inter arytenoid
Ġloop ing
Ġembol ized
Ap proaching
Ap proximating
par asternal
par anasal
par alysis
view ing
Ġeminence Anterior
ĠHe art
ĠHe ad
ejun um
Ġfact or
ret ro
Ġgr asp
Ġconc entric
Ġconc luded
Ġovale Foramen
Ġovale Tensor
Ġcapitis Longissimus
Ġcapitis Semispinalis
Or ientation
Or gans
Pre tracheal
Ġpier ced
Ġnon visual
Ġgo ing
Ġgo vern
Ġrhomboid s
Ġprotr usions
Ġpartic les
Ġovary Round
Ġconcha Ethmoidal
Ġconcha Uncinate
ĠRadiograph s
Pro tection
Pro trusion
Ġplace ments
Ġdorsi Rhomboid
Ġangi ograms
nerve Ilioinguinal
Ġperforating branches
Dorsal is
Dorsal digital
Â° ,
Ġmental is
Ġband of
Ġrela ys
Ġcomb ining
Ġcomb ines
Inf ection
Ġscl er
Ġscl erotic
Esophagus Left
Esophagus EsophagusArch
Sc apula
Ġtw in
Ġtw olumbrical
Ġeven ly
Ġred undant
tend ons
Ġapprec iation
Common fibular
Musc ul
ping opharyngeal
ĠJ ef
Ġinfect ious
Ġdeferens Ductus
ĠSuperficial ly
Ġintest ines
Ġjaw s
Position ing
Ġdim ple
Ġdim ples
Ġves ico
emell us
tinu ation
ĠLe aving
Ġbronchi ectasis
Ġoss icle
Ġoss ify
22 2
84 123
Body Neck
Rib s
tra peritoneal
Ġz oster
Ġfil ter
Ġfil ament
Ġfil iform
Ġfil tering
Ġfil tered
Ġepid ermis
Ġhypoth alamic
Ġhypoth alamohyp
Ġbronchus Left
Ġcollect ed
Isch iocavernosus
str ing
str iped
Ġtransition al
Ġtransition ing
Ġductus deferens
Ġrecover ed
sp ec
sp lenomegaly
Ġsend ing
istic ally
Ġbirth s
Ġmeas ures
Ġmeas uring
Arter ial
Ġtempor ary
Ch anges
Ch apter
Ch ordae
Gen ioglossus
sub mandibular
sub lingual
sub clav
sub scapularis
Ġbal anced
Ġlast ed
Ġlast ing
Ġdest inations
Ġmamm illothalamic
ĠAb out
ĠComp ression
Ġadduction of
Ġpara hip
Ġfacilit ated
Ġestablis hes
Ġestablis hing
Trachea Arch
Trachea Cricoid
muscle Lateral
muscle Perineal
Sac cule
Ure teric
cartil aginous
ligament s
Ġsus tained
Ġpneum oconiosis
Ġpneum othoraces
Ġpunct uring
Ġpunct ured
Ġpunct uated
Ġlacer ations
Ġprog ression
Ġacute ly
Ġpapillary muscle
Ġanesthetic s
Ġcalc ified
Ġprinc eps
Ġrespons es
34 4559
Sh oulder
Sh adow
pass es
tro ke
tro card
Ġpe el
Ġpe ak
tract ed
tract ive
Ġmedius Gluteus
ĠTI A
ĠInter osseous
Ġprec lude
Ġelect rically
Ġchem oreceptors
Ġchem otherap
Ġchem istr
cutaneous nerve
more gulation
var ices
var icose
Ġdiver ticular
Ġprotect ing
Ġcann ulation
Ġintermuscular septum
roscop ically
Ġsten osed
Ġsten oses
Ġserous pericardium
Ġhypot ension
Pharyngeal branch
Supr aspinous
ĠK iesselbach
inferior ly
Ġslop ed
Ġcy t
Ġcy toarch
Ġreview ing
Ġdegener ation
Ġpers pective
ĠCh orda
ĠCh ronic
ĠCh iar
ĠPro jecting
ĠPro prioc
ĠPro ton
Ġminimus Gluteus
Ġanteroposterior ly
Ġmob ilization
Ġcyst oscopy
Ġprincip les
pocam pal
Branch ing
Clavicle Posterior
Clavicle Costal
con ing
con taining
con tinuation
Ġav uls
Ġsto ol
Ġsto od
Ġsto cking
atr ia
atr acheal
ĠAd ductor
Ġsex ually
Ġgener ating
Ġgener ations
Ġaspera Linea
Cervical enlargement
Rect o
Tuber cles
Tuber culosis
Ġwa ist
Ġarth roscopy
Ġarth roscopic
Ġarth roscope
Ġarth ritic
Ġread ing
Ġprem ature
Ġaccum ulate
ĠOver use
Ġmeth yl
Ġaccommod ates
Fib ro
ma xilla
wing ed
Ġequ ilibrium
Ġexternus Adductor
epend ent
Ġmedullary arteries
ternoc leidomastoid
Ġdev iating
Ġtrack ing
lob in
Ġenc ase
Ġenc aps
Ġopp onent
Ġchiasm atic
Ġchoroid al
ĠPer itoneal
ĠPer itoneum
Ġulcer ate
Ġrotator es
Ġprogress ed
Acrom ioclavicular
Ġsuggest ing
Ġhospital ization
Aorta Left
Aorta Right
Aorta Thoracic
Part s
bec omes
bec ulae
onse t
Ġlapar oscopy
Ġlapar oscope
osto cervical
Ġhum ans
Ġhum idity
Ġhind brain
Ġlateralis Vastus
ĠPar otid
ĠPar ietal
ĠPar anasal
ĠPar kins
Ġimpair s
Ġmyel oma
Ġmyel omening
Ġobstruct ive
Ġprominence Position
Ġsubscapularis Long
Ep ididymis
Se lected
mas seter
Ġtap ers
Ġmic roscopic
chond roses
epig astric
Ġoutput s
Ġelastic ity
Ġhydro cele
Infr atrochlear
Ġdiffuse ly
Corac ohumeral
Skin AB
Small saphenous
clavicular ligament
filled loop
ocular muscle
Ġmedialis Quadriceps
ĠOr gans
ĠOr ganization
Ġmesocolon Root
Ġdivertic ulitis
col lectively
dal ek
Ġtreat able
arr hea
rot ating
Ġlig ating
Ġglob e
Ġorder ed
ode oxyglucose
Ġmedic ation
Ġassist ance
ophy tes
ĠOp en
Ġradio active
Ġradio isotope
Ġexamin ations
Ġcremas ter
St imulation
hem atoma
Ġstem med
Ġfist ulas
Ġinh aled
Ġwid est
Ġwid ened
Ġdra wn
Ġever ted
Ġalb uginea
Ġendo bronchial
Ġperfus ing
ĠRelationsh ips
Ġfeel s
Submandibular ganglion
112 11101
Co C
Co chlea
End oscopic
Ġess ence
Ġput s
arm acological
ĠarteryC ostocervical
Ġspiral s
ĠIm aging
tail s
Ġcolor ed
Ġcolor less
ĠInf lammation
ĠPosition ed
ĠFib ro
ĠVer tebrae
Ġbasic ervical
Ġamygdal oid
Ġdefec ating
Ġabsorb s
Ġvolunt arily
longus Origin
Palat oglossal
Palat oglossus
Ġmeasure ment
Ov al
Ġtil ting
Ġach ieve
Ġvibr ate
Ġgran ules
Ġsuprap atellar
Ġsuprap leural
epicond yle
iplo Ã«
Ġoccl usions
Ġneu ros
Ġneu romuscular
Ġneu romas
ĠPal pation
Ġaccident ally
ĠDia gnosis
Ġepis ode
Ġremember ed
Ġbulla Middle
Ġcuboid al
Abduction Adduction
ospongiosus musclePerineal
Ġdestro y
Ġdestro ying
Ġreason able
Ġalba External
Ġdistinguis h
Bladder Uterus
Cor pora
Col lateral
Col lection
Trans ition
Trans plant
Trans itional
Wh ile
be ing
co vertebral
gr ind
man n
muc osa
Ġide ally
Ġfund iform
Ġla x
Ġlem on
Ġgyr i
Ġprote ction
yst itis
yst oscopy
Ġinterrup ted
Ġattenu ated
ĠSup port
Ġphot on
Ġphot ons
Ġparasternal ly
ĠPl acement
ĠPl acing
Ġloo ks
Ġloo ked
Ġunderta king
ĠEn tering
ĠEn larged
Ġyellow ish
Apex Left
parent heses
Ġelectro c
Ġmetabol ized
LI F
men isci
yz ed
Ġ11 14
Ġmix ture
Ġvas od
Ġvul va
rad io
Ġgl omer
Ġgonad al
Ġtrig onum
Ġtrache obronchial
Ġdispl aced
Ġenh ancing
Ġadjust ed
Ġplat form
ĠSp lenic
ĠSp ongy
Ġcorrect ing
Ġcorrect ly
Ġdesign ated
Ġimpinge ment
Ġliquid s
Ġmanifest s
Ġmanifest ations
Ġquest ions
ĠRe ferred
Ġmark ers
Ġhyper coagul
Ġlambd a
Epiglottis Epiglottis
bronchial artery
Function al
Great ertubercle
LIV LV
LIV LIII
bor ne
down ward
hallucis longus
zo elect
Ġsum mary
Ġbip edal
Ġlod ged
Ġreal ized
Ġexerc ises
Ġattem pted
Ġperpendicular ly
Ġscre en
Ġscre ws
ĠSh ould
ĠSt ones
Ġrob ust
ĠIns ertion
Ġoccup y
Ġoccup ied
Ġtransport s
Ġtransplant ed
Ġtravers ed
Ġsecret ory
Ġbreak down
Ġrecogn ition
Ġrecogn ized
Ġrecogn ize
Ġrecogn izable
Ġexpla in
ĠGen eral
Ġstrip es
Ġdilator s
Adduction Adduction
Ġballo ons
Ġlemn iscal
Cer ebrospinal
Loc ating
LII LI
LII LIII
Lab ial
Med ical
Med iastinum
Med iastinal
Temporal is
Transvers alis
Transvers eprocess
cr us
form ed
form ing
ien bock
pre ganglionic
ale a
Ġsucc umbed
Ġsuf ficient
Ġofs ternocleidomastoid
Ġfart hest
itect ure
Ġdom inated
Ġget s
Ġsuperc ilii
ĠTr ibutaries
ĠTum ors
Ġinterm axillary
Ġinterst itium
Ġshift s
ĠLoc ate
ĠLoc ated
Ġresol ves
Ġresol ving
Ġstret ch
def inition
ĠFlex or
Ġmean ing
AnteriorPosterior MedialLateral
ĠDe tails
ĠWh atever
Ġfluor odeoxyglucose
Ġanserinus Sartorius
Ġencirc led
Ġintersect ing
second arily
Coron a
Coron oid
Ġillustr ating
Caud al
Caud ate
Mes ovarium
Mes entery
Pect ineal
Re aching
Ret romandibular
Ret roperitoneal
TI A
Var ious
Var iations
cross ed
Ġtight ens
Ġtight ening
itic eal
Ġdark er
Ġegg s
Ġsuperomedial ly
Ġprop ag
Ġsport ing
ĠInd irect
Ġalve oli
Ġalign ed
Ġdisp lay
Ġcompr ise
Ġcompound ed
ĠCer ebrospinal
abs ence
Ġsubt otal
quad riceps
quad rant
ĠPoster oinferior
Ġimpar Sacral
Ġrecur red
Ġwrin kle
ĠUp on
Ġaccomplis h
Ġreinforce ment
parasympathetic s
Coccyx Sacrotuberous
Ġaggreg ates
Lumbosacral enlargement
Ġballoon ing
Ġmaneuver ed
Gracilis Semitendinosus
Ġsandw ich
Cost odiaphragmatic
En largement
Pen is
Sty lopharyngeus
cons trictor
Ġten osynovitis
Ġaid s
Ġofd iaphragm
Ġofd igastric
Ġofp terygoid
Ġofp ronator
Ġcat ar
Ġcat ching
Ġcis tern
Ġmac roscopic
Ġmac rophages
Ġlac unae
Ġlent iculostriate
Ġdi verse
Ġdi arrhea
Ġarr est
Ġarr iving
Intra peritoneal
Ġadhes ions
Ġincident al
Ġincident ally
Ġimm une
ĠprocessT XII
Ġbring ing
Ġtransabdominal ly
ĠMe asure
Ġemotion al
ĠFour th
PosteriorPosterior PosteriorPosterior
Ġbrea king
Ġdepos ited
Ġrecip ient
Ġexplor ing
Ġexplor ation
Ġfeed er
Ġportac aval
ĠNot ably
ĠUre ters
ĠUre teric
ĠUre thra
tubercle Groove
Brach ioradialis
Ġbenef it
Ġpredis posing
Ġoxygen ation
Fibularis longus
Fibularis brevis
Ġepisi otomies
Ġelectroly te
Neuro vascular
supr aspinatus
Ġtrigone Left
ĠBronch opulmonary
Ġsuccess ive
Ġsuccess fully
AD C
Connect ive
Hep at
Ham string
Malle us
Oste oporosis
Patella Patellar
Tro chanteric
Tra ditionally
Tra beculae
Trapez ium
ball o
comp artment
fal se
mat ter
mat ical
ventral ly
Ġtel encephalon
Ġtach ypneic
Ġtherap ies
Ġsat iety
Ġsed entary
Ġsqu are
Ġsqu ash
Ġsaf est
Ġofinter vertebral
Ġofinter phalangeal
Ġcla ustrum
Ġcla udication
Ġcast s
Ġfert ility
Ġfimbr iated
Ġfimbr iae
Ġbi ological
Ġbi omechan
Ġwat ch
Ġwat ershed
Ġwors t
Ġdanger ous
Ġhomolog ue
Ġhomolog ues
ĠnerveZygomatic ofacial
Ġconj ugate
Ġspont aneous
Ġattribut ed
Ġaden oma
Ġaden oids
Ġincons istently
Ġopac ity
Ġopac ification
Ġtransloc ate
Ġchall en
palat oglossal
ĠDif ferent
Ġpleur itic
ĠNe uro
ĠNe wer
Ġlengthe ning
Interc ondylar
Interc ostobrachial
Ġsaliv a
Ġsaliv ation
Ġmetastas izes
Pharynx Esophagus
spin otransversales
spin oglenoid
oblique Superior
Ġcornu a
Infraspinatus Teres
Sole us
ĠClin ical
Ġsuffer ed
Ġdescript ions
hamstr ing
Fundus BodyNeck
Radius Wrist
Ġgynec ological
Ġgynec ologist
Ġdisturb ance
Dors alcarpal
Hem i
Hand le
PD A
Pub isPubic
Poster omedial
Sal ivary
Sal pingopharyngeal
Sta ging
Sta pes
Struct ural
Struct urally
bucc al
car oticotympanic
dors i
dors um
Ġaug mented
Ġson ograp
Ġpin point
Ġpack ing
Ġpylor us
atin ized
Ġfast igial
Ġbuild s
Ġworm s
Ġdrag ging
Ġdrin king
omening es
Ġante version
Ġantic oagulation
Ġanomal ies
Ġartific ial
Ġartific ially
Ġgross ly
Ġha ul
epid ural
Ġinflu ences
Ġdex terity
Ġdex trocard
vest ibular
vest ibulocochlear
ĠTra ditionally
ĠTra veling
ĠTemporal is
Ins ertion
Ġinterfer es
ogen ic
ĠSim ple
ĠSignificant ly
ĠLung s
Ġprepar ation
Ġflexordigitorum superficialis
Ġcontrac eptives
Ġlift ing
ĠVest ibule
Ġobliqueaponeurosis Transversus
ĠRo of
ĠRect us
ĠRect um
Ġhemi arthroplasty
Ġflip ped
ĠUter us
ĠUter ine
Arm Elbow
Ġintrac ellular
Ġrespond ing
Intertubercular sulcus
Ġpreval ent
Ġpreval ence
Ġhypertroph ic
Ġhypertroph ied
Zygomaticotemporal foramen
Ġprecipit ate
Develop ing
Ġillness es
Ġinstrument ation
Ilioinguinal nerveIlioinguinal
Incisors Canines
Ġmemor ies
Ġmemor ization
Ġobliter ated
VVVIVIIVIIIIX X
Oropharynx Laryngopharynx
Ġflaccid a
Air way
Bur ney
Cords Divisions
Fix ation
Hern ias
Mid line
Olecranon Long
Post Post
Som ite
Sacrum Sacrospinous
dim ensional
fall opian
fers on
iolog ists
ker atinized
my elinated
mes enteries
main ly
nutr ition
plic ae
sal ivary
six th
ĠQu ervain
align ant
Ġsol utions
Ġslic e
Ġsatur ated
Ġpis ohamate
Ġpill ars
Ġpyre xia
Ġofsub arachnoid
Ġcult ured
Ġcath ode
Ġmot ivational
Ġflo ating
Ġbic onve
Ġbab ies
Ġinadver tently
rend elenburg
Ġlith otomy
Ġwast ed
Ġdiast olic
Ġiss ue
urge ons
idi ary
Ġelic ited
Ġvit reous
umpt ion
Ġreabs orption
Ġgend er
Ġhab enular
Ġcongest ion
gemell us
Ġones elf
Ġproct ogram
Ġproprioc eption
Ġsurpr ising
Ġcada ver
acetab ular
Ġhelic otrema
ĠveinTrachea EsophagusEsophagusArch
thick ness
Ġperi umbilical
Ġdislod ged
Injur y
Ġenab ling
ĠConnect ions
Ġpelv ical
Ġcoup le
Ġincontin ence
abdom inis
ĠSever e
ĠScal e
Ġsubs idiary
Ġsublux ation
ĠInters persed
Ġopin ion
ĠBene ath
ĠBiop sies
Ġchyl omicrons
ophthal mos
Ġseem s
ĠPanc reatic
ĠPath ology
ĠMedic ations
Ant Ant
Ġreloc ated
Ġinsuff lated
ĠFract ures
Ġmesenchym e
Ġdorsalinterosseous muscle
ĠVar ious
ĠDise ases
Ġmatch book
Ġrecomm ended
Ġquant ified
Ġsynthe size
acrim ation
ĠRib s
ĠRel ated
ĠRep roductive
Ġhypothyroid ism
Ġleaf lets
ĠEm issary
Ġpatholog ies
clot ting
Ġpromot ing
incis ive
Ġentrap ment
Ġtraumat ized
Trunks Roots
Ġtransversem etacarpal
Ġintraoper ative
Ġanesthes iologist
Ġdissem ination
Ġdissect ing
Ġdistort ion
ĠExt ensions
Ġthromboly tic
Ġantig en
EsophagusEsophagusTrachea Thoracic
Ġcorticoster oid
Bronch us
Zygomaticofacial foramen
Def ining
Ġequival ent
ĠPerine um
Spinalis Iliocostalis
Secret ory
ĠOrb ital
collateral ligament
TrapeziusDeltoid Deltoid
Ġsett ings
ĠPalat oglossus
Ġoptim ize
Vallec ula
IIIIII VVVIVIIVIIIIX
Ġirrit ates
ĠMechan ism
Ġconcentr ated
Ġtachycard ic
Ġsucce eding
ĠHemorrh oids
Ġlengthen s
InterosseousborderMedialsurface Anteriorborder
Ġphenomen on
Ġspondyl olisthesis
Ġneighbor ing
Ġquadriple gia
Capit ate
Ġcranioc ervical
Ġoligodendrocy tes
567 84123
Ach illes
Accompan ying
Bel ow
Cam per
Cont ents
Crem asteric
Derm atomyotome
Fo urchette
Ful crum
Fil iform
Fol iate
Fung iform
Hig hest
Helic otrema
Lob ar
Mc Burney
Mor gagn
Men isci
Pit uitary
Rid ge
Rel ax
Rem nant
Retr action
SY STOLE
SRI s
Significant ly
Separ ating
Tum ors
Tric uspid
Ve in
Verm ilion
West phal
XUSE S
bab y
cor onary
coccy geal
dep ress
eu tic
elev ate
hid rosis
matr ix
nat al
och dalek
pat ient
press ure
tow ard
typ ically
Ġunk nown
Ġtrem endous
Ġtenn is
orig inate
orec eption
Ġstic king
Ġsad ness
Ġsque ez
Ġsesam oids
Ġpie zoelect
Ġpoth ole
Ġpsy ch
Ġponto cerebellar
Ġofans a
Ġofmet acarpophalangeal
Ġcoc aine
Ġcasc ade
Ġcili ated
arran ted
isinter p
Ġmathe matical
Ġmista ken
Ġfas ter
Ġfles hy
Ġfove olae
Ġfrow ning
Ġfav orable
Ġfair ly
Ġfreed om
Ġbit emporal
Ġbim anual
Ġblad es
Ġboun ce
Ġbarr ier
roaden oma
Ġlog ical
Ġlept omeninges
Ġlangu age
Ġdos age
Ġdul y
Ġdoc umented
Ġdrows iness
Ġdizz iness
Ġdorso ventrally
oseb leeds
Ġnur se
Ġnone x
Ġthym ic
Ġect oderm
Ġeut hyroid
Ġeust achian
omph oses
Ġanem ic
Ġanta gon
Ġarbit r
Ġreun ites
Ġrevers ed
Ġgel atinous
Ġgang rene
Ġgli omas
Ġsupers eded
Ġarteriov enous
ĠnerveEx traperitoneal
chiop exy
Ġongo ing
Ġexce eds
Ġexsangu ination
ĠarterySup reme
ĠarteryAdduct ormagn
Ġspilla ge
ĠIll ustration
ĠmuscleIsch io
ĠmuscleBulb ospongiosusmusclePerineal
ampl itude
Ġalread y
Ġalgor ith
Ġhered itary
Ġveloc ity
Ġintoxic ation
Ġabund ance
Ġabbre viations
ĠAud itory
Ġtrump et
Ġcancell ous
threat ening
Ġpercol ates
Ġperiaqueduct al
ĠTreit z
Inters pinous
ĠligamentLumb rical
ĠjointForearm Wrist
iplop ia
Ġencephal opathy
ĠCons trictor
Ġinterspinal es
Ġintertransvers arii
Ġintersegment ally
Ġregurg itation
Ġadne xal
Ġcoating s
Ġcoher ence
Ġcoef ficient
ĠbranchDia gonal
Ġcarcin omas
Ġapophys es
ĠStrut hers
Ġsubgro ups
Ġpharmaceutical s
ĠLuschk a
ĠBucc inator
ĠBarret t
Ġbrief ly
Ġkick ed
Ġfasciat o
Ġendpl ates
Ġendocard itis
Ġcorrug ator
ĠPLE XUSES
Ġsaccul ations
ĠMagn ified
Ġinsinu ates
Ġaccept ed
Ġunloc ks
Ġmainten ance
Ġlikel ihood
1223 344559
Ġmeticul ous
ĠAnesthe tic
Posteriorlongitudinal ligament
ĠDrum mond
Ġsternoper icardial
Ġepiph yses
ĠplaneSupr acristal
ĠplaneUmbil icus
Ġtetral ogy
Ġextensorcarp i
Ġextensorretin aculum
InferiorLateral PosteriorPosteriorPosteriorPosterior
Ġfourche tte
SuperiorMiddle InferiorLateralPosteriorPosteriorPosteriorPosterior
Ġpleuro peritoneal
ĠAssess ing
Ġexcurs ion
MedialAnteriorAnterior Anterior
Ġoccipitalpro tuberance
ĠEding er
ĠEmb oli
Ġdigitorumpro fundus
Ġcardiop ulmonary
ĠNeur onal
Ġobstetric ian
ĠnotchSternoc lavicular
Ġaggra vated
Ġamput ation
Ġambul ance
Ġpostcomm issural
Assum ing
ĠGlas gow
Ġhistop ath
ĠacousticmeatusSup ramastoid
Ġirrad iation
Ġthemsel ves
Peritoneum Pelvic
4567 8123
Ġcurviline ar
Ġurethralorific e
Dorsaldigital arteries
ĠJef ferson
Ġhypothalamohyp ophyseal
subclav ian
Ġparahip pocampal
Ġchemotherap eutic
Ġchemistr y
Ġcytoarch itecture
ĠChiar i
Ġstocking s
Ġencaps ulated
ĠParkins on
Ġmyelomening ocele
Smallsaphenous vein
filledloop s
11211101 1223344559
LIVLV Pubic
LIVLIII LIILI
LIILIII LIVLVPubic
Transverseprocess Spinousprocess
constrictor of
ĠMeasure ment
Ġsonograp her
Ġdextrocard ia
ĠobliqueaponeurosisTransversus abdominis
CordsDivisions TrunksRoots
Ġbiconve x
56784123 45678123
Morgagn i
Relax ation
Ġpiezoelect ric
ĠarteryAdductormagn us
SuperiorMiddleInferiorLateralPosteriorPosteriorPosteriorPosterior MedialAnteriorAnteriorAnterior
112111011223344559 5678412345678123
% )
) -
* *
. ).
1 121
3 28
3 54
3 21
3 37
4 12
4 66
5 24
5 20
7 10
7 24
7 80
8 21
9 87
9 91
A C
A ut
A ort
A Left
A Internal
A Obturator
A Visceral
A Foramen
A Ulnar
A Lacrimal
A Perineal
A Major
A Abdominal
A Facet
A Frontal
A Acromion
A CA
A Abduction
A LIV
A SD
A Oral
A ICA
A TI
A CL
A Patellar
A mong
A Plantar
A uscultation
A ST
A Uterine
A Petrotympanic
A cting
A pertures
A neur
A ergic
A STOLE
A Metacarpals
A Femur
A LIF
A Intercondylar
A IncisorsCanines
B V
B e
B l
B ot
B all
B uc
B Anterior
B Inferior
B Superior
B Left
B External
B rainstem
B are
B Obturator
B arium
B Ulnar
B Lesser
B ased
B Ischial
B arr
B reg
B enign
B Parietal
B leeding
B LateralMedial
B Intervertebral
B reast
B Oropharynx
B Splenic
B Conjoint
B Orbit
B UpperLower
B Trochlea
B Femur
B icondylar
B Aditus
B Soleus
B IIIIIIVVVIVIIVIIIIX
B ochdalek
C E
C is
C one
C ard
C reat
C ase
C ross
C alcane
C III
C As
C urrent
C lavicular
C ould
C Dorsal
C olic
C osto
C ircumflex
C VA
C overed
C urrently
C learly
C lawing
C ancer
C overing
C Openings
C ecum
C ystoscopy
D C
D H
D I
D P
D X
D er
D ig
D ome
D isc
D iver
D rug
D iaphragmatic
D oppler
D iploic
D ilation
D irection
D artos
D Laryngopharynx
D ilated
D ispl
D iploÃ«
E D
E K
E ight
E ven
E Body
E ctopic
E spin
E rection
E lements
E BV
F at
F ac
F ing
F ace
F ossa
F low
F ull
F old
F usion
F irm
F ilum
F used
F ollow
F luid
F acets
F alciform
F ollowing
G S
G V
G u
G ran
G ast
G ross
G astric
G ingiv
G SA
G onad
G ateway
G lenohumeral
G ravity
G emellus
G alea
G omphoses
H P
H er
H ist
H IV
H ands
H ilum
H ysterectomy
H ymen
H odgkin
H esselbach
H umero
H RCT
H austra
I at
I mm
I leum
J a
J ejunum
K ern
K iesselbach
K yphosis
K ienbock
L A
L P
L R
L ach
L ord
L ay
L apar
L unate
L imb
L acrim
L add
L DH
M B
M I
M al
M on
M ic
M am
M et
M CA
M embrane
M idway
M elanoma
M ilk
M asses
M TBI
M FB
M RP
M ean
M yotomes
M ucosal
M ATI
M DP
N T
N ec
N ucle
N asion
N ote
N ostr
N ares
N odes
N omenclature
N ervous
N ext
O l
O t
O ur
O ment
O wing
O moclavicular
P A
P S
P ial
P ot
P ap
P op
P ars
P lic
P unct
P SA
P ump
P CA
P leural
P uls
P urkinje
P ICA
P eriorbita
P CL
P ulse
P ulled
P eople
P fan
P LIF
Q ST
R V
R o
R es
R ing
R are
R uptures
R ostral
S I
S w
S ur
S tr
S ep
S ite
S ound
S ix
S ept
S ever
S ynd
S imilar
S SA
S olid
S VE
S inu
S ections
S addle
S VA
S ensation
S ulcus
S light
S wallowing
S ummary
S top
S ymptoms
S ebaceous
S erum
S ymphyses
S clera
S troke
S urgeons
S SRIs
S CE
T P
T S
T a
T in
T en
T om
T reat
T erm
T ympan
T unic
T III
T XII
T VI
T ension
T ears
T esting
T arsus
T eeth
T rendelenburg
U r
V F
V en
V om
V iew
V vertebral
V entricular
V SD
V olk
V allate
V iscera
W e
W al
W edge
W asting
W orking
W inging
X IX
Z onal
] :
] ;
a h
a i
a w
a or
a us
a ut
a ves
a ave
a ural
a ks
a king
a Arch
a Lacrimal
a ising
a fferent
a Parietal
a edic
a xia
a uscult
a uterization
a xis
a utions
a Tarsus
b a
b i
b ar
b us
b ac
b ly
b ur
b il
b one
b lo
b est
b ag
b ors
b low
b asal
b oth
b ound
b owing
b itis
b ecause
b urs
b urn
b rainstem
b ellar
b arium
b ism
b icuspid
b efore
b eginning
b icipital
b ioscrotal
b locking
b lue
b ipennate
b reathing
b asic
b odies
b ucket
b Ã©
c u
c id
c up
c la
c ub
c ated
c erv
c ide
c reat
c ache
c her
c irc
c ence
c iform
c lic
c alcane
c ough
c ision
c ked
c rosis
c lavicle
c ollic
c ape
c omb
c olic
c une
c anal
c ited
c olon
c ience
c ranium
c uboid
c alcaneonavicular
c ardiac
c ircumflex
c rip
c avernous
c ubital
c ells
c alcaneus
c illation
c urrently
c apsule
c ystectomy
c ords
c lawing
c oracobrachialis
c hers
c ancer
c onchae
c urv
c rowing
d d
d y
d el
d il
d ub
d am
d ec
d ys
d ist
d erm
d rag
d ram
d iver
d iaphragm
d iast
d rate
d ense
d ry
d ience
d ark
d escent
d ilation
d ration
d rainage
d ish
d ouble
d ebr
d ependent
d iplopia
e ed
e le
e ous
e ating
e atus
e velop
e chn
e ven
e ography
e fferent
e au
e vit
e off
e jaculatory
e lements
e Tables
e enth
e Pial
f l
f it
f em
f ine
f ast
f fic
f its
f alc
f ix
f ever
f our
f acet
f ield
f rontal
f ovea
f lac
f uture
f riction
f lammatory
f ontanelles
f lat
f lail
f izz
f fe
f rey
g re
g les
g ated
g the
g ens
g round
g ree
g ory
g anglia
g ain
g yr
g ulate
g iving
g ulatory
g gia
g uing
g astrocnemius
g ered
g astrointestinal
g ums
g lenohumeral
g lobin
g alea
h n
h or
h as
h ib
h ot
h igh
h ist
h and
h able
h out
h umerus
h ilar
h uber
h app
h ump
h ypogastric
h anced
h ypoglossal
h inder
h umero
h ancing
h austra
h ikes
h unch
h aave
i ro
i ec
i end
i og
i ost
i itis
i ative
i ene
i ological
i ences
i oles
i omediastinal
i ants
i oplasty
i ometr
i Cochlear
i ectasis
i ju
i ky
i ureter
k art
k ill
k yl
k idne
k ling
k idney
k nown
l er
l us
l ig
l id
l ace
l ia
l oid
l ens
l ip
l act
l ast
l ist
l umb
l der
l ung
l osed
l unt
l usion
l ittle
l inary
l atively
l ines
l derly
l iness
l ants
l ipping
l umbrical
l ife
l umen
m al
m ac
m ig
m od
m ation
m ass
m oc
m ical
m ill
m mon
m illary
m uch
m inus
m ina
m astoid
m ature
m ak
m urs
m other
m ount
m ild
m ped
m outh
m osp
m ales
m arginal
m agn
m etatarsal
m yx
m argin
m eninges
m alignant
n is
n an
n as
n ular
n ow
n od
n th
n ong
n ens
n est
n ers
n umb
n ame
n ios
n uff
n ote
n ermost
n omer
n ostr
n odes
n icious
n osebleeds
o e
o er
o or
o os
o am
o ure
o ec
o ord
o ab
o ast
o ose
o uter
o ks
o ody
o acromial
o iled
o emb
o ogen
o ileal
o oking
o epithe
o Cone
p p
p ul
p ad
p ens
p atic
p et
p ost
p ore
p lies
p like
p ired
p iriform
p res
p yramid
p ox
p rec
p olic
p ping
p aste
p articular
p rost
p unct
p rem
p atients
p ostganglionic
p ump
p iglottis
p ampiniform
p ancreat
p terygoid
p ontine
p terygopalatine
p ean
p onin
p iece
p ebrae
p eau
r at
r ub
r ich
r ia
r est
r atic
r ive
r uc
r ents
r atory
r ura
r achial
r itory
r udimentary
r isk
r inting
s he
s or
s us
s ac
s il
s to
s ut
s tern
s pect
s ome
s omatic
s yn
s ied
s lic
s ingle
s oma
s uf
s ervation
s ild
s tructures
s pinous
s quamous
s aving
s Distal
s ystemic
s ling
s ustent
s olid
s inu
s laps
s addle
s tick
s ignificant
s acc
s talk
s acrum
s urfaces
s tand
s urrounding
s inking
s ystolic
s ulci
s ickle
s clera
s Mediastinum
s field
s lipping
s nuff
t ly
t id
t inal
t ies
t ie
t iss
t ions
t ius
t ose
t aches
t ram
t estinal
t unnel
t reme
t imately
t orn
t imes
t rophy
t iel
t tage
t ibi
t onsils
u ve
u ir
u ft
u dom
u able
u ents
u ina
u ations
u ency
u osity
u tof
u huber
v id
v ine
v ide
v entric
v ance
v ents
v aries
v ocal
v iding
v ier
v iation
v iral
v asive
v oste
w an
w ed
w ide
w orm
w ind
w ined
w ings
w are
w isting
w asting
w omen
w helm
x y
x ygenated
y er
y on
y to
y ce
y th
y lo
y et
y cle
y cl
y tenoid
y ography
y oglossus
y fold
y lopharyngeus
y comb
y oab
z i
z ion
z ing
z one
z ard
z ides
z ene
z ema
z zi
Ġ *
Ġ 0
Ġ id
Ġ âĢĶ
Ġ Zyg
Ġ Quad
Ġ 122
Ġ 125
Ġ 126
Ġ ilia
Ġ Quadrangular
Ġ Zonal
Ġt er
Ġt on
Ġt ens
Ġt ie
Ġt act
Ġt uc
Ġt ied
Ġt unic
Ġt ired
Ġt ying
Ġt read
Ġt inge
Ġt amp
Ġt asting
Ġt rend
Ġt orrential
Ġt ighter
Ġt uft
he al
he ric
he aring
he eled
he rocy
Ġthe ore
Ġthe mandibular
Ġthe anterior
Ġthe par
Ġthe ligament
Ġthe ater
Ġthe uterine
Ġthe thoracic
Ġthe bre
Ġthe pulmonary
Ġthe tongue
Ġthe pharyngotympanic
Ġthe thumb
Ġthe scapula
Ġthe hematoma
Ġa er
Ġa ward
Ġa ided
Ġa head
Ġa wake
Ġa VF
Ġa ware
er ing
er ous
er ator
er ance
er tebra
er imp
in k
in x
in um
in ol
in ity
in ance
in cus
in ked
in ner
in ative
in osa
in for
in ery
in term
in fund
in izing
in itive
in trinsic
in ata
in oper
in set
in fundibulum
in otransversales
in itially
in ergic
in tracerebral
in hib
in vasive
al s
al at
al ar
al ve
al ate
al ation
al ass
al oc
al act
al et
al ian
al ize
al lel
al varia
Ġo ro
Ġo ily
Ġo range
Ġo ophorectomy
Ġo moclavicular
Ġo utof
or an
or ous
or ad
or age
or oscopy
or gan
or ganization
or chiopexy
or pore
nd ed
nd oubtedly
nd evelop
Ġs il
Ġs od
Ġs oc
Ġs ure
Ġs lo
Ġs ag
Ġs oci
Ġs tric
Ġs nee
Ġs ung
Ġs way
Ġs ided
Ġs oma
Ġs aving
Ġs oluble
Ġs amples
Ġs ieve
Ġs arc
Ġs ickle
Ġp g
Ġp an
Ġp um
Ġp il
Ġp se
Ġp end
Ġp ear
Ġp ili
Ġp ond
Ġp ave
Ġp out
Ġp eg
Ġp oli
Ġp orph
Ġp anel
Ġp unch
Ġp ursing
Ġp iec
Ġp sor
Ġof C
Ġof ul
Ġof th
Ġof fer
Ġof its
Ġof uro
Ġof rib
Ġof arachnoid
Ġof inguinal
Ġof long
Ġof head
Ġof articular
Ġof medial
Ġof abdominal
Ġof right
Ġof gra
Ġof ulnar
Ġof uterine
Ġof oropharyngeal
Ġof deep
Ġof body
Ġof ethmoidal
Ġof thoracic
Ġof pre
Ġof aur
Ġof ham
Ġof levator
Ġof trigeminal
Ġof ducts
Ġof axilla
Ġof trapezius
Ġof oblique
Ġof biceps
Ġof tongue
Ġof internal
Ġof pectoral
Ġof para
Ġof esophagus
Ġof radial
Ġof lacrimal
Ġof maxillary
Ġof ante
Ġof ascending
Ġof acetab
Ġof aorta
Ġof cartilaginous
Ġof humerus
Ġof incus
Ġof alar
es e
es te
es ce
es tern
es ear
es uperior
es are
es tablis
es Nasal
es aving
es ho
es tration
at s
at ial
at el
at ase
at ite
at ae
at tach
at ification
at lanto
at ibility
on as
on ing
on ular
on ce
on ates
on ating
on toid
on ography
on ade
on trast
on contrast
on Fibrous
on odular
on omous
Ġc ul
Ġc ra
Ġc oin
Ġc ym
Ġc lo
Ġc lu
Ġc reas
Ġc row
Ġc ues
Ġc ured
Ġc ock
Ġc ited
Ġc irrh
Ġc rad
Ġc lamm
Ġc uir
ar in
ar able
ar ound
ar osp
ar ranged
ar ry
ar ising
ar rows
ar rector
ar rant
en ogram
en cing
en ude
en af
en ched
en larged
en pub
en arrow
en hancing
en pox
en zene
en estration
is el
is ch
is ition
is ons
is ite
is ensory
is anterior
is Visceral
is tinct
is muscleLateral
is nomer
Ġm ent
Ġm ur
Ġm om
Ġm im
Ġm ut
Ġm ens
Ġm ang
Ġm iss
Ġm ember
Ġm enses
Ġm ossy
Ġm ispl
Ġm isinterp
Ġm isnomer
Ġf os
Ġf id
Ġf ire
Ġf oci
Ġf asting
Ġf rown
Ġf ish
Ġf uture
Ġf enestration
Ġb us
Ġb ent
Ġb ore
Ġb ars
Ġb urn
Ġb isp
Ġb omb
Ġb las
Ġb oot
Ġb ump
Ġb icuspid
Ġb rown
Ġb umps
Ġb ounced
Ġb iventricular
Ġb idirectional
Ġb lade
Ġb ucket
Ġb atter
Ġb icondylar
Ġb enzene
Ġand oral
Ġand hyoid
Ġand inter
Ġand long
Ġand abdominal
Ġand deep
Ġand pulmonary
Ġand vein
Ġand palatine
Ġand biceps
Ġand brevis
Ġand fib
Ġand first
Ġand main
Ġand sole
Ġand lim
Ġand sta
Ġand becomes
Ġand mastoid
Ġand pampiniform
ter es
ter ase
ter ative
ter oinferior
ter ti
ter oanterior
ter tius
ic an
ic it
ic ial
ic her
ic ations
ic ture
ic ae
ic eal
ic tion
ic ofacial
ic roscopic
ic ommunic
ic ontract
ic losed
ic inity
Ġin le
Ġin ion
Ġin se
Ġin her
Ġin tric
Ġin ex
Ġin gen
Ġin vers
Ġin int
Ġin ade
Ġin aud
Ġin herent
Ġin interosseous
Ġin oper
Ġin anatomical
Ġin take
Ġin infratemporal
Ġin evit
us es
us ing
us ive
us Deep
us Lesser
us band
re ach
re vis
re gular
re tion
re veal
re traction
re ferred
re join
re ational
re late
re flected
re leasing
re tracted
re aks
re latively
ro ly
ro id
ro lateral
ro oves
ro ck
ro card
ro lling
ro gens
ro hn
Ġl it
Ġl ur
Ġl id
Ġl un
Ġl oin
Ġl ord
Ġl oses
Ġl ists
Ġl osing
Ġl ighter
Ġl acrimation
an a
an i
an ed
an ing
an se
an ating
an nel
an kle
an ulus
an atomy
an ococcygeal
an terosuperior
an astomoses
an kart
an vier
an ese
it ated
it ure
it ec
it ically
it ations
it ively
it rate
it antes
it uated
it rons
ed e
ed is
ed uc
ed icular
ed ema
ed ged
ed Up
ed iency
le tic
le ast
le Rib
le ocecal
le mentary
le movement
le ptic
le gs
le mentation
le bitis
ac y
ac cess
ac av
ac ondylar
ac cular
ac aval
ac orpore
ac enarrow
ig el
ig ated
ig ins
ig lottic
ig ested
ig ued
ig orous
Ġw el
Ġw ard
Ġw ov
Ġw ise
Ġw earing
Ġw arm
Ġw ish
Ġw ished
Ġw arranted
Ġw oody
Ġw estern
Ġw arrant
Ġw aning
Ġw edged
Ġto tr
Ġto inc
Ġto peritone
Ġto mandibular
Ġto ped
Ġto left
Ġto hip
Ġto brach
Ġto first
Ġto strap
Ġto bac
Ġto isch
Ġd orm
Ġd ress
Ġd ias
Ġd ips
Ġd ash
Ġd edic
Ġd Ã©
Ġd educed
Ġd iploÃ«
Ġd iplopia
Ġd enude
os ant
os ities
os cl
os igmoid
os omal
os arc
os enth
os omarginal
as se
as ible
as ms
ve ill
Ġn ation
Ġn ight
Ġn ove
Ġn ond
Ġn umer
Ġn atur
Ġn omenclature
Ġn osebleeds
Ġn itrate
The y
The ir
The nar
ent gen
ent orium
ent rance
ent ilation
ing es
ing ed
ul ed
ul ous
ul ta
ul ator
ul oskeletal
ul oure
ul inum
Ġis la
Ġis anterior
Ġis otop
Ġis crossed
Ġis least
ly ings
ly mp
ly hy
ly away
ur ate
ur ition
ur ium
ur ination
ur ized
ur ning
ur ving
ur pass
ur ling
ur ring
ur ney
ur ished
id s
id or
id st
id ium
id line
id ious
id isc
id ulating
Ġth ing
Ġth ia
Ġth ins
Ġth rive
Ġth alass
Ġe at
Ġe igh
Ġe lo
Ġe ject
Ġe burn
om inant
om embranous
om orph
om atically
om enta
om inata
terior ation
up t
up ward
up take
ial s
ial ysis
Ġv asc
Ġv ortic
Ġv illi
Ġv icinity
Ġv igorous
Ġan teb
Ġan imal
Ġan ocutaneous
Ġan oxic
Ġan imuscle
Ġan kyl
Ġan nular
um a
um ed
um atic
um oral
um Inferior
um Visceral
um Occipital
Ġar ach
Ġar med
Ġar row
Ġar range
Ġar ray
Ġar ched
Ġar bor
Ġar rector
Ġar guing
ra ble
ra abdominal
ra esuperior
usc ontract
ib ly
ib el
ib ulospinal
ib bus
Ġre act
Ġre tains
Ġre lying
Ġre attached
Ġre join
Ġre assess
Ġre exp
Ġre establis
Ġre uptake
Ġg um
Ġg ate
Ġg ad
Ġg one
Ġg lo
Ġg est
Ġg athe
Ġg ains
Ġg irth
Ġg ather
Ġg ateways
Ġg omphoses
Ġg eography
Ġg alact
Ġg urney
Ġg ibbus
ran ts
ran eous
el ing
el ly
el oid
el lo
el vis
el bow
el ike
el ift
el ayed
el Sesamoid
el ids
rom olar
rom edian
Ġfor th
Ġfor cing
Ġfor obturator
Ġfor attach
il m
il tr
il ical
il ay
il Palpebral
il helm
Ġsup inates
Ġsup inating
Ġsup erimp
te t
te in
te ar
te nds
te ars
te eth
te chn
te ggia
te als
Ġbe ad
Ġbe tw
Ġbe ats
Ġh one
Ġh und
Ġh yg
Ġh ors
Ġh ilar
Ġh int
Ġh ump
Ġh olid
Ġh usband
ot s
ot on
ot ed
ot ent
ot ation
ot rans
ot yp
ot ograph
ot opic
ot rop
ot oxic
ot onin
ot tie
Ġpos tr
Ġpos the
Ġpos tin
Ġpos itively
Ġfrom deep
Ġfrom superficial
Ġfrom femoral
Ġfrom sympathetic
Ġare olar
Ġare associated
art ing
art ments
art ics
art iculates
art mann
Ġarter ia
Ġarter iovascular
Ġarter ioles
tr ess
tr ual
tr yp
tr ache
tr itis
tr alaminar
tr igone
tr igger
tr iticeal
tr acorpore
Ġr umb
Ġr ug
Ġr homb
Ġr ash
Ġr acket
Ġr acing
Ġr icher
ith orax
ith romb
ith otomy
Ġnerve L
Ġnerve S
Ġnerve to
Ġnerve of
Ġnerve AB
Ġnerve from
Ġnerve Con
Ġnerve All
Ġnerve Middle
Ġnerve Pelvic
Ġnerve Transverse
Ġnerve Maxillary
Ġnerve Tendon
Ġnerve Groove
Ġnerve Ischial
Ġnerve Thoracic
Ġnerve Perineal
Ġnerve Abdominal
Ġnerve Frontal
Ġnerve Preganglionic
Ġnerve Lingual
Ġnerve Ligament
Ġnerve Facial
Ġnerve Motor
Ġnerve Ilio
Ġnerve Ophthalmic
Ġnerve Septal
Ġnerve Latissimus
Ġnerve Suprascapular
Ġnerve Sternocleidomastoid
Ġnerve Biceps
Ġnerve Hypoglossal
Ġnerve Tympanic
Ġnerve Musculocutaneous
Ġnerve Pterygopalatine
Ġnerve Second
Ġnerve Serratus
Ġnerve Sublingual
Ġnerve Infra
Ġnerve Subclavian
Ġnerve Piriformis
Ġnerve Palmar
Ġnerve Carotid
Ġnerve Infratemporal
Ġnerve Buccal
Ġnerve Incisive
Ġnerve Basilic
Ġnerve Lumbosacral
Ġnerve Axilla
Ġnerve Triangular
Ġnerve Ulna
Ġnerve Thyrohyoid
Ġnerve Pisiform
Ġnerve Recurrent
Ġnerve Pharyngotympanic
Ġnerve Parotid
Ġnerve Iliotibial
Ġnerve Genitofemoral
Ġnerve TracheaLeft
Ġnerve Quadratus
Ġnerve Vagal
Ġnerve Pyramidal
Ġnerve Ganglion
Ġnerve Subcostal
Ġnerve Supinator
Ġnerve Palpebral
Ġnerve Nasociliary
Ġnerve Semimembranosus
Ġnerve Uvula
Ġnerve Pes
Ġnerve Sural
Ġnerve Least
Ġnerve Spiral
Ġnerve Phrenic
Ġnerve Genital
Ġnerve TrapeziusLatissimus
Ġnerve AIncisive
Ġnerve Mammary
Ġnerve Top
Ġnerve Arcuate
Ġnerve Infratrochlear
Ġnerve Collateral
Ġnerve Labial
Ġnerve Temporalis
Ġnerve Brachioradialis
Ġnerve Fibularislongus
Ġnerve Intercostobrachial
Ġnerve Smallsaphenousvein
ess ary
Ġor chiopexy
Ġor subclavian
Ġcon ing
Ġcon vent
Ġcon gr
Ġcon vol
Ġcon sole
Ġcon cussion
Ġwith lateral
Ġwith medial
Ġwith blood
Ġwith top
Ġwith tibia
Ġwith stand
im ally
im uscles
im arily
im ber
im par
im mer
im inim
im atter
ch ors
ch yl
ch yle
ch ron
ch ild
ch orda
ch Calcaneal
ch olang
ch Tuberosity
ch olec
ch oana
ch ocardiography
ch hikes
ch wan
ol s
ol igament
ol ip
ol and
ol lateral
ol ize
ol factory
ol faction
ol oration
ol erance
ge t
ge ment
ge ting
Ġas ep
Ġas ks
Ġas tig
Ġas part
Ġas dermatomes
Ġas best
Ġma ins
Ġma ximal
ĠThe ses
ĠThe bes
ow ne
Ġon posterior
Ġon articular
Ġon medial
Ġon inferior
Ġon right
Ġon palate
Ġon floor
ph ag
ph ant
ph ase
ph arynx
ph aryng
ph osph
ph arosp
ph oton
em an
em ble
em por
em itting
em oving
em ale
em atous
em inim
all ium
all ower
all osal
Ġby ef
Ġby chorda
Ġposterior superior
Ġposterior Flexor
Ġposterior inferior
Ġposterior surface
Ġposterior intercostal
Ġposterior upper
Ġposterior ramus
Ġposterior Pulse
Ġanterior and
Ġanterior most
Ġanterior Dorsal
Ġanterior superior
Ġanterior muscle
Ġanterior ABC
Ġanterior Suprascapular
Ġanterior movement
Ġanterior cruciate
Ġanterior perforating
ect ineus
ect opic
ect orial
Ġex ec
Ġex qu
Ġex ert
Ġex tras
Ġex pert
Ġex ophy
Ġex udates
Ġex ophthalmos
od ic
od ine
od ynamic
od frey
od ontoid
od ialysis
Ġwh ist
Ġwh itis
ep ine
ep atic
ep age
ep ression
ep axial
ep iece
Ġartery and
Ġartery AB
Ġartery Branches
Ġartery Obturator
Ġartery Visceral
Ġartery Foramen
Ġartery Nerve
Ġartery Long
Ġartery Median
Ġartery Position
Ġartery Pubic
Ġartery Rib
Ġartery Transverse
Ġartery Flexor
Ġartery Pharyngeal
Ġartery Branch
Ġartery ABC
Ġartery Line
Ġartery Thoracic
Ġartery Aorta
Ġartery Vastus
Ġartery Interosseous
Ġartery Extensor
Ġartery Facial
Ġartery Mandibular
Ġartery Pterygoid
Ġartery Latissimus
Ġartery Suprascapular
Ġartery Descending
Ġartery Subscapular
Ġartery Optic
Ġartery Chorda
Ġartery Sternocleidomastoid
Ġartery LI
Ġartery Renal
Ġartery Sartorius
Ġartery Are
Ġartery LIV
Ġartery Mental
Ġartery Infra
Ġartery Occipital
Ġartery Piriformis
Ġartery Carotid
Ġartery Auriculotemporal
Ġartery Dura
Ġartery mid
Ġartery Area
Ġartery Thyrohyoid
Ġartery Plantar
Ġartery Subscapularis
Ġartery Acetabular
Ġartery Aortic
Ġartery LIII
Ġartery Portal
Ġartery TracheaLeft
Ġartery Ramus
Ġartery Vagus
Ġartery Quadrangular
Ġartery Pancreas
Ġartery Hook
Ġartery Alar
Ġartery Phrenic
Ġartery Parasternal
Ġartery Interosseousmembrane
Ġartery Ligamentum
Ġartery Stylomastoid
Ġartery EsophagusLeft
Ġartery Muscul
Ġartery ApexLeft
Ġartery Temporalis
Ġartery EsophagusEsophagusTracheaThoracic
Ġartery Vein
Ġartery Gonad
Ġartery has
ver y
ver ing
ver ted
ver ging
ver bal
Ġpro to
Ġpro duct
Ġpro gn
Ġpro peritoneal
Ġpro port
Ġpro lapse
Ġpro bes
Ġpro lapsed
Ġpro bably
to le
to od
to gether
to ck
to pulmonary
to cele
to pectoral
to cyst
to ols
un tain
un otherapy
un ode
un ipennate
un covertebral
un happ
ate lets
ate Phalanges
ate gic
ach ioradialis
ach iasmatic
Ġsp ent
Ġsp ins
Ġsp ill
Ġsp rain
Ġsp here
Ġsp rains
Ġsp icul
Ġsp urs
Ġsp ade
Ġsp aced
Ġsp ells
Ġsp ares
Ġsp iking
Ġsp iky
Ġsp oiled
Ġsp rinting
Ġsp herocy
Ġsp atial
Ġsp igel
Ġsp asms
la gen
la par
la bel
la ndular
la bioscrotal
la mina
ub t
ub lingual
ub by
ub foot
Ġinf ert
Ġinf loor
Ġinf old
Ġinf ancy
Ġinf ascia
Ġinf iltr
se tail
se udom
ich iatus
ine ate
ine Pect
ine Incisors
ĠI A
ĠI L
ĠI Superior
ĠI Right
ĠI mp
ĠI lium
ĠI Groove
ĠI Vertebral
ĠI Manubrium
ĠI Vertebra
ĠI Subclavian
ĠI Axilla
ĠI Digit
ĠI Single
ĠI Subclavius
ĠI leum
ĠI Subcutaneous
ĠI leocecal
ĠI odine
Ġj elly
Ġmed ically
Ġmed iod
Ġmed iating
Ġle th
Ġle vering
tic es
tic ulation
tic oagulation
tic alline
Ġat tain
Ġat roph
Ġat traction
Ġat tractive
Ġat axia
Ġat mosp
Ġlateral sh
Ġlateral shaft
Ġlateral region
Ġlateral malleolus
Ġlateral tarsal
Ġlateral malleolar
Ġlateral sem
Ġlateral compartment
Ġlateral pterygoid
Ġsur veill
Ġmuscle B
Ġmuscle In
Ġmuscle Right
Ġmuscle Internal
Ġmuscle Sub
Ġmuscle For
Ġmuscle Lesser
Ġmuscle Axillary
Ġmuscle Pubic
Ġmuscle Tend
Ġmuscle Attachment
Ġmuscle To
Ġmuscle Pharyngeal
Ġmuscle Tibial
Ġmuscle Abdominal
Ġmuscle Acromion
Ġmuscle Lingual
Ġmuscle Popliteal
Ġmuscle Extensor
Ġmuscle Submandibular
Ġmuscle Orbital
Ġmuscle Deltoid
Ġmuscle Thyro
Ġmuscle Ilio
Ġmuscle Teres
Ġmuscle Parietal
Ġmuscle Pectoralis
Ġmuscle Cut
Ġmuscle Glenoid
Ġmuscle Spine
Ġmuscle Sacrospinous
Ġmuscle Sternocleidomastoid
Ġmuscle Pterygopalatine
Ġmuscle Linea
Ġmuscle Epiglottis
Ġmuscle Serratus
Ġmuscle Rectus
Ġmuscle Subclavian
Ġmuscle Occipital
Ġmuscle Oral
Ġmuscle Suspensory
Ġmuscle Muscular
Ġmuscle Cutaneous
Ġmuscle Fund
Ġmuscle Membranous
Ġmuscle Saphenous
Ġmuscle Orbicularis
Ġmuscle Quadriceps
Ġmuscle Tuberosity
Ġmuscle Thyrohyoid
Ġmuscle Cephalic
Ġmuscle Patella
Ġmuscle Splenius
Ġmuscle Pharyngotympanic
Ġmuscle Pterygomandibular
Ġmuscle Ischiopubic
Ġmuscle Quadratus
Ġmuscle Infraspinatus
Ġmuscle Buccinator
Ġmuscle Hyoglossus
Ġmuscle Angle
Ġmuscle AP
Ġmuscle Nasociliary
Ġmuscle Floor
Ġmuscle Mandible
Ġmuscle Psoas
Ġmuscle Stern
Ġmuscle Conjoint
Ġmuscle Coracobrachialis
Ġmuscle Coccygeus
Ġmuscle Promontory
Ġmuscle Malleolar
Ġmuscle Foot
Ġmuscle Mammary
Ġmuscle Omohyoid
Ġmuscle Tear
Ġmuscle Chordae
Ġmuscle Genioglossus
Ġmuscle Saccule
Ġmuscle Trabeculae
Ġmuscle AObturator
Ġmuscle Covered
Ġmuscle Omoclavicular
Ġmuscle Sept
Ġca ge
Ġca ke
Ġca ution
Ġca esare
ated Supinated
ass ic
ass ment
ass ive
ass ification
ies is
ies cent
ace a
ut ter
ut ment
ut ches
ut put
ut ured
ia nd
ia bility
ia bly
ce iving
ce aled
ce aling
ir is
ir ing
ir enal
ir rup
ir ting
ad ian
ad ult
ad ily
ad vent
ad duction
ad ox
ad renal
ad icated
am es
am ol
am edial
am ining
am inase
Ġpart S
Ġpart Anterior
Ġpart Medial
Ġpart icle
Ġpart Pulmonary
Ġpart Tibial
Ġpart Brachial
Ġpart Descending
Ġpart Pleura
Ġpart Pedicles
Ġpart Dural
Ġpart iculates
Ġpart urition
Ġal imentary
oc oc
oc ranial
oc cl
oc ortic
oc ochlear
oc avity
oc rin
Ġcom ment
Ġcom itantes
tal i
tal s
oin ing
oid osis
Ġhe at
Ġhe ar
Ġhe roin
Ġde vis
Ġde cl
Ġde vascular
Ġde tach
Ġde af
Ġde aling
Ġde ceased
Ġde taches
Ġde terioration
ure tic
ure teric
one to
one gative
one crosis
Ġsuperior lateral
Ġsuperior part
Ġsuperior Rectus
Ġsuperior laryngeal
Ġsuperior alveolar
Ġsuperior sagittal
Ġsuperior gemellus
Ġinto fibular
Ġthrough foramen
Ġthrough aperture
Ġab use
Ġab rup
Ġab lation
Ġab uts
Ġab utment
Ġinferior lateral
Ġinferior Obturator
Ġinferior surface
Ġinferior extensor
Ġinferior Rectus
Ġinferior gluteal
Ġinferior Obliquus
Ġinferior vena
Ġinferior gemellus
Ġinferior hypogastric
ĠA cc
ĠA round
ĠA Lateral
ĠA cetab
ĠA zygos
ĠA vascular
ĠA ctiv
ĠA part
ĠA mer
ĠA gg
ĠA ICA
ĠA cross
ĠA ccompan
ĠA DC
ĠA gain
ĠA mmon
ves ical
ves ting
the y
the tic
the red
the nar
the cal
the less
Ġmuscles at
Ġmuscles In
Ġmuscles Superior
Ġmuscles Tr
Ġmuscles Greater
Ġmuscles Nerve
Ġmuscles Three
Ġmuscles Head
Ġmuscles Ax
Ġmuscles Ligament
Ġmuscles Gluteus
Ġmuscles Pudendal
Ġmuscles Sacral
Ġmuscles Shaft
Ġmuscles Sartorius
Ġmuscles Palmar
Ġmuscles Elevation
Ġmuscles Trochlear
Ġmuscles Depression
Ġmuscles Hyp
Ġmuscles Roughened
Ġmuscles Pectineus
Ġmuscles Anococcygeal
Ġmuscles Opponens
Ġmuscles Pretracheal
Ġmuscles Relaxation
Ġmuscles AC
Ġvein Lateral
Ġvein Medial
Ġvein AB
Ġvein Greater
Ġvein Obturator
Ġvein Nerve
Ġvein Arch
Ġvein Rib
Ġvein Pelvic
Ġvein Opening
Ġvein To
Ġvein Pulmonary
Ġvein Clavicle
Ġvein Aorta
Ġvein Tibial
Ġvein Ascending
Ġvein Facial
Ġvein Pterygoid
Ġvein Pectoralis
Ġvein Musculocutaneous
Ġvein Lymphatics
Ġvein Pyramid
Ġvein Prostatic
Ġvein Intercostal
Ġvein Rectum
Ġvein Basilic
Ġvein Axilla
Ġvein Hyoid
Ġvein Thyrohyoid
Ġvein Frenulum
Ġvein Cephalic
Ġvein Portal
Ġvein Stomach
Ġvein Thyroid
Ġvein Hyoglossus
Ġvein Cubital
Ġvein Hem
Ġvein into
Ġvein Para
Ġvein Heart
Ġvein Semimembranosus
Ġvein Accessory
Ġvein Emissary
Ġvein Azygos
Ġvein Clavipectoral
Ġvein Splenic
Ġvein ClavicleSuperior
Ġvein AortaInferior
Ġvein Brachialis
Ġvein Coracobrachialis
Ġvein Promontory
Ġvein Fissure
Ġvein Fimbr
Ġvein Marginal
Ġvein Ves
Ġvein Confluence
Ġvein Collateral
Ġvein Retromandibular
Ġvein Vermilion
Ġvein BInferior
Ġtr y
Ġtr ies
Ġtr iv
Ġtr aces
Ġtr acing
ec ation
ec avity
ec oming
ec iduous
ec chym
ec essary
Ġcan th
Ġcan oe
ym eatus
th y
th in
th und
th orax
th romb
th inning
th allium
Ġmedial side
Ġmedial epicond
Ġmedial malleolus
Ġmedial malleolar
Ġthat per
Ġthat ins
Ġsurf acenarrow
ight liness
ong ed
oint ment
oint Ret
erv entilation
ta y
ta king
ta ges
ta pl
ta pes
ta ken
ta pedius
ta wa
Ġ8 10
Ġ8 12
Ġ8 11
Ġ8 15
Ġ8 13
Ġ8 16
Ġ8 18
Ġ8 21
Ġ8 89
Ġ8 65
Ġ8 78
Ġ8 97
Ġcav itating
tw ins
tw ork
tw elve
ens ible
ens itive
ens tick
lo ose
lo yed
lo glossus
lo aded
teb roplasty
Ġper me
Ġper ime
Ġper oneal
Ġper icall
Ġper nicious
Ġper techn
Ġper ceiving
Ġver ge
Ġver bal
Ġver sus
ap t
ap es
ap art
ap se
ap ping
ap oneurotic
ap oneuroses
ap oration
ap atite
est is
per istal
per pendicular
per extension
per icardial
per icranium
per irenal
ĠT op
ĠT iss
ĠT erm
ĠT ars
ĠT ongue
ĠT ympanic
ĠT unnel
ĠT VI
ĠT ibial
ĠT ension
ĠT went
ĠT aste
ĠT esticular
ĠT ibia
ĠT orsion
ĠT alus
ĠT rol
ĠT ubercle
ĠT eeth
ĠT ibi
ĠT onsils
ĠT rendelenburg
ĠT echn
ĠT wisting
ĠT aloc
ĠT urning
ĠT owne
ĠT empor
ĠT estis
Ġbetween st
Ġbetween lateral
Ġbetween head
Ġbetween fibular
Ġbetween LI
Ġbetween skull
Ġdis ple
Ġdis pro
Ġdis traction
Ġdis tend
Ġdis tractive
Ġdis organization
Ġdis tends
ang ina
ang ioplasty
ang leRib
end ing
end ation
end ovascular
end iture
igament AB
Ġwall Anterior
Ġwall Lateral
Ġwall Medial
Ġwall External
Ġwall Rib
Ġwall Inguinal
Ġwall Skin
Ġwall Inc
Ġwall Axis
Ġwall Coracoid
Ġwall Iliac
Ġwall Gap
Ġwall Intraperitoneal
Ġwall Neurovascular
Ġwall Intercostobrachial
In fer
In version
In vol
In tracranial
In vestig
In testinal
In tralaminar
In vesting
Ġsurface Ulnar
Ġsurface Attachment
Ġsurface Transverse
Ġsurface Articular
Ġsurface Neck
Ġsurface Interosseous
Ġsurface Lower
Ġsurface Apex
Ġsurface Shaft
Ġsurface Muscular
Ġsurface ABCD
Ġsurface Capsule
Ġsurface InterosseousborderMedialsurface
Ġsurface Sustentaculum
Ġsurface Ridge
ys ical
ys tals
ord ia
if idus
if acetal
lu oroscopy
Ġligament Lateral
Ġligament Left
Ġligament Deep
Ġligament External
Ġligament For
Ġligament Obturator
Ġligament Or
Ġligament Median
Ġligament Lacrimal
Ġligament Pubic
Ġligament Transverse
Ġligament Head
Ġligament Inguinal
Ġligament Clavicle
Ġligament Levator
Ġligament Rect
Ġligament Perineal
Ġligament Root
Ġligament Tibial
Ġligament Abdominal
Ġligament Facet
Ġligament Interosseous
Ġligament Ligament
Ġligament Orbital
Ġligament Ilio
Ġligament Suprascapular
Ġligament Glenoid
Ġligament Lumbar
Ġligament Pudendal
Ġligament Uter
Ġligament Aponeurosis
Ġligament Chorda
Ġligament Joint
Ġligament Hy
Ġligament Synovial
Ġligament Transvers
Ġligament Fascia
Ġligament Rectum
Ġligament Ovarian
Ġligament Gallbladder
Ġligament Hyoid
Ġligament Quadriceps
Ġligament Acetabular
Ġligament Pisiform
Ġligament Testis
Ġligament Pub
Ġligament Spermatic
Ġligament Quadrangular
Ġligament Roughened
Ġligament Base
Ġligament Check
Ġligament Hook
Ġligament Pes
Ġligament Spiral
Ġligament Brachialis
Ġligament Soleal
Ġligament Ves
Ġligament Superolateral
Ġligament Mediastinal
Ġligament Mesovarium
Ġligament Stylopharyngeus
Ġligament Hepat
Ġligament Interspinous
Ġligament Bare
Ġligament Calcane
Ġjoint Ex
Ġjoint Lateral
Ġjoint Ar
Ġjoint External
Ġjoint On
Ġjoint ABC
Ġjoint Line
Ġjoint Acromion
Ġjoint Fibular
Ġjoint pre
Ġjoint Coccyx
Ġjoint Ulna
Ġjoint Center
Ġjoint IIIIIII
Ġjoint Costotransverse
Ġjoint ArmElbow
Ġcomp any
Ġcomp arable
Ġcomp lementary
ers RadiusWrist
oss ified
ag inary
ag ocy
Ġbone Inferior
Ġbone Lateral
Ġbone Medial
Ġbone As
Ġbone Internal
Ġbone Tr
Ġbone Sup
Ġbone Obturator
Ġbone Foramen
Ġbone Gro
Ġbone Groove
Ġbone Root
Ġbone Mastoid
Ġbone Pterygoid
Ġbone Occ
Ġbone Pterygopalatine
Ġbone Oral
Ġbone Calcaneal
Ġbone Alveolar
Ġbone Vomer
Ġbone Tuberosity
Ġbone Plantar
Ġbone Acetabular
Ġbone Thyroid
Ġbone Apical
Ġbone Hyoglossus
Ġbone Styloid
Ġbone Pyramidal
Ġbone Masseter
Ġbone Anteriorborder
Ġbone Perpendicular
Ġbone Uncinate
Ġbone Nasolacrimal
Ġbone Crista
Ġbone Frankfort
Ġbone Floor
Ġbone Lambd
Ġbone EF
Ġbone Pterion
Ġbone Zygomaticotemporalforamen
Ġbone Zygomaticofacialforamen
Ġbone Pituitary
ip ment
ip ation
ip ated
ip ut
ip ose
ip lan
ip ares
ip late
ip ronated
ip linary
Ġen velop
Ġen ox
Ġen ophthalmos
dom e
dom en
dom inated
dom inopelvic
ard rop
Ġpat ency
Ġpat ello
Ġverteb roplasty
tin a
Ġcavity Inferior
Ġcavity Lateral
Ġcavity Medial
Ġcavity AB
Ġcavity Internal
Ġcavity Middle
Ġcavity Trachea
Ġcavity Nasal
Ġcavity Articular
Ġcavity Head
Ġcavity Clavicle
Ġcavity Abdominal
Ġcavity Palatine
Ġcavity Laryngeal
Ġcavity Ilio
Ġcavity Parietal
Ġcavity Biceps
Ġcavity Diaphragm
Ġcavity Synovial
Ġcavity Oral
Ġcavity Drainage
Ġcavity Sternal
Ġcavity Choanae
Ġcavity Nasopharynx
Ġcavity Cribriform
Ġcavity Gap
Ġcavity Emissary
Ġcavity Lung
Ġcavity Subacromial
Ġcavity Connective
Ġcavity surrounding
Ġmid part
Ġmid lumbar
Ġmid tendon
Ġmid foot
Ġmid sternal
Ġmid sagittal
Ġmid abdom
Ġmid pronated
Ġsupp ress
Ġsupp ression
ĠC O
ĠC ase
ĠC enter
ĠC irc
ĠC entral
ĠC ath
ĠC yl
ĠC alf
ĠC occy
ĠC old
ĠC urrent
ĠC av
ĠC ount
ĠC ones
ĠC eliac
ĠC ondylar
ĠC lavipectoral
ĠC osto
ĠC hem
ĠC ircum
ĠC onscious
ĠC arpal
ĠC avernous
ĠC alcaneus
ĠC overed
ĠC orniculate
ĠC apsule
ĠC heck
ĠC arcinoma
ĠC lawing
ĠC oracobrachialis
ĠC ancer
ĠC ruciate
ĠC urv
ĠC ecum
ĠC ystoscopy
ĠC rura
ĠC alvaria
ĠC rohn
ĠC urving
Ġpal atom
Ġinter est
Ġinter wo
Ġinter medi
Ġinter ven
Ġinter scapular
Ġinter arytenoid
Ġinter esting
Ġinter change
Ġinter transverse
Ġinter position
Ġinter related
Ġinter palatine
Ġinter chondral
Ġinter gluteal
Ġinter tarsal
Ġinter digital
Ġinter thalamic
Ġinter lace
Ġreg ains
Ġreg ulator
arg y
Ġsc hed
Ġsc ience
Ġsc hem
Ġsc attered
Ġad op
Ġad ren
Ġad ds
Ġad eno
Ġad ju
Ġad apt
Ġad ipose
Ġup stroke
ient ed
ie to
ie tic
Ġright side
Ġright pulmonary
Ġregion of
Ġregion ally
Ġregion Greater
Ġregion Attachment
iv ision
iv ocochlear
Ġnerves T
Ġnerves An
Ġnerves III
Ġnerves External
Ġnerves Sp
Ġnerves Internal
Ġnerves Greater
Ġnerves Lesser
Ġnerves Nerve
Ġnerves Median
Ġnerves Lacrimal
Ġnerves Pelvic
Ġnerves Nasal
Ġnerves Preganglionic
Ġnerves Ophthalmic
Ġnerves Lumbar
Ġnerves Gray
Ġnerves Rhomboid
Ġnerves Short
Ġnerves Buccal
Ġnerves Cranial
Ġnerves Prevertebral
Ġnerves Heart
Ġnerves Ventral
Ġnerves Least
Ġnerves Zygomaticofacial
Ġnerves Coccygeal
Ġnerves Salivary
Ġnerves CordsDivisionsTrunksRoots
op en
op ing
op ress
op anc
op ubic
op tysis
op aus
Ġcl ick
Ġcl ings
Ġcl icking
Ġcl enched
Ġcl imber
ins uf
ins ertion
ove Lacrimal
Ġbranches of
Ġbranches Deep
Ġbranches AB
Ġbranches Internal
Ġbranches Adductor
Ġbranches Extensor
Ġabdom inoper
ros ive
ros urgical
Ġpl us
Ġpl ant
Ġpl ication
Ġpl icae
ill er
ill in
ill us
ill oma
so unds
Ġdeep en
Ġdeep ened
Ġdeep inguinal
Ġdeep fibular
und les
und ay
und iced
und esce
ant igra
truct ive
act ed
act ors
act orial
Ġside way
Ġside ways
Ġside Mater
Ġinn ov
Ġinn omenclature
Ġinn ominata
hen oid
Ġco il
Ġco gn
Ġco elom
Ġco elomic
Ġco ffe
cess es
asc ites
uc es
uc us
uc ible
uc kles
uc ials
Ġinc artil
Ġsh one
Ġsh ower
Ġsh ares
Ġsh allower
Ġsh apes
ab ies
ab ilities
Ġtwo fold
ear wa
ear chers
Ġbranch Superior
Ġbranch Lateral
Ġbranch Left
Ġbranch Deep
Ġbranch Radial
Ġbranch Adductor
Ġbranch Common
Ġbranch Femoral
Ġbranch Maxillary
Ġbranch Pulmonary
Ġbranch Nerves
Ġbranch Vastus
Ġbranch Descending
Ġbranch Intercostal
Ġbranch Acetabular
Ġleft submandibular
Ġleft bronchialartery
Ġleft coronary
ort on
ort osystemic
ons ive
ons illar
Ġinnerv ations
et ate
et ite
Ġsm ile
ell ing
ell um
ell ate
ell ine
Ġhead ing
Ġhead of
Ġhead aches
Ġhead lateral
Ġhead Adductor
Ġhead Synovial
Ġhead Normal
Ġhead Oblique
Ġap ically
Ġap ophyseal
Ġap ophysis
ast ly
ast atic
iss ions
iss ection
iss au
Ġsk y
Ġsk illed
ane Pubic
ane phric
og lobin
Ġbod ily
ist en
ist orically
umb osacral
umb Little
umb revis
Ġfossa of
Ġfossa Anterior
Ġfossa Posterior
Ġfossa Inferior
Ġfossa Medial
Ġfossa Deep
Ġfossa External
Ġfossa For
Ġfossa Ulnar
Ġfossa Maxillary
Ġfossa Articular
Ġfossa Head
Ġfossa Groove
Ġfossa ABC
Ġfossa Facet
Ġfossa Lingual
Ġfossa Popliteal
Ġfossa Artery
Ġfossa Deltoid
Ġfossa End
Ġfossa Lower
Ġfossa Sciatic
Ġfossa Carpal
Ġfossa Sublingual
Ġfossa Infratemporal
Ġfossa Drainage
Ġfossa Sphenoidal
Ġfossa Nasopalatine
Ġfossa Nasopharynx
Ġfossa Masseter
Ġfossa AcromionGlenoid
Ġfossa Hard
Ġfossa FibulaTibia
Ġfossa Salpingopharyngeal
Ġtend ing
Ġlow ers
Ġass ured
Ġass ault
Ġass umed
ili um
ili ohypogastric
Ġorigin of
Ġcol ostomies
mon ella
ĠS T
ĠS V
ĠS ir
ĠS ystem
ĠS ite
ĠS omatic
ĠS ural
ĠS ound
ĠS chle
ĠS put
ĠS kin
ĠS ites
ĠS tra
ĠS imilar
ĠS CA
ĠS erratus
ĠS pecially
ĠS amples
ĠS addle
ĠS mooth
ĠS ince
ĠS urround
ĠS epar
ĠS tomach
ĠS pecific
ĠS kene
ĠS ole
ĠS urrounding
ĠS eptum
ĠS PECT
ĠS utures
ĠS welling
ĠS liding
ĠS erum
ĠS ulci
ĠS ternum
ĠS ymphyses
ĠS troke
ĠS urgeons
ĠS SRIs
ĠS ituated
ĠS chwan
ĠS tapes
ĠS unday
Ġprocess ed
Ġprocess ing
Ġprocess of
Ġprocess Medial
Ġprocess Middle
Ġprocess Ver
Ġprocess Pre
Ġprocess Position
Ġprocess Axillary
Ġprocess Rib
Ġprocess Articular
Ġprocess Groove
Ġprocess Vertebral
Ġprocess Part
Ġprocess Root
Ġprocess Corac
Ġprocess Spinous
Ġprocess Mandibular
Ġprocess Ilio
Ġprocess Glenoid
Ġprocess TI
Ġprocess CII
Ġprocess Costal
Ġprocess Ary
Ġprocess Subscapularis
Ġprocess Sternal
Ġprocess Angle
Ġprocess Ramus
Ġprocess Infundibulum
Ġprocess Scaphoid
Ġprocess Ligamentum
Ġprocess TrapeziusDeltoid
Ġprocess Needle
Ġprocess Roughening
Ġprocess Interm
Ġprocess Cochlea
Ġprocess Handle
Ġprocess TransverseprocessSpinousprocess
Ġprocess BIIIIIIVVVIVIIVIIIIX
Ġob tains
Ġob lig
Ġro d
Ġro ad
Ġsub surface
Ġsub segmental
Ġsub cecal
Ġsub fert
Ġsub popliteal
Ġsub pleural
Ġsub tracted
ire tinal
ire tina
and pelvic
and rogens
li ver
li terative
ĠIn terior
ĠIn ward
ĠIn cus
ĠIn fect
ĠIn term
ĠIn side
ĠIn version
ĠIn itial
ĠIn jur
ĠIn adver
ĠIn nervated
ĠIn tracranial
ĠIn vestig
ĠIn jections
orac oid
orac olumbar
orac oacromial
ne in
ne xt
ne gative
ne twork
Ġvessel sof
Ġfibers C
Ġfibers V
Ġfibers Radial
Ġfibers Sympathetic
Ġfibers Facial
Ġfibers Zygomaticotemporal
round ed
ost osis
ost micturition
Ġ4 4
Ġ4 6
Ġ4 12
Ġ4 77
Ġ4 89
Ġ4 88
Ġ4 80
Ġ4 90
Ġ4 85
Ġ4 43
Ġ4 42
Ġ4 51
Ġ4 81
Ġph armacological
Ġph onating
Ġph lebitis
Ġph agocy
Ġop ted
Ġtub elike
Ġpelvic sp
Ġneck Anterior
Ġneck Lateral
Ġneck Surgical
Ġneck Anatomical
Ġneck via
Ġveins in
Ġveins on
Ġveins Anterior
Ġveins Inferior
Ġveins Superior
Ġveins Rib
Ġveins Parietal
Ġveins Infra
Ġveins Oblique
Ġveins Basilic
Ġveins Valve
Ġveins Pub
Ġveins that
Ġveins Retromandibular
Ġveins AInternal
fic e
ĠL ine
ĠL ack
ĠL ocal
ĠL ower
ĠL esser
ĠL ining
ĠL ob
ĠL unate
ĠL ook
ĠL umbrical
ĠL acrimation
ĠL astly
ĠL issau
ĠL isten
ĠL umbosacral
rain ed
Ġ7 4
Ġ7 66
Ġ7 88
Ġ7 30
Ġ7 78
Ġ7 91
Ġ7 75
ĠB all
ĠB rain
ĠB asal
ĠB ile
ĠB urs
ĠB rainstem
ĠB ody
ĠB ritis
ĠB enign
ĠB ulb
ĠB rown
ĠB asilar
ĠB lue
ĠB ipolar
ĠB road
ĠB ucket
ĠB ochdalek
ĠB lunt
ĠB oer
ĠB ankart
ĠB ecoming
ĠB undles
ĠB abies
Ġocc luding
Ġocc ulta
Ġocc iput
Ġrad icularis
Ġabdominal cont
qu ity
qu ired
qu ently
qu inol
Ġ6 7
Ġ6 8
Ġ6 15
Ġ6 24
Ġ6 45
Ġ6 59
Ġ6 60
Ġ6 63
Ġ6 44
Ġ6 22
Ġ6 62
Ġ6 70
Ġ6 42
Ġ6 64
Ġpar enter
Ġpar acet
Ġpar apar
Ġpar atracheal
Ġpar adox
Ġpar ieto
Ġpar anephric
Ġarteries Medial
Ġarteries Left
Ġarteries Right
Ġarteries AB
Ġarteries Adductor
Ġarteries Mandibular
Ġarteries Perforating
Ġarteries Cephalic
Ġbody A
Ġbody AB
Ġbody Transverse
Ġbody Intra
Ġbody Location
Ġbody PosteriorAnterior
Ġbody EBody
ĠTh at
ĠTh igh
ĠTh ree
ĠTh yro
ĠTh alamus
ĠTh ymus
ĠTh oracolumbar
Ġres iding
Ġres orption
Ġres umption
Ġres emble
Ġres utured
Ġres earchers
Ġext raneous
eb all
eb rum
eb ellum
Ġwas hout
Ġspinal artery
Ġbr ittle
Ġbr uit
Ġbr acing
Ġbr isk
Ġcons truct
Ġcons ult
Ġcons truction
Ġcons ume
Ġcons ented
Ġcons ervative
Ġcons umption
Ġst ack
Ġst omal
Ġst reaks
Ġst ubby
Ġst irrup
Ġbon eres
Ġtrans par
Ġtrans cervical
Ġtrans tubercular
Ġtrans cutaneous
Ġtrans lated
Ġtrans hepatic
Ġtrans co
Ġtrans thoracic
Ġtrans bronchial
Ġtrans duce
Ġtrans formation
Ġtrans sphen
Ġtrans udates
Ġtrans formed
Ġtrans aminase
Ġmajor Deep
Ġmajor ain
Ġmajor Attachment
Ġmajor Glenoid
Ġmajor nerves
Ġmajor Synovial
Ġmajor Basilic
Ġmajor Splenius
Ġmajor Semispinalis
Ġmajor ClavicleSuperior
Ġmajor Paired
Ġmajor SpinalisIliocostalis
Ġmajor usDeep
Ġvessels Anterior
Ġvessels AB
Ġvessels Obturator
Ġvessels Lesser
Ġvessels Esophagus
Ġvessels Position
Ġvessels Trachea
Ġvessels Round
Ġvessels Pudendal
Ġvessels Sciatic
Ġvessels Intercostal
Ġvessels Genital
Ġvessels Mesovarium
Ġlong head
lexus es
de velopment
de termination
de gree
de yer
pect en
pect ion
pect ineal
pect inate
Ġpr ick
Ġpr ying
Ġplexus L
Ġplexus T
Ġplexus in
Ġplexus and
Ġplexus Inferior
Ġplexus Lesser
Ġplexus Attachment
Ġplexus To
Ġplexus Sympathetic
Ġplexus Pulmonary
Ġplexus Thoracic
Ġplexus Abdominal
Ġplexus Round
Ġplexus Suprascapular
Ġplexus Lumbar
Ġplexus Prostatic
Ġplexus Esophageal
Ġplexus Intervertebral
Ġpre and
Ġpre fer
Ġpre tect
Ġpre tibial
Ġpre optic
Ġpre existing
Ġpre ferentially
Ġpre loaded
Ġpre determination
Ġgla bella
Ġgla ucoma
Ġcontin ually
yp oth
yp ts
Ġnot ice
Ġnot ably
Ġk een
Ġk ind
Ġk ept
Ġk inked
Ġk eloid
Ġk iller
st one
st uck
st roma
st yloid
st SYSTOLE
st ylopharyngeus
st orage
st arting
st ellate
Ġassoci ates
Ġassoci ating
Ġassoci ations
Ġcanal Anterior
Ġcanal Superior
Ġcanal Superficial
Ġcanal Greater
Ġcanal Foramen
Ġcanal Lesser
Ġcanal Adductor
Ġcanal Femoral
Ġcanal Pelvic
Ġcanal Sympathetic
Ġcanal Palatine
Ġcanal Facial
Ġcanal Mastoid
Ġcanal Tensor
Ġcanal Pterygopalatine
Ġcanal Rectum
Ġcanal Pyloric
Ġcanal Prostate
Ġcanal Vomer
Ġcanal Labium
Ġcanal cranial
Ġcanal Styloid
Ġcanal Angle
Ġcanal Molars
Ġcanal Spermatic
Ġcanal roof
Ġcanal Sphenomandibular
Ġcanal Prominence
Ġcanal Palatovaginal
Ġcanal Oval
Ġcanal nas
Ġch art
Ġch ick
Ġch yle
Ġch ances
Ġch lor
Ġch arged
Ġch ala
Ġch olin
Ġch anged
Ġch iro
Ġch oose
Ġch alet
Ġch isel
Ġforamen B
Ġforamen Anterior
Ġforamen Posterior
Ġforamen Inferior
Ġforamen Greater
Ġforamen Obturator
Ġforamen Foramen
Ġforamen Vertebral
Ġforamen Palatine
Ġforamen Suprascapular
Ġforamen Hypoglossal
Ġforamen Sacrotuberous
Ġforamen Mental
Ġforamen Acetabular
Ġforamen Ham
Ġforamen Ischiopubic
Ġforamen Lamina
Ġforamen Petrotympanic
Ġforamen nasal
Ġforamen Roughening
Ġfasc icular
Ġfasc iculi
Ġfasc iitis
Ġview Anterior
Ġview Medial
Ġview Attachment
Ġview Distal
Ġview arch
Ġview Dors
Ġview Poster
Ġview AcromionGlenoid
Ġview CMedial
Ġview Conoid
Ġview Superolateral
Ġview BAnterior
oph ob
low est
duct al
duct ed
duct ors
Ġmargin Anterior
Ġmargin Submandibular
Ġmargin Apex
Ġmargin Pyloric
Ġcord C
Ġcord Anterior
Ġcord Posterior
Ġcord Superficial
Ġcord Muscles
Ġcord Radial
Ġcord Inguinal
Ġcord Spinal
Ġcord Skin
Ġcord Pectoralis
Ġcord Testis
Ġcord Pia
Ġcord Conjoint
Ġcord Caudal
Ġcord Dermatomyotome
Ġcord Remnant
ric othyroid
Ġne opl
Ġne onate
Ġne onates
Ġassociated with
Ġinternal jugular
Ġinternal thoracic
Ġinternal car
Ġinternal pudendal
Ġend ed
Ġend ings
Ġend opelvic
Ġend ometr
Ġend othelium
Ġend otracheal
Ġend ocrin
Ġcor related
Ġcor relate
Ġcor rosive
ium PubisPubic
ening iomas
Ġvertebral venous
Ġvertebral level
Ġvertebral column
Ġvertebra B
Ġvertebra Nerve
Ġvertebra Esophagus
Ġvertebra Nerves
Ġstructures Mesentery
Ġcontinu ations
erm an
erm anent
Ġthoracic nerve
Ġthoracic intercostal
Ġili ocostalis
Ġse es
Ġse ated
Ġse lect
Ġse lected
Ġse epage
iang les
Ġdes ire
Ġdes erve
Ġdes pite
Ġdes tructive
Ġfascia Anterior
Ġfascia Medial
Ġfascia External
Ġfascia Superficial
Ġfascia Axillary
Ġfascia Rect
Ġfascia Manubrium
Ġfascia Parietal
Ġfascia Linea
Ġfascia BA
Ġfascia Cephalic
Ġfascia Forearm
Ġfascia Zygomaticotemporal
Ġfascia Stylohyoid
Ġfascia Sural
Ġfascia Scrotum
Ġfascia Continuity
Ġfascia SkinAB
Ġfascia Stylopharyngeus
Ġfascia Cremasteric
Ġfascia Fat
Ġfascia Pleural
Ġover pro
Ġover view
Ġover sec
Ġover used
Ġover lay
Ġover stim
Ġover dose
Ġover laryngeal
Ġover flexion
Ġover hang
Ġover eating
Ġover whelm
Ġover lyings
ult s
ult iple
Ġapp le
Ġapp ointment
Ġapp etite
ĠP A
ĠP us
ĠP alatine
ĠP ubic
ĠP rec
ĠP opliteus
ĠP ump
ĠP CA
ĠP ossible
ĠP ivot
ĠP rostate
ĠP eriorbita
ĠP atella
ĠP ulse
ĠP IP
ĠP terygoid
ĠP ulled
ĠP neumothorax
ĠP terygopalatine
ĠP eople
ĠP enis
ĠP CAs
ĠP oor
ĠP icture
ĠP elvis
ĠP otent
ĠP ectineus
ĠP seudom
ĠP ortosystemic
ĠP ostmicturition
ĠP lexuses
ĠP ermanent
Ġgro oving
Ġgro oved
oth yro
ud y
ud ed
ud oun
Ġblood less
Ġblood vessels
Ġposition al
Ġposition Milk
Ġ3 2
Ġ3 4
Ġ3 47
Ġ3 98
Ġ3 57
Ġwhere in
Ġwhere by
Ġtrunk and
Ġtrunk Inferior
Ġtrunk Obturator
Ġtrunk Esophagus
Ġtrunk Common
Ġtrunk Gen
Ġtrunk Branch
Ġtrunk Aorta
Ġtrunk Abdominal
Ġtrunk Preganglionic
Ġtrunk Diaphragm
Ġtrunk Cardiac
Ġtrunk Ganglion
Ġtrunk Thyrocervical
Ġtrunk EsophagusEsophagusTracheaThoracic
Ġsep tic
Ġsac Anterior
Ġsac AB
Ġsac Upper
Ġsac Nasolacrimal
Ġmembrane and
Ġmembrane Posterior
Ġmembrane Superficial
Ġmembrane Muscles
Ġmembrane Median
Ġmembrane Position
Ġmembrane Levator
Ġmembrane Line
Ġmembrane Glans
Ġmembrane Interosseous
Ġmembrane Chorda
Ġmembrane Roots
Ġmembrane Prostatic
Ġmembrane Vestibule
Ġmembrane Subscapularis
Ġmembrane Pharyngotympanic
Ġmembrane Scala
Ġmembrane Cric
Ġmembrane Stylohyoid
Ġmembrane Spiral
Ġmembrane Conus
Ġmembrane Redundant
Ġmembrane Subtendinous
Ġmembrane PubisPubic
Ġmembrane ArmElbow
Ġmembrane Diaphragmatic
Ġexternal ize
Ġexternal anal
Ġexternal iliac
ĠM B
ĠM uch
ĠM astoid
ĠM ature
ĠM alle
ĠM uscular
ĠM CA
ĠM ylohyoid
ĠM ale
ĠM asseter
ĠM asses
ĠM eningitis
ĠM FB
ĠM yotomes
ĠM ossy
ĠM ucosal
ĠM eninges
ĠM alignant
ĠM isinterp
ĠM TP
ĠM icroscopic
ĠM assive
ĠM ucus
ĠM orton
ĠM eningiomas
ĠM ultiple
Ġsystem Anal
Ġsystem Erectile
Ġrib CD
Ġsuperficial pen
Ġfr iable
Ġfr inge
Ġfr onto
Ġfr iend
Ġfr inged
Ġ5 3
Ġ5 7
Ġ5 19
Ġ5 23
Ġ5 24
Ġ5 60
Ġ5 66
rag ic
Ġtendon A
Ġtendon T
Ġtendon Anterior
Ġtendon Inferior
Ġtendon Lateral
Ġtendon Medial
Ġtendon Deep
Ġtendon Sup
Ġtendon Dorsal
Ġtendon Long
Ġtendon Median
Ġtendon Flexor
Ġtendon Brachial
Ġtendon Small
Ġtendon Terminal
Ġtendon Normal
Ġtendon Quadriceps
Ġtendon Pterygomandibular
Ġtendon Calcaneus
Ġtendon Gastrocnemius
Ġtendon Attached
Ġtendon Coracohumeral
Ġtendon PatellaPatellar
Ġtendon Fulcrum
Ġem anating
Ġlevel PharynxEsophagus
Ġnod ding
fer ences
ov ium
ov able
ov ocal
ov arian
ov ole
Ġconnect to
Ġlimb us
Ġlimb Lateral
Ġlimb Body
Ġlimb Pelvic
Ġlimb Head
Ġlimb Some
Ġlimb Anterolateral
Ġlimb Malleus
An ular
An astom
An ulus
An teromedial
An esthesia
An teroinferior
An chors
An ticoagulation
Ġrel ations
Ġrel ined
Ġrel ining
Ġrel ieved
ust omed
Ġfoot ball
ke eper
ke thand
Ġdiv ing
Ġnasal nerve
Ġnasal branch
Ġnasal branches
tric ulos
Ġsinus in
Ġsinus and
Ġsinus Internal
Ġsinus Opening
Ġsinus Facial
Ġsinus Ophthalmic
Ġsinus Optic
Ġsinus Great
Ġsinus Vomer
Ġsinus Mitral
Ġsinus Interc
Ġsinus Ala
Ġsinus into
Ġsinus Basilar
Ġsinus Minor
Ġsinus Sigmoid
Ġsinus Premolars
Ġsinus Sphenoparietal
Ġsinus Breg
Ġcr ying
Ġcr ude
Ġcr iter
Ġcr yoab
Ġcr itically
Ġcr utches
Ġcr ystals
Ġcr ypts
Ġcer umen
Ġcer bellar
unction ing
Ġbones Medial
Ġbones Th
Ġbones Nasal
Ġbones ABC
Ġbones Incis
Ġbones Carpal
Ġbones Cuboid
Ġbones Capitate
Ġven ography
Ġven ules
Ġven acav
Ġoccur rence
vis cer
Ġgland in
Ġgland of
Ġgland AB
Ġgland External
Ġgland Internal
Ġgland Par
Ġgland Visceral
Ġgland Foramen
Ġgland Vest
Ġgland Manubrium
Ġgland Parasympathetic
Ġgland Orbital
Ġgland Tympanic
Ġgland Mylohyoid
Ġgland Auriculotemporal
Ġgland Frenulum
Ġgland Parotid
Ġgland Para
Ġgland Gla
Ġgland Isthmus
Ġgland Mons
Ġgland within
Ġgland Flow
Ġiliac fossa
Ġiliac veins
Ġins ular
Ġins ulation
Ġins pected
Ġins ulated
Ġins istent
Ġins piratory
Ġins pired
Ġins idious
Ġins ensitive
Ġwithin ferior
Ġcervical artery
Ġimp ly
Ġimp art
Ġimp lying
Ġimp eding
Ġimp arts
Ġimp ulse
Ġimp ressions
Ġimp lication
Ġimp eded
Ġimp inging
Ġimp otence
Ġimp lants
Ġimp ede
Ġimp lementation
Ġimp inges
ress or
Ġthigh Posterior
Ġthigh Inferior
Ġthigh Lateral
Ġthigh Nerve
Ġthigh Adductor
Ġthigh Femoral
Ġthigh Pubic
Ġthigh Vastus
Ġthigh Popliteal
Ġthigh Ilio
Ġthigh Sciatic
Ġthigh Sartorius
Ġthigh Rectus
Ġthigh Gracilis
Ġthigh Genitofemoral
Ġthigh Pes
Ġdur ation
Ġ2 8
Ġ2 12
Ġ2 47
Ġ2 60
Ġ2 50
Ġ2 65
Ġ2 44
Ġbel ong
Ġbase of
Ġthen ce
Ġacc elerations
Ġrect ovaginal
Ġrect ocele
Ġrect osigmoid
tur n
tur ate
tur ned
ject s
ject ive
Ġduct al
Ġduct Posterior
Ġduct Inferior
Ġduct Left
Ġduct AB
Ġduct Lymph
Ġduct Common
Ġduct Opening
Ġduct Descending
Ġduct Vestibular
Ġduct Scala
Ġduct Lamina
Ġduct Infundibulum
Ġduct Cystic
Ġduct Main
Ġduct TIV
Ġduct Needle
Ġduct Porta
Ġduct opening
Ġduct Genioglossus
Ġduct Transitional
Ġduct Stapes
Ġduct Lacrim
med ulla
Ġmove eye
Ġlayer ing
Ġlayer Bucc
Ġlayer Infra
Ġlayer Efferent
Ġlayer Meningeal
Ġlayer Ret
Ġlayer Cavity
Ġlayer Arachnoid
10 58
10 41
10 99
Ġac ini
Ġline Lateral
Ġline Con
Ġline Isch
Ġline Head
Ġline Tibial
Ġline Acromion
Ġline Occipital
Ġline Tubercle
Ġline Mandible
Ġline EsophagusArch
Ġline Transversalis
Ġline Pectineal
Ġline Intercondylar
Ġcompartment Medial
Ġcompartment Deep
Ġcompartment Popliteal
Ġcompartment Interosseous
Ġcompartment alize
Ġborder Anterior
Ġborder like
Ġborder Spinous
Ġborder Subscapular
Ġborder Infraglenoid
Ġborder InterosseousborderMedialsurfaceAnteriorborder
Ġund igested
Ġout we
Ġout str
Ġout po
Ġout patient
Ġout lines
Ġout numb
ile ction
ile vel
Ġey epiece
tain ment
Ġnodes Anterior
Ġnodes Inferior
Ġnodes Superior
Ġnodes Left
Ġnodes Internal
Ġnodes Superficial
Ġnodes Lymph
Ġnodes Lymphatic
Ġnodes Common
Ġnodes Inguinal
Ġnodes Infr
Ġnodes Subscapular
Ġnodes Second
Ġnodes Suspensory
Ġnodes Celiac
Ġnodes Cis
Ġun cle
Ġun iform
Ġun rous
Ġun cus
Ġun cer
Ġun inter
Ġun resp
Ġun cont
Ġun acc
Ġun locking
Ġun ipolar
Ġun ivers
Ġun fert
Ġun myelinated
Ġun blocking
Ġun fit
Ġun hinder
Ġun rest
Ġun inhib
Ġun ifacetal
Ġun ossified
Ġlymph omas
itor ymeatus
itor umbrevis
Ġdiaphragm Aorta
Ġdiaphragm developed
ĠâĢ ĺ
ĠâĢ Ŀ
Ġterm inus
Ġtra ps
Ġtra ffic
enter ology
Ġfemoral cutaneous
Ġfemoral circumflex
Ġanteriorly to
Ġroot Somatic
Ġroot Gray
Ġroot Branchial
Ġattachment Adductor
Ġattachment Gracilis
Ġaorta The
Ġaorta and
Ġaorta Anterior
Ġaorta Right
Ġaorta AB
Ġaorta Superficial
Ġaorta Common
Ġaorta Pulmonary
Ġaorta Bladder
Ġaorta Cut
Ġaorta LV
Ġaorta Mitral
Ġaorta Gastrointestinal
Ġaorta Coronary
Ġaorta Brachiocephalic
Ġaorta TIV
Ġaorta Posteriorintercostal
Ġaorta AortaThoracic
Ġtriangle Inferior
Ġtriangle Superior
Ġtriangle AB
Ġtriangle Pubic
Ġtriangle Clavicle
Ġtriangle Perineal
Ġtriangle Popliteal
Ġtriangle Skin
Ġtriangle Sternocleidomastoid
Ġtriangle Urethral
Ġtriangle Occipital
Ġtriangle Vaginal
Ġtriangle Carotid
Ġtriangle Prostate
Ġtriangle Urogenital
Ġtriangle Tuberculum
Ġtriangle Plane
Ġtriangle Stylohyoid
Ġtriangle Floor
Ġtriangle BIschial
ific es
ific ations
Ġuln ocarpal
ĠO wing
ĠO ste
ĠO phthalm
ĠO dd
ĠO lder
ĠO varies
ĠO xygenated
ĠO utput
Ġinguinal ring
Ġram ify
Ġram ifies
Ġram icommunic
Ġarch Left
Ġarch Superficial
Ġarch Middle
Ġarch Adductor
Ġarch Body
Ġarch Pubic
Ġarch Distal
Ġarch Facet
Ġarch Palatine
Ġarch Carpal
Ġarch Supra
Ġarch Dorsaldigitalarteries
irc ase
irc ulated
Ġvisc osity
Ġ9 2
Ġ9 5
Ġ9 20
Ġ9 53
Ġ9 80
Ġ9 22
Ġ9 84
Ġ9 91
Ġ9 76
Ġ9 86
Ġ9 95
Ġli ves
Ġli ters
Ġgen ial
Ġgen icular
Ġinterc lavicular
Ġinterc ellular
Ġinterc avernous
Ġtransverse cervical
fore brain
gn ant
gn ancy
gn osing
uter osacral
ert s
ert ips
ert ilization
ĠF ine
ĠF ree
ĠF ibular
ĠF ocal
ĠF irm
ĠF etus
ĠF rontal
ĠF ascial
ĠF issures
ĠF ontanelles
ĠF ilm
ĠF emale
ĠF luoroscopy
ĠF ertilization
atom al
atom embranous
Ġcell sof
Ġcell bodies
Ġposteriorly Posterior
Ġposteriorly through
Ġflexor pollicis
Ġflexor tendons
Ġwhen pres
Ġcarotid Maxillary
Ġcarotid Frankfort
Ġmet encephalon
Ġleg Tibia
Ġleg Fascia
Ġmes h
Ġmes othelial
Ġmes oderm
Ġloc ally
Ġloc ked
Ġloc ulated
Ġarea Anterior
Ġarea FundusBodyNeck
Ġarea Site
ars Choanae
Ġjoints Flexion
Ġjoints Extension
ten nis
Ġaf ebr
Ġforearm s
Ġforearm Lateral
Ġforearm Medial
Ġforearm Long
Ġforearm Axillary
Ġforearm Area
Ġforearm Forearm
Ġforearm Digital
Ġknee Anterior
Ġknee Inf
Ġknee Attachment
Ġspace AB
Ġspace Vertebra
Ġspace Cut
Ġspace Dura
Ġspace Prevertebral
Ġspace Fascial
Ġspace Erector
Ġspace Pia
Ġspace Extradural
Ġspace Interarytenoid
Ġspace OlecranonLong
Ġspace Secretory
Ġspace ALIV
Ġunder use
Ġunder active
Ġunder development
12 132
Ġsepar ately
ympan iCochlear
ina Right
Ġhand AB
Ġhand Dorsal
Ġhand ling
Ġhand led
Ġhand Basilic
Ġhand AdductionAdduction
Ġdorsal metatarsal
Ġgluteal Superior
Ġgluteal Lumbosacral
Ġme tapl
ĠAn terosuperior
ĠAn sa
ĠAn gles
ĠAn usLesser
Ġligaments Medial
Ġligaments rem
Ġligaments ET
Ġligaments Lactiferous
Ġligaments Atlas
Ġligaments Aperture
Ġligaments Flat
Ġcartilage Lacrimal
Ġcartilage Major
Ġcartilage Facet
Ġcartilage Lower
Ġcartilage LI
Ġcartilage Vocal
Ġcartilage Dep
Ġcartilage Hyoid
Ġcartilage Anterolateral
Ġcartilage Minor
Ġcartilage Trapezoid
Ġcartilage TracheaCricoid
Ġcartilage Highest
Ġcartilage Ridge
Ġcartilage BOrbit
Ġsec uring
Ġsec onds
olateral surfaces
sh ot
sh arp
pal ms
pal sy
pal pebrae
Ġabove level
ĠV ibr
ĠV Pelvic
ĠV isual
ĠV Phalanges
ĠV enogram
Ġes cap
Ġes cape
Ġcross bar
Ġbelow Dem
ind uced
ind rically
Ġlung Lateral
Ġlung Left
Ġlung Right
Ġlung Middle
Ġlung Cervical
Ġlung Subclavian
Ġlung Mediastinum
its ARib
Ġsubc ortic
Ġsubc allosal
Anterior Lateral
Anterior Articular
Anterior Facet
Anterior surface
Anterior interosseous
Anterior ramus
Anterior malleolar
Anterior fornix
Anterior sternoc
Ġtissue Septal
Posterior Inferior
Posterior process
Posterior border
Posterior interosseous
Posterior malleolar
Posterior comm
Posterior calcaneal
Posterior fornix
Posterior talofibular
Posterior compartment
ans ing
own ward
ection Internal
out ine
out put
out side
out cro
ĠD uct
ĠD ue
ĠD ick
ĠD isc
ĠD escent
ĠD ivisions
ĠD uodenum
ĠD igastric
ĠD raining
ĠD RE
ĠD WI
ĠD enervation
ĠD ilated
ĠD iog
ĠD elayed
ĠD ots
ĠD epression
ĠD eciduous
ĠD ivision
ĠD issection
ĠD ownward
Ġcirc ulating
Ġcirc ulates
Ġcirc uits
Ġcirc adian
Ġman ner
Ġstern ebrae
Ġsympathetic sc
ulum Lateral
âĢĿ :
âĢĿ ):
âĢĿ )âĢĶ
Ġvertebrae A
Ġvertebrae C
Ġvertebrae Spinal
ograph ic
ograph ically
Ġmin i
Ġmin orduodenal
Ġarm C
Ġarm Anterior
Ġarm Posterior
Ġarm Lateral
Ġarm Median
Ġarm Skin
Ġarm BC
Ġarm Musculocutaneous
Ġbut ton
Ġbut tress
Ġep axial
Ġep icranial
Ġep iretinal
Ġmen inx
Ġoblique Superior
Ġoblique Superficial
Ġoblique Levator
Ġoblique Fascia
Ġoblique Look
lies the
zyg apophysial
cle aring
Ġpalp itations
Ġthyroid itis
lad en
Ġplane Anterior
Ġplane Superior
Ġplane Neck
Ġplane Coronal
Ġfold ing
Ġfold Anterior
Ġfold Lateral
Ġfold Lacrimal
Ġfold Palatine
Ġfold Laryngeal
Ġfold Ligament
Ġfold Cut
Ġfold Vestibular
Ġfold Ureter
Ġfold ABCD
Ġfold Labium
Ġfold Frenulum
Ġfold Corniculate
Ġfold Recto
Ġfold Handle
Ġlongus to
Ġlongus Lateral
Ġlongus Radial
Ġlongus Attachment
Ġlongus Flexor
Ġlongus Articular
Ġlongus Proximal
Ġlongus Extension
Ġlongus Anteriorinterosseous
ortant ly
Ġorbit Superior
Ġorbit Medial
Ġorbit Position
Ġorbit Pterygomaxillary
alc anal
alc ohol
Ġback L
Ġback s
Ġback flow
Ġback Early
Ġback ground
Ġrem oves
Ġrem ission
Ġrem nan
Ġfloor Rectum
Ġless en
ucle i
ucle ated
Ġmore over
ganglion Otic
ix Cecum
Ġpub oan
Ġpub ovaginal
Ġpub orectal
Ġpub ovesical
ath ic
ath ies
ath Tendon
Ġear lob
Ġear Mastoid
Ġmedially Look
Ġte aching
Ġte thered
Ġte ardrop
Ġov um
Ġov ulation
osse i
Ġopening the
Ġopening Anterior
Ġopening Pubic
Ġopening Vestibule
Ġopening Uterus
Ġdep th
Ġdep ths
eps pollicis
Ġrec all
Ġrec ite
Ġrec anal
Ġrec ording
Ġrec ycl
Ġrec reational
Ġrec irculated
ept or
Ġqu arter
Ġqu iescent
Ġmotor preganglionic
Ġheart s
Ġsecond dorsal
Ġganglion Inferior
Ġganglion Left
Ġganglion Middle
Ġganglion Visceral
Ġganglion Nerve
Ġganglion Palatine
Ġganglion Sensory
Ġganglion Motor
Ġganglion Mandibular
Ġganglion Upper
Ġganglion Chorda
Ġganglion Gray
Ġganglion Tympanic
Ġganglion Abducent
Ġganglion Nasopalatine
Ġganglion Otic
Ġganglion Ciliary
Ġganglion Dermatomyotome
Ġganglion Helicotrema
Ġganglion TransverseprocessSpinousprocess
Ġtract Posterior
Ġtract Pubic
Ġtract Attachment
Ġtract Aorta
Ġtract Sensory
Ġtract Gluteus
Ġtract Parietal
Ġtract Iliotibial
Ġtract Secondary
Ġtract Retroperitoneal
Ġtract Hamstring
Ġgroup AB
Ġgroup Serratus
Ġgroup Intrinsic
Ġpterygoid Deep
Ġpterygoid Branch
Ġpterygoid Lower
Ġpterygoid Spine
Ġpterygoid Trigeminal
Ġpterygoid Masseter
Ġpterygoid Capsule
Ġpterygoid plate
Ġpterygoid Retraction
Ġring C
Ġring Anterior
Ġring External
Ġring Greater
Ġring Inguinal
Ġring Aponeurosis
Ġring LateralMedial
Ġring Spermatic
Ġring Testicular
Ġring Internaloblique
Ġring BLateralMedial
Ġcour t
Ġappro priately
Ex erc
Ex piration
Ex tracranial
Ex tracerebral
Ex amine
Ex treme
Ex amining
yl ate
yl ase
tab ly
mar row
mar ked
mar iju
ex ed
ex ternus
ex amination
ex tended
ex Fing
ex cited
ex tracorpore
Ġfing ertips
Ġskull Axis
Ġradi ocephalic
Ġradi ograp
Ġbrachi itend
Ġbrachi icontract
Ġbrachi iand
Ġmandible External
Ġmandible Position
Ġmandible Body
Ġmandible Zygomatic
Ġmandible Structures
Ġmandible Mastoid
Ġmandible Temporal
Ġmandible Alveolar
Ġmandible Buccinator
Ġmandible Petrotympanic
Ġmandible Styloid
ps tein
Ġexam s
Ġexam ples
Ġtibial isposterior
Ġtibial Circumflex
Ġlob ular
Ġlob ectomy
Ġlob ulated
VII VIII
Ġsyn erg
Ġsyn thesis
Ġsyn chondroses
Ġsyn chron
Ġsyn ovium
Inferior Transverse
Inferior rectus
Inferior epigastric
Inferior obliqueSuperior
Ġlumbar ization
Ġlumbar vertebra
Ġsome thing
Ġmal function
Ġmal align
Ġmal nutrition
Ġmal descent
Ġall salivary
Ġseg reg
vertebral sympathetic
Ġcond uits
Ġcond ensations
Ġinv ention
Ġinv ades
Ġinv ented
Ġintercostal artery
len gthe
Ġtest ings
Ġtest oster
Ġulnar Extensor
Ġdo uloure
Ġdo ubt
Ġexp ends
Ġexp anse
Ġexp ediency
Ġexp enditure
Ġpalatine artery
Ġpalatine Soft
Ġcoron aries
Superior sub
Superior laryngeal
Superior vena
Superior constrictorof
ture d
Ġple ased
Ġple omorph
Ġang ina
Ġang ulation
Ġang ulated
Ġliver Left
Ġliver Quadrate
Ġliver AortaInferior
Ġliver Caudate
Ġliver BSplenic
ugh s
Ġabdomen Pectoral
Ġabdomen Sacral
Ġpelvis Vertebral
Ġpelvis Major
Lateral rectus
Lateral Cuneiform
Lateral epicondyle
Lateral tubercleGroove
Ġind isting
Ġind ented
Ġind istinct
acr ine
acr ylate
Ġribs Superior
Ġatr esia
Ġjugular vein
Ġcells Superior
Ġcells Maxillary
Ġcells Ep
Ġcells Branchial
Ġhumerus Rhomboid
Ġhumerus Surgical
Ġhumerus Coracoid
Ġhumerus AnteriorPosterior
Ġhumerus Needle
Ġperineal fascia
ĠR ed
ĠR ing
ĠR ound
ĠR etr
ĠR upture
ĠR oot
ĠR ob
ĠR ima
ĠR ostr
ĠR amus
ĠR edundant
ĠR otator
ĠR unning
ĠR educed
ĠR ostral
ĠR aising
ĠR esear
ĠR anvier
ĠR osenth
ĠR otation
ĠR oland
ĠR emoving
ĠR outine
ĠR exed
Ġcolumn ar
Ġcolumn Rib
Ġcolumn Renal
Le ak
Le aving
Le vine
Ġforward in
Ġforward Inferior
Ġforward resulting
Ġforward Face
Ġforward Hands
Ġcrest Posterior
Ġcrest Medial
Ġcrest Internal
Ġcrest Greater
Ġcrest Lacrimal
Ġcrest Maxillary
Ġcrest Interosseous
Ġcrest Orbital
Ġcrest Gluteus
Ġcrest Septal
Ġcrest Upper
Ġcrest Sacral
Ġcrest LI
Ġcrest Linea
Ġcrest Temporal
Ġcrest Fascia
Ġcrest Iliac
Ġcrest Periosteum
Ġcrest Splenius
Ġcrest High
Ġcrest Piriform
Ġcrest Tuberculum
Ġcrest Seminal
gen ase
gen cies
vent ually
Ġallow ed
Ġcava Posterior
Ġcava Superior
Ġcava Arch
Ġcava Supr
Ġcava Branch
Ġcava Vertebra
Ġcava Diaphragm
Ġcava LII
Ġcava Stomach
Ġcava Liver
Ġcava Azygos
Ġcava ABPulmonary
Ġcava TracheaArch
Ġcava AortaLeft
Ġcava Hemi
Ġcava Tricuspid
Ġcava Limb
Ġcava Intestinal
Ġtube Greater
Ġtube Middle
Ġtube Foramen
Ġtube Lesser
Ġtube Opening
Ġtube Branch
Ġtube Palatine
Ġtube Ligament
Ġtube Tensor
Ġtube Fibrous
Ġtube Mes
Ġtube Choanae
Ġtube Nasopharynx
Ġtube Uterine
Ġtube Cervix
Ġtube AIncisive
Ġtube Salpingopharyngeal
ĠH and
ĠH umerus
ĠH ick
ĠH inge
ĠH aving
ĠH oun
ĠH elic
ĠH iatal
ĠH LA
ĠH ooking
ĠH yoglossus
ĠH arry
ĠH artmann
ĠH epatic
ĠH istorically
ĠH ypoth
ĠH erman
Ġtongue Opening
Ġtongue Mylohyoid
Ġtongue Vallate
Ġdem and
Ġdem ands
Ġshe ll
Ġspine For
Ġspine Obturator
Ġspine Femoral
Ġspine Inguinal
Ġspine Round
Ġspine Sacrotuberous
Ġspine Iliac
Ġspine Incisive
Ġspine Pyramidal
Ġspine Horizontal
Ġspine Margin
Ġspine Spermatic
Ġspine Tuberculum
Ġspine SacrumSacrospinous
Ġrot ary
Ġrot ations
Ġglands Lacrimal
Ġglands Lingual
Ġglands Artery
Ġglands associated
Ġglands Sublingual
Ġglands Lactiferous
Ġglands below
Ġscapula B
Ġscapula Superior
Ġscapula Medial
Ġscapula Position
Ġscapula Nerves
Ġscapula Acromion
Ġscapula Iliac
Ġscapula InfraspinatusTeres
Ġscapula TrapeziusDeltoidDeltoid
Ġscapula Highest
Ġsign et
Ġsupr achiasmatic
Ġhor setail
Ġtubercle of
Ġtubercle Superior
Ġtubercle Medial
Ġtubercle Greater
Ġtubercle Foramen
Ġtubercle Ili
Ġtubercle Lesser
Ġtubercle Arch
Ġtubercle Pharyngeal
Ġtubercle Groove
Ġtubercle Laryngeal
Ġtubercle Jugular
Ġtubercle Thyro
Ġtubercle Hypoglossal
Ġtubercle Mental
Ġtubercle Vestibular
[...]
