{
  "\"": 3,
  "\"\"": 11976,
  "$": 4,
  "%": 5,
  "%)": 15308,
  "%).": 11978,
  "%,": 11977,
  "%.": 9188,
  "&": 6,
  "'": 7,
  "'s": 8412,
  "(": 8,
  ")": 9,
  ")(": 11979,
  "),": 502,
  ")-": 15309,
  ").": 191,
  "):": 1265,
  ");": 2992,
  ")âĢ¢": 5412,
  ")âĢĶ": 3266,
  "*": 10,
  "**": 15310,
  ",": 11,
  ",âĢĿ": 6842,
  "-": 12,
  ".": 13,
  ".)": 5413,
  ".).": 15311,
  ".,": 1566,
  ".âĢ¢": 11980,
  ".âĢĿ": 3592,
  "/": 14,
  "0": 15,
  "1": 16,
  "10": 788,
  "100": 5527,
  "101": 4470,
  "102": 4878,
  "103": 5528,
  "104": 4147,
  "1041": 19365,
  "105": 5026,
  "1058": 19364,
  "106": 5027,
  "107": 4148,
  "108": 4065,
  "109": 4612,
  "1099": 19366,
  "11": 1166,
  "110": 4954,
  "111": 5543,
  "11101": 13578,
  "112": 5414,
  "1121": 15312,
  "11211101": 14427,
  "112111011223344559": 15289,
  "1121110112233445595678412345678123": 15307,
  "113": 5198,
  "114": 5544,
  "115": 5778,
  "116": 6365,
  "117": 6062,
  "118": 5779,
  "119": 5545,
  "12": 910,
  "120": 4262,
  "121": 5186,
  "12132": 19623,
  "122": 4749,
  "1223": 13446,
  "1223344559": 15233,
  "123": 4263,
  "1234": 13447,
  "124": 5536,
  "125": 5344,
  "126": 5537,
  "127": 5345,
  "128": 4882,
  "129": 6347,
  "13": 1426,
  "130": 7541,
  "131": 6379,
  "132": 6380,
  "133": 6073,
  "134": 6709,
  "135": 7542,
  "136": 5559,
  "1369": 20531,
  "137": 6710,
  "1370": 20532,
  "138": 7094,
  "139": 8106,
  "14": 1398,
  "140": 7540,
  "141": 6070,
  "142": 6376,
  "1426": 20507,
  "142635": 26065,
  "143": 5791,
  "144": 5557,
  "145": 8104,
  "146": 8836,
  "147": 9820,
  "148": 6071,
  "149": 6072,
  "15": 1351,
  "150": 5788,
  "151": 6702,
  "152": 7533,
  "153": 7534,
  "154": 6703,
  "155": 8099,
  "156": 5789,
  "157": 7089,
  "158": 5552,
  "159": 9808,
  "16": 1663,
  "160": 8124,
  "161": 9854,
  "162": 7115,
  "163": 7559,
  "164": 5803,
  "165": 9855,
  "166": 7116,
  "167": 7117,
  "168": 6719,
  "169": 8125,
  "17": 1837,
  "170": 8137,
  "171": 8138,
  "172": 9873,
  "173": 6726,
  "174": 8139,
  "175": 6087,
  "176": 9874,
  "177": 8864,
  "178": 8140,
  "179": 7567,
  "18": 1983,
  "180": 7572,
  "181": 9886,
  "182": 9887,
  "183": 9888,
  "184": 9889,
  "185": 8872,
  "186": 7133,
  "187": 8150,
  "188": 7134,
  "189": 8873,
  "19": 1984,
  "190": 8874,
  "191": 5579,
  "192": 9890,
  "193": 8875,
  "194": 8876,
  "195": 11277,
  "196": 11278,
  "197": 7573,
  "198": 13847,
  "199": 13848,
  "2": 17,
  "20": 2103,
  "200": 13883,
  "201": 13884,
  "202": 8885,
  "203": 8155,
  "204": 11296,
  "205": 7139,
  "206": 13885,
  "207": 11297,
  "208": 9902,
  "209": 13886,
  "21": 3031,
  "210": 11981,
  "211": 11983,
  "212": 11982,
  "213": 11984,
  "214": 10303,
  "215": 9189,
  "216": 11985,
  "217": 11986,
  "218": 11987,
  "219": 11988,
  "22": 3515,
  "220": 11989,
  "221": 7755,
  "222": 14165,
  "223": 6843,
  "224": 10304,
  "225": 7280,
  "226": 11991,
  "227": 11990,
  "228": 9190,
  "229": 11992,
  "23": 1985,
  "230": 8877,
  "231": 13849,
  "232": 13850,
  "233": 8878,
  "234": 13851,
  "235": 7574,
  "236": 13852,
  "237": 13853,
  "238": 13854,
  "239": 8151,
  "24": 2061,
  "240": 11289,
  "241": 13868,
  "242": 9896,
  "243": 8153,
  "244": 13869,
  "245": 9897,
  "246": 11290,
  "247": 9898,
  "248": 6734,
  "249": 6407,
  "25": 2382,
  "250": 13943,
  "251": 13944,
  "252": 11348,
  "253": 13945,
  "254": 9918,
  "255": 11349,
  "256": 13946,
  "257": 13947,
  "258": 13948,
  "259": 13949,
  "26": 2220,
  "260": 9909,
  "261": 11315,
  "262": 11316,
  "263": 11317,
  "264": 13901,
  "265": 8161,
  "266": 9910,
  "267": 13902,
  "268": 11318,
  "269": 8891,
  "27": 2104,
  "270": 8156,
  "271": 8157,
  "272": 9903,
  "273": 13887,
  "274": 11298,
  "275": 11299,
  "276": 9904,
  "277": 8886,
  "278": 11300,
  "279": 11301,
  "28": 2530,
  "280": 13988,
  "281": 9933,
  "282": 8907,
  "283": 13989,
  "284": 13990,
  "285": 13991,
  "286": 13992,
  "287": 13993,
  "288": 13994,
  "289": 13995,
  "29": 2993,
  "290": 14077,
  "291": 14078,
  "292": 14079,
  "293": 14080,
  "294": 14081,
  "295": 14082,
  "3": 18,
  "30": 3593,
  "300": 22181,
  "31": 3730,
  "32": 3207,
  "321": 15315,
  "3212132": 21964,
  "3212132121": 26298,
  "328": 15313,
  "33": 3659,
  "337": 15316,
  "34": 4010,
  "344559": 14239,
  "35": 3390,
  "354": 15314,
  "36": 3164,
  "37": 3332,
  "38": 3333,
  "39": 3824,
  "4": 19,
  "40": 3032,
  "401": 21827,
  "41": 3918,
  "412": 15317,
  "42": 4011,
  "43": 3731,
  "44": 3440,
  "443": 22092,
  "45": 2477,
  "451": 13978,
  "4559": 13979,
  "4567": 13980,
  "45678123": 15271,
  "46": 4403,
  "466": 15318,
  "47": 3165,
  "473": 21918,
  "48": 3391,
  "486": 22062,
  "49": 3660,
  "491": 22209,
  "492": 22210,
  "5": 20,
  "50": 3267,
  "500": 21993,
  "51": 4404,
  "52": 3661,
  "520": 15320,
  "524": 15319,
  "53": 2783,
  "54": 2994,
  "55": 3392,
  "56": 4208,
  "567": 11993,
  "56784123": 15060,
  "5678412345678123": 15301,
  "57": 4209,
  "58": 3825,
  "59": 2640,
  "6": 21,
  "60": 3208,
  "61": 3594,
  "62": 3919,
  "63": 3268,
  "64": 4012,
  "65": 3393,
  "66": 3209,
  "67": 3075,
  "670": 21854,
  "68": 4405,
  "69": 3732,
  "7": 22,
  "70": 3920,
  "71": 4108,
  "710": 15321,
  "72": 4109,
  "724": 15322,
  "73": 4522,
  "74": 4955,
  "75": 4406,
  "76": 4210,
  "77": 3166,
  "78": 3921,
  "780": 15323,
  "79": 4523,
  "8": 23,
  "80": 3441,
  "81": 4956,
  "8123": 11994,
  "82": 4110,
  "821": 15324,
  "83": 3922,
  "84": 3516,
  "84123": 14166,
  "85": 3517,
  "86": 4301,
  "87": 3733,
  "88": 3394,
  "89": 3334,
  "893": 22033,
  "897": 22034,
  "899": 22035,
  "9": 24,
  "90": 3442,
  "901": 22093,
  "91": 4013,
  "910": 11995,
  "92": 4670,
  "93": 4957,
  "94": 3734,
  "95": 4407,
  "96": 4801,
  "97": 4111,
  "98": 4014,
  "981": 22364,
  "986": 22365,
  "987": 15325,
  "99": 4408,
  "991": 15326,
  ":": 25,
  ":(": 6183,
  ":âĢ¢": 5653,
  ";": 26,
  "<|bos|>": 0,
  "<|eos|>": 1,
  "<|pad|>": 2,
  "?": 27,
  "?âĢĿ": 11996,
  "A": 28,
  "AAbdominal": 15339,
  "AAbduction": 15344,
  "AAcromion": 15342,
  "AB": 1793,
  "ABAcetabular": 20958,
  "ABAergic": 20969,
  "ABAnterior": 20942,
  "ABAnteriorPosterior": 20957,
  "ABAnteriorPosteriorCrista": 26154,
  "ABApex": 20955,
  "ABApexAttachment": 26152,
  "ABArm": 20962,
  "ABBrachial": 20952,
  "ABBranches": 20944,
  "ABBulbo": 20965,
  "ABC": 4491,
  "ABCAnterior": 11520,
  "ABCD": 7662,
  "ABCDGlans": 23550,
  "ABCFold": 22590,
  "ABCInguinal": 22586,
  "ABCInterosseous": 22588,
  "ABCInterosseousligamentTibiaMedialmalleolusLateralmalleolusLateral": 26378,
  "ABCLinea": 22589,
  "ABCT": 20949,
  "ABCVastus": 22587,
  "ABCommon": 20946,
  "ABEthmoid": 20963,
  "ABEthmoidalcellsFrontal": 26155,
  "ABGemellus": 20970,
  "ABHumeral": 20960,
  "ABInguinal": 20950,
  "ABLacrimal": 20948,
  "ABLeft": 20943,
  "ABLesser": 20945,
  "ABMedialLateral": 20961,
  "ABMidline": 20968,
  "ABPalatoglossal": 20966,
  "ABPars": 20971,
  "ABPharyngeal": 20951,
  "ABPosition": 20947,
  "ABPosterior": 9869,
  "ABPulmonary": 13796,
  "ABSural": 20964,
  "ABThe": 20941,
  "ABThyroid": 20959,
  "ABTibia": 20956,
  "ABTibiaTalusCalcaneus": 26153,
  "ABTibiaTalusCalcaneusFlexor": 26612,
  "ABTrochanteric": 20967,
  "ABUpper": 20954,
  "ABicuspid": 20953,
  "AC": 15327,
  "ACA": 15343,
  "ACL": 15350,
  "AD": 8413,
  "ADC": 14745,
  "AFacet": 15340,
  "AFemur": 15364,
  "AFemurPatellaAnterior": 25059,
  "AForamen": 15334,
  "AFrontal": 15341,
  "AICA": 15348,
  "AIncisive": 12002,
  "AIncisorsCanines": 15367,
  "AIncisorsCaninesPremolarsMolarsMolars": 25060,
  "AIncisorsCaninesPremolarsMolarsMolarsPremolarsCaninesIncisorsMaxillary": 26555,
  "AIntercondylar": 15366,
  "AInternal": 15331,
  "AL": 10305,
  "ALIF": 15365,
  "ALIV": 15345,
  "ALVAL": 24151,
  "ALacrimal": 15336,
  "ALeft": 15330,
  "AMajor": 15338,
  "AMetacarpals": 15363,
  "AMetacarpalsCarpal": 25058,
  "AObturator": 15332,
  "AOral": 15347,
  "AP": 9191,
  "APatellar": 15351,
  "APerineal": 15337,
  "APetrotympanic": 15357,
  "APlantar": 15353,
  "APlantarisMedial": 25055,
  "ARib": 12001,
  "ASD": 15346,
  "AST": 15355,
  "ASTOLE": 15362,
  "ASTOLEVentricular": 25057,
  "ASTOLEVentricularpressureECGHeartsoundsAtrial": 26554,
  "ATI": 15349,
  "AUlnar": 15335,
  "AUlnarcollateralligamentAnular": 25054,
  "AUterine": 15356,
  "AVisceral": 15333,
  "Ab": 2531,
  "Abdominal": 4784,
  "Abdominopelvic": 21527,
  "Abducent": 7155,
  "Abduction": 5831,
  "AbductionAbductionMiddle": 23017,
  "AbductionAdduction": 14473,
  "AbductionAdductionElevationDepression": 24948,
  "AbductionAdductionElevationDepressionInferiorobliqueSuperiorobliqueSuperiorrectusInferiorrectus": 26547,
  "AbductionAdductionElevationDepressionInferiorobliqueSuperiorobliqueSuperiorrectusInferiorrectusLateralrectusMedialrectusMuscle": 26632,
  "AbductionAdductionGreat": 24947,
  "AbductionMiddle": 23016,
  "Abductor": 9934,
  "Abductors": 21528,
  "Abnormal": 13997,
  "Above": 8181,
  "Abs": 13996,
  "Abscesses": 24899,
  "Absence": 24898,
  "Ac": 4409,
  "Access": 7757,
  "Accessory": 10211,
  "Accompan": 12004,
  "Accompanying": 15062,
  "Acetab": 6184,
  "Acetabular": 8329,
  "Acetabulum": 10142,
  "AcetabulumIschial": 24132,
  "Ach": 11998,
  "Achilles": 15061,
  "Acrom": 4667,
  "Acromioclavicular": 14345,
  "Acromion": 4952,
  "AcromionCoracoid": 22757,
  "AcromionGlenoid": 10081,
  "AcromionHumerus": 22758,
  "AcromionPosterior": 22756,
  "AcromionSpine": 10082,
  "Acting": 15358,
  "Acute": 22550,
  "Ad": 2359,
  "Adam": 21412,
  "Additional": 11345,
  "Additionally": 7587,
  "Adduct": 11344,
  "Adducting": 24397,
  "Adduction": 6745,
  "AdductionAdduction": 14587,
  "AdductionAdductionFirst": 24967,
  "Adductor": 3385,
  "Aditus": 13934,
  "Adjacent": 21413,
  "Adult": 13933,
  "Aergic": 15361,
  "Afferent": 9195,
  "After": 3269,
  "Air": 10306,
  "Airway": 14908,
  "Al": 2557,
  "Ala": 9192,
  "Alar": 11373,
  "Alarligaments": 24400,
  "All": 2605,
  "Along": 9937,
  "Also": 5832,
  "Although": 3806,
  "Alveolar": 7602,
  "Among": 15352,
  "Amp": 9194,
  "Ampulla": 10267,
  "AmpullaAnterior": 24143,
  "AmpullaIsthmus": 24144,
  "AmpullaIsthmusOvaryAnteriorPosteriorMedialLateral": 26504,
  "AmpullaIsthmusOvaryAnteriorPosteriorMedialLateralFundus": 26630,
  "An": 697,
  "Anal": 4873,
  "Anastom": 19180,
  "Anastomotic": 25825,
  "Anatom": 11043,
  "Anatomical": 8765,
  "Anatomically": 11951,
  "Anatomy": 11044,
  "Anchors": 19185,
  "Anconeus": 13322,
  "Anesthesia": 19183,
  "Aneur": 15360,
  "Aneurysm": 25056,
  "Ang": 8038,
  "Angiography": 23667,
  "Angle": 9158,
  "Anococcygeal": 11045,
  "Another": 5176,
  "Ant": 11042,
  "AntAnt": 14993,
  "AntRt": 24353,
  "Anterior": 960,
  "AnteriorAnterior": 9743,
  "AnteriorArticular": 19694,
  "AnteriorFacet": 19695,
  "AnteriorLateral": 19693,
  "AnteriorPosterior": 7067,
  "AnteriorPosteriorFundusBodyNeck": 23401,
  "AnteriorPosteriorLateral": 23400,
  "AnteriorPosteriorMedialLateral": 14628,
  "AnteriorPosteriorMedialLateralInferiorTransverse": 24971,
  "Anteriorborder": 9744,
  "AnteriorborderGroove": 24060,
  "Anteriorfornix": 19700,
  "AnteriorfornixGlans": 25931,
  "Anteriorinterosseous": 19697,
  "Anteriorly": 3777,
  "Anteriormalleolar": 19699,
  "Anteriorramus": 19698,
  "AnteriorramusPeripheral": 25930,
  "Anteriorsternoc": 19701,
  "Anteriorsurface": 19696,
  "AnteriorsurfaceAnterior": 25929,
  "Anteroinferior": 19184,
  "Anterolateral": 9697,
  "Anteromedial": 19182,
  "Anticoagulation": 19186,
  "Anular": 19179,
  "Anulus": 19181,
  "Any": 7051,
  "Aort": 15329,
  "Aorta": 4671,
  "AortaInferior": 11539,
  "AortaLeft": 14348,
  "AortaPeritoneumPelvic": 22660,
  "AortaRight": 14349,
  "AortaThoracic": 14350,
  "Aortic": 8414,
  "Ap": 3033,
  "Apart": 21828,
  "Aper": 9193,
  "Aperture": 10266,
  "Apertures": 15359,
  "Apex": 6118,
  "ApexLeft": 14515,
  "ApexPosterior": 23118,
  "Apical": 8943,
  "Aponeurosis": 6119,
  "AponeurosisPeriosteum": 23119,
  "Append": 21829,
  "Approaching": 14086,
  "Appropriate": 21830,
  "Approximately": 8944,
  "Approximating": 14087,
  "Ar": 1588,
  "Arachnoid": 9843,
  "Arch": 3498,
  "ArchAirway": 22131,
  "ArchAirwayAFacet": 26316,
  "Arches": 13747,
  "Arcuate": 13748,
  "Are": 6497,
  "Area": 7716,
  "Arising": 20757,
  "Arm": 9842,
  "ArmElbow": 14887,
  "Around": 10307,
  "Arrangement": 9844,
  "Arter": 3713,
  "Arterial": 14195,
  "Arteries": 6450,
  "ArteriesEsophagus": 23222,
  "Arteriosclerosis": 22229,
  "Artery": 5243,
  "ArteryMedial": 22853,
  "Arthroscopy": 9845,
  "Articular": 4081,
  "Articulation": 20758,
  "Ary": 8122,
  "As": 1742,
  "Ascending": 4907,
  "Asking": 20908,
  "Assess": 20909,
  "Assessment": 9865,
  "Associated": 7121,
  "Assum": 13789,
  "Assuming": 15264,
  "At": 1966,
  "Athe": 11999,
  "Atheromatous": 24496,
  "Atherosclerosis": 24497,
  "Atlas": 9885,
  "Atr": 11997,
  "Atrial": 24495,
  "Attach": 3503,
  "Attached": 13844,
  "Attaching": 22135,
  "Attachment": 3591,
  "Aur": 6844,
  "Auriculotemporal": 7270,
  "Auriculotemporalbranch": 23434,
  "Auscultation": 15354,
  "Aut": 15328,
  "Autonomous": 25053,
  "Avascular": 12000,
  "Avoiding": 12003,
  "Ax": 4958,
  "Axilla": 7756,
  "AxillaCubital": 23573,
  "AxillaCubitalfossaLateral": 26464,
  "AxillaSkin": 23572,
  "Axillary": 3518,
  "AxillaryLong": 22150,
  "Axis": 6164,
  "Axons": 10083,
  "Azygos": 10308,
  "B": 29,
  "BA": 7281,
  "BAEsophagusTrachea": 23441,
  "BAThoracic": 23439,
  "BAVomer": 23440,
  "BAditus": 15403,
  "BAnterior": 15374,
  "BC": 5904,
  "BCD": 23040,
  "BCFacial": 23043,
  "BCLateral": 23041,
  "BCOpening": 23042,
  "BConjoint": 15397,
  "BE": 12005,
  "BExternal": 15378,
  "BFemur": 15401,
  "BIIIIIIVVVIVIIVIIIIX": 15405,
  "BInferior": 15375,
  "BIntervertebral": 15393,
  "BIschial": 15386,
  "BLateralMedial": 15392,
  "BLeft": 15377,
  "BLesser": 15384,
  "BObturator": 15381,
  "BOrbit": 15398,
  "BOropharynx": 15395,
  "BParietal": 15390,
  "BSoleus": 15404,
  "BSoleusCalcaneal": 25066,
  "BSplenic": 15396,
  "BSuperior": 15376,
  "BTrochlea": 15400,
  "BTrochleaCapitulumLateral": 25065,
  "BUS": 12008,
  "BUlnar": 15383,
  "BUpperLower": 15399,
  "BV": 15368,
  "Back": 8415,
  "Baker": 12007,
  "Ball": 15372,
  "Bare": 15380,
  "Barium": 15382,
  "Barr": 15387,
  "Barth": 10312,
  "Bartholin": 11905,
  "Bas": 5905,
  "Base": 10311,
  "Based": 15385,
  "Basilar": 10127,
  "Basilic": 7699,
  "Be": 15369,
  "Because": 2958,
  "Before": 7283,
  "Beginning": 7759,
  "Behind": 25061,
  "Bel": 12006,
  "Below": 15063,
  "Benign": 15389,
  "Between": 5416,
  "Biceps": 6186,
  "Bicipital": 10314,
  "BicipitalaponeurosisMedial": 24153,
  "Bicondylar": 15402,
  "Bile": 9196,
  "Bl": 15370,
  "Bladder": 5906,
  "BladderProstate": 23044,
  "BladderUterus": 14480,
  "BladderUterusB": 24949,
  "Blade": 12011,
  "Bleeding": 15391,
  "Blind": 25062,
  "Blockage": 12009,
  "Blood": 5415,
  "Bochdalek": 15406,
  "Body": 3519,
  "BodyAnteriorPosterior": 22151,
  "BodyFundus": 22152,
  "BodyFundusVaginaOpening": 26322,
  "BodyNeck": 14167,
  "Bone": 7282,
  "BoneOuter": 23442,
  "BoneOutertableInnertableDiploÃ«": 26452,
  "BoneOutertableInnertableDiploÃ«Anterior": 26626,
  "Bones": 7758,
  "Bony": 10313,
  "Bot": 15371,
  "Both": 6185,
  "Botox": 25063,
  "Br": 3826,
  "Brach": 8242,
  "Brachial": 4942,
  "Brachialis": 11560,
  "BrachialisRadial": 24430,
  "Brachiocephalic": 10230,
  "Brachiocephalictrunk": 24142,
  "Brachioradialis": 14731,
  "Brainstem": 15379,
  "Branch": 4302,
  "Branches": 2641,
  "Branchial": 10049,
  "Branching": 14292,
  "Breast": 15394,
  "Breg": 15388,
  "Broad": 12010,
  "Bronch": 11483,
  "Bronchopulmonary": 24417,
  "Bronchus": 15030,
  "Buc": 15373,
  "Bucc": 5264,
  "Buccal": 7231,
  "Buccinator": 9049,
  "BuccinatorParotid": 23895,
  "Buckethand": 25064,
  "BuckethandlemovementElevation": 26556,
  "Bulb": 6187,
  "Bulbo": 11648,
  "Bur": 10310,
  "Burney": 14909,
  "Burr": 24152,
  "By": 10309,
  "C": 30,
  "CA": 4959,
  "CAs": 15416,
  "CD": 9197,
  "CDeep": 12017,
  "CDorsal": 15420,
  "CE": 15407,
  "CG": 5654,
  "CI": 7284,
  "CICVII": 23444,
  "CICVIITIPedicle": 26453,
  "CICVIITIPedicleTransition": 26627,
  "CII": 7761,
  "CIII": 15415,
  "CIV": 9202,
  "CIvertebra": 23443,
  "CK": 12012,
  "CKMB": 24498,
  "CL": 7760,
  "CMedial": 12015,
  "CN": 6845,
  "CNS": 12019,
  "COpenings": 15431,
  "CP": 8416,
  "CSF": 8418,
  "CT": 3827,
  "CVA": 15424,
  "CVI": 12021,
  "CVII": 12014,
  "Calcane": 15414,
  "Calcaneal": 7286,
  "Calcanealsulcus": 23446,
  "Calcaneus": 9207,
  "CalcaneusTalusLateral": 23924,
  "Cam": 12013,
  "Camper": 15064,
  "Can": 9198,
  "Cancer": 15429,
  "CanineIncisors": 23923,
  "Canines": 11845,
  "Cap": 10316,
  "Capit": 11907,
  "Capitate": 15057,
  "CapitateTrapeziumTrapezium": 25015,
  "CapitulumLateral": 24485,
  "Capsule": 10321,
  "Car": 3736,
  "Carcinoma": 7191,
  "Card": 15410,
  "Cardiac": 8419,
  "Cardiologists": 25067,
  "Carotid": 7190,
  "Carpal": 6451,
  "Cartil": 6189,
  "Cartilage": 9085,
  "Cartilaginous": 9086,
  "Case": 15412,
  "Caud": 7287,
  "Cauda": 11731,
  "Caudal": 14639,
  "Caudate": 14640,
  "Cavernous": 9205,
  "Cavity": 9204,
  "Cecum": 15432,
  "Celiac": 12020,
  "Cells": 12026,
  "Center": 9201,
  "Central": 6847,
  "Centrally": 11694,
  "Cephalic": 8421,
  "Cer": 6846,
  "Cerebral": 11693,
  "Cerebrospinal": 14590,
  "Certain": 11692,
  "Cerv": 10315,
  "Cervical": 4410,
  "CervicalWhite": 22551,
  "Cervicalenlargement": 14309,
  "Cervix": 11906,
  "Ch": 3735,
  "Changes": 14197,
  "Chapter": 14198,
  "Characteristically": 22240,
  "Check": 10322,
  "Chest": 10318,
  "Child": 22237,
  "Choanae": 8973,
  "ChoanaeVaginal": 23875,
  "Chorda": 6139,
  "Chordae": 14199,
  "Chronic": 22238,
  "Chvoste": 22239,
  "Chvostek": 26333,
  "Ciliary": 12018,
  "Circumflex": 15423,
  "Cirrhosis": 12024,
  "Cis": 15408,
  "Cl": 4802,
  "Classic": 22700,
  "Clavicle": 4303,
  "ClavicleAcromion": 22500,
  "ClavicleAcromionTeres": 26370,
  "ClavicleCoracoid": 22501,
  "ClavicleCostal": 14294,
  "ClaviclePosterior": 14293,
  "ClavicleSuperior": 11503,
  "Clavicular": 15418,
  "Clavipectoral": 10320,
  "Clawing": 15428,
  "Clearly": 15427,
  "Clin": 6161,
  "Clinical": 9083,
  "Clinically": 9084,
  "Clinicians": 23126,
  "Closure": 11549,
  "Clubfoot": 22699,
  "Co": 5417,
  "CoC": 14428,
  "CoTo": 22897,
  "Coarctation": 11596,
  "Coccy": 5418,
  "Coccygeal": 11597,
  "Coccygeus": 11598,
  "Coccyx": 7686,
  "CoccyxSacrotuberous": 14678,
  "Cochlea": 14429,
  "Cochlear": 10319,
  "Col": 5908,
  "Colic": 15421,
  "Collateral": 14482,
  "Collecting": 23046,
  "Collection": 14483,
  "Collections": 24950,
  "Collectively": 23045,
  "Colles": 10128,
  "Common": 3395,
  "Commonfibular": 14146,
  "Commonhepatic": 22063,
  "Commoninterosseous": 22064,
  "Comp": 5655,
  "Compartment": 22973,
  "Completely": 22975,
  "Completing": 10116,
  "Complex": 22971,
  "Components": 22974,
  "Compression": 22972,
  "Computed": 11611,
  "Con": 2458,
  "Conceptual": 8177,
  "Concurrently": 21472,
  "Concussion": 21471,
  "Condylar": 12022,
  "Cone": 15409,
  "Confluence": 13968,
  "Congenital": 12027,
  "Conjoint": 11357,
  "Conjunctiv": 21469,
  "Connect": 8417,
  "Connected": 23725,
  "Connecting": 23726,
  "Connective": 14746,
  "Connects": 23724,
  "Conoid": 13964,
  "Cons": 10317,
  "Consequently": 13966,
  "Conservative": 24156,
  "Consisting": 24155,
  "Construction": 24154,
  "Cont": 12016,
  "Contains": 13965,
  "Contents": 15065,
  "Continuing": 8176,
  "Continuity": 13967,
  "Continuous": 9924,
  "Contract": 21468,
  "Contractile": 26237,
  "Contraction": 4782,
  "Contrary": 21470,
  "Conus": 11356,
  "Cooper": 22898,
  "Cor": 5907,
  "Corac": 4960,
  "Coracobrachialis": 11561,
  "Coracohumeral": 14384,
  "Coracoid": 6473,
  "Cords": 10323,
  "CordsDivisions": 14910,
  "CordsDivisionsTrunksRoots": 15299,
  "Corniculate": 9208,
  "Coron": 7251,
  "Corona": 14636,
  "Coronal": 9203,
  "Coronary": 10187,
  "Coronoid": 14637,
  "Corpora": 14481,
  "Cost": 7762,
  "Costal": 7763,
  "Costo": 15422,
  "CostoclavicularligamentInterclavicularligament": 25069,
  "CostoclavicularligamentInterclavicularligamentClavicular": 26557,
  "Costodiaphragmatic": 14685,
  "Costomediastinal": 23574,
  "Costotransverse": 11756,
  "Couina": 22899,
  "Couinaud": 26408,
  "Could": 15419,
  "Covered": 15425,
  "Covering": 15430,
  "Cr": 6188,
  "Cranial": 7285,
  "CranialSomite": 23445,
  "Creat": 15411,
  "Creating": 25068,
  "Crem": 12023,
  "Cremasteric": 15066,
  "Cribriform": 9209,
  "Cric": 9200,
  "Cricoid": 11846,
  "CricoidTracheaEp": 24474,
  "CricoidTracheaEpiglottic": 26518,
  "Crista": 10144,
  "Critical": 23133,
  "Cross": 15413,
  "Crura": 23132,
  "Crus": 10143,
  "Cubital": 9206,
  "Cuboid": 12025,
  "CuboidMedial": 24499,
  "Cuneiform": 8420,
  "Current": 15417,
  "Currently": 15426,
  "Cut": 5909,
  "Cutaneous": 7764,
  "Cys": 9199,
  "Cystic": 10268,
  "Cystoscopy": 15433,
  "D": 31,
  "DC": 15434,
  "DG": 9210,
  "DH": 15435,
  "DI": 15436,
  "DLaryngopharynx": 15451,
  "DP": 15437,
  "DRE": 12038,
  "DVT": 12036,
  "DWI": 12039,
  "DX": 15438,
  "DXA": 25070,
  "Damage": 12037,
  "Dartos": 15450,
  "De": 4304,
  "Deceased": 22502,
  "Deep": 1743,
  "DeepSubmandibular": 20911,
  "DeepSubmandibularglandLingual": 26143,
  "DeepSuperficial": 20910,
  "Deepplantar": 20912,
  "Def": 11504,
  "Defining": 15032,
  "Degenerative": 10052,
  "Del": 12029,
  "Delayed": 24503,
  "Delicate": 24502,
  "Deltoid": 5419,
  "DeltoidAcromionCoracoid": 22901,
  "DeltoidHead": 22900,
  "Dem": 10325,
  "Dens": 9212,
  "DensForamen": 23927,
  "Dep": 6848,
  "Depending": 12035,
  "Depression": 8348,
  "DepressionHinge": 23714,
  "Der": 15439,
  "Derived": 25071,
  "Derm": 12030,
  "Dermatomes": 7765,
  "Dermatomyotome": 15067,
  "Des": 12028,
  "Descending": 5910,
  "Descendinggenicular": 23047,
  "Descrip": 24501,
  "Descriptions": 26519,
  "Destruction": 24500,
  "Determination": 11505,
  "Determining": 22503,
  "Develop": 10050,
  "Developing": 14897,
  "Development": 10051,
  "Developmental": 24117,
  "Developmentally": 24118,
  "Developments": 24116,
  "Dia": 9211,
  "Diabetes": 23925,
  "Diagnosing": 23926,
  "Diaphragm": 6498,
  "DiaphragmBronchus": 23236,
  "DiaphragmBronchusBronchus": 26439,
  "DiaphragmJunction": 23235,
  "DiaphragmRelaxation": 23237,
  "Diaphragma": 23234,
  "Diaphragmatic": 15445,
  "Dif": 10326,
  "Different": 24160,
  "Diffuse": 24162,
  "Diffusion": 24161,
  "Dig": 15440,
  "Digit": 8422,
  "Digital": 12034,
  "Digits": 25072,
  "Dilated": 15452,
  "Dilation": 15448,
  "Diploic": 15447,
  "DiploÃ«": 15454,
  "Direct": 12033,
  "Direction": 15449,
  "Dis": 10324,
  "Disc": 15442,
  "Dislocations": 24159,
  "Displ": 15453,
  "Disruption": 24157,
  "Distal": 4803,
  "DistalMiddleProximal": 22701,
  "Distally": 8281,
  "Distinct": 24158,
  "Diver": 15443,
  "Diverticular": 25073,
  "Divisions": 10327,
  "Dome": 15441,
  "Doppler": 15446,
  "Dors": 9213,
  "Dorsal": 3270,
  "Dorsalcarpal": 14824,
  "Dorsaldigital": 14127,
  "Dorsaldigitalarteries": 15274,
  "DorsaldigitalarteriesAnterior": 25050,
  "Dorsalis": 14126,
  "Dorsalmetacarpalarteries": 21994,
  "DorsalmetacarpalarteriesFirst": 26304,
  "Drainage": 7290,
  "Drug": 15444,
  "Duct": 7288,
  "Ductus": 8367,
  "Duodenal": 12032,
  "Duodenum": 7766,
  "Dura": 7289,
  "DuraQuadratus": 23447,
  "Dural": 12031,
  "During": 3335,
  "E": 32,
  "EBV": 15464,
  "EBody": 15459,
  "ECG": 8424,
  "ECGHeart": 23727,
  "ECT": 10329,
  "ED": 15455,
  "EF": 12040,
  "EFSkin": 24504,
  "EK": 15456,
  "EKG": 25074,
  "ERCP": 12041,
  "ET": 6499,
  "EUS": 12042,
  "Each": 2221,
  "Early": 10331,
  "Ectopic": 15460,
  "Efferent": 6849,
  "Effort": 12044,
  "Eight": 15457,
  "Eighty": 25075,
  "Ejaculatory": 12043,
  "Elbow": 10333,
  "Elements": 15463,
  "Elevation": 7291,
  "ElevationDepression": 23448,
  "Em": 7767,
  "Emb": 10330,
  "Embedded": 24164,
  "Emboli": 24163,
  "Emissary": 10212,
  "Emission": 23575,
  "En": 7768,
  "End": 5420,
  "Endarterectomy": 22904,
  "Endoscope": 22903,
  "Endoscopic": 14430,
  "Endoscopy": 22902,
  "Enlargement": 14686,
  "Entering": 11757,
  "Ep": 4804,
  "Epicondyles": 22702,
  "Epididymis": 14372,
  "Epiglottis": 6472,
  "EpiglottisAry": 23228,
  "EpiglottisEpiglottis": 14549,
  "EpiglottisEpiglottisEpiglottisAry": 24963,
  "EpiglottisVestibular": 23227,
  "Epithelial": 22703,
  "Erectile": 12045,
  "Erection": 15462,
  "Erector": 10332,
  "Esoph": 2959,
  "Esophageal": 7616,
  "Esophagealhiatus": 23539,
  "Esophagus": 3328,
  "EsophagusArch": 11445,
  "EsophagusEsophagusArch": 14138,
  "EsophagusEsophagusTrachea": 11446,
  "EsophagusEsophagusTracheaArch": 24410,
  "EsophagusEsophagusTracheaThoracic": 15028,
  "EsophagusLeft": 14137,
  "EsophagusNormal": 22025,
  "EsophagusSoft": 22024,
  "EsophagusTrachea": 8217,
  "EsophagusTracheaPharynx": 23690,
  "EsophagusTracheaPharynxDiaphragmJunction": 26471,
  "Espin": 15461,
  "Espinosa": 25076,
  "Estimating": 12047,
  "Ethmoid": 10328,
  "Ethmoidal": 8423,
  "Evaluation": 12046,
  "Even": 15458,
  "Ex": 1086,
  "Examination": 6059,
  "Examine": 19932,
  "Examining": 19934,
  "Except": 9764,
  "Exerc": 19928,
  "Exercise": 25956,
  "Expiration": 19929,
  "Extending": 6687,
  "Extens": 8072,
  "Extension": 8804,
  "Extensive": 23674,
  "Extensor": 5192,
  "Extensordigitorum": 10226,
  "Extensorhood": 22843,
  "ExtensorhoodDorsaldigitalarteriesAnterior": 26404,
  "External": 1920,
  "Externalcervical": 21123,
  "Externally": 21122,
  "Extracerebral": 19931,
  "Extracranial": 19930,
  "Extradural": 11134,
  "Extreme": 19933,
  "Extrinsic": 11133,
  "F": 33,
  "FB": 12048,
  "FDG": 12059,
  "Fac": 15466,
  "Face": 15468,
  "Facelift": 25077,
  "Facet": 4805,
  "Facets": 15479,
  "Facial": 5265,
  "Falciform": 15480,
  "Fascia": 7292,
  "Fascial": 9214,
  "Fat": 15465,
  "Fe": 7769,
  "Feet": 23577,
  "Feil": 23576,
  "Femoral": 3520,
  "Femur": 12061,
  "Fetal": 10213,
  "Fib": 4524,
  "Fibers": 11521,
  "Fibro": 14324,
  "Fibrous": 6794,
  "Fibrouspericardium": 23313,
  "FibrouspericardiumParietal": 26443,
  "Fibula": 10060,
  "FibulaFibulaTibia": 24119,
  "FibulaTibia": 11901,
  "FibulaTibiaFibular": 24483,
  "Fibular": 5656,
  "Fibularis": 8311,
  "Fibularisbrevis": 14736,
  "FibularisbrevisFibular": 24982,
  "Fibularislongus": 14735,
  "Fig": 165,
  "Figs": 1946,
  "Fil": 12051,
  "Filiform": 15070,
  "Filum": 15475,
  "FilumterminalePial": 25078,
  "Fimbr": 12058,
  "FimbriaeOpening": 24507,
  "Finally": 7773,
  "Finding": 7774,
  "Fing": 15467,
  "Firm": 15474,
  "First": 4525,
  "Fissure": 12056,
  "Five": 8425,
  "Fix": 10335,
  "Fixation": 14911,
  "Flat": 12060,
  "Flex": 3210,
  "FlexedUp": 21966,
  "Flexion": 7174,
  "Flexor": 3999,
  "Flexordigitorum": 21965,
  "Flexorhallucis": 22363,
  "FlexorhallucisbrevisTransverse": 26347,
  "Floor": 10334,
  "Flow": 15470,
  "Fluid": 15478,
  "Fo": 12049,
  "Fol": 12052,
  "Fold": 15472,
  "Foliate": 15071,
  "Follow": 15477,
  "Following": 15481,
  "Foot": 12055,
  "Footdrop": 24505,
  "For": 2337,
  "Foramen": 3157,
  "Foramenmagn": 21911,
  "ForamenmagnumOccipital": 26288,
  "Foramina": 11339,
  "Forced": 21396,
  "Forearm": 8897,
  "Forming": 12062,
  "Fortunately": 10337,
  "Fossa": 15469,
  "Four": 10336,
  "Fourchette": 15068,
  "FourchetteOpening": 25016,
  "Fourth": 24165,
  "Fovea": 12057,
  "FoveaObturator": 24506,
  "Fr": 3034,
  "Fract": 4288,
  "Fracture": 7210,
  "Fractured": 22498,
  "Fractures": 5635,
  "Frank": 9215,
  "Frankfort": 10269,
  "Free": 12053,
  "Fren": 7771,
  "Frenulum": 8386,
  "From": 3737,
  "Frontal": 4928,
  "Ful": 12050,
  "Fulcrum": 15069,
  "Full": 15471,
  "Function": 6500,
  "Functional": 14551,
  "Functionally": 9095,
  "Fund": 7770,
  "Fundus": 9141,
  "FundusBodyNeck": 14819,
  "Fung": 12054,
  "Fungiform": 15072,
  "Further": 7772,
  "Fused": 15476,
  "Fusion": 15473,
  "G": 34,
  "GS": 15482,
  "GSA": 15490,
  "GSAs": 25079,
  "GSE": 12063,
  "GSEs": 24508,
  "GV": 15483,
  "GVAs": 25080,
  "GVE": 9220,
  "GVEs": 23929,
  "Galea": 15496,
  "Galeazzi": 25085,
  "Gall": 6850,
  "Gallbladder": 7729,
  "GallbladderCystic": 23563,
  "GallbladderPancreas": 23562,
  "GallbladderPancreasPortal": 26462,
  "GallbladderPortal": 23560,
  "GallbladderStomach": 23561,
  "GallbladderStomachLesser": 26461,
  "Gallstones": 23318,
  "Ganglion": 9217,
  "Gap": 9216,
  "Gaps": 9219,
  "Gast": 15486,
  "Gastric": 15488,
  "Gastrocnemius": 12066,
  "GastrocnemiusSoleus": 24509,
  "Gastrointestinal": 9222,
  "Gastrostomy": 25082,
  "Gateway": 15492,
  "Gateways": 9221,
  "Gemellus": 15495,
  "Gen": 3738,
  "General": 8974,
  "Generally": 8236,
  "Genioglossus": 14200,
  "Geniohyoid": 8976,
  "GeniohyoidMylohyoidMylohyoidSuperior": 23877,
  "GeniohyoidNerve": 23876,
  "Genital": 11476,
  "Genitofemoral": 8975,
  "Gingiv": 15489,
  "Gingiva": 12067,
  "GingivaeAnterior": 25084,
  "Given": 7294,
  "Gla": 10338,
  "Glabella": 24166,
  "GlabellaNasal": 26505,
  "Glans": 4961,
  "Glenohumeral": 15493,
  "Glenoid": 5911,
  "Glossopharyngeal": 9218,
  "Glossopharyngealnerve": 23928,
  "Gluteal": 12065,
  "Gluteus": 5657,
  "Gomphoses": 15497,
  "Gonad": 15491,
  "Gr": 7293,
  "Gracilis": 7743,
  "GracilisSemitendinosus": 14683,
  "Gran": 15485,
  "Gravity": 15494,
  "Gray": 6190,
  "Great": 6501,
  "Greater": 2606,
  "GreaterLeast": 21574,
  "GreaterLeastLesserSO": 26247,
  "GreaterLeastLesserSOMATIC": 26617,
  "Greatertubercle": 14552,
  "GreatertubercleIntertubercularsulcus": 24965,
  "GreatertubercleIntertubercularsulcusIntertubercularsulcusLesser": 26548,
  "GreatertubercleSuperior": 24964,
  "Greek": 12064,
  "Gro": 4015,
  "Groove": 4204,
  "Gross": 15487,
  "Grossly": 25083,
  "Gu": 15484,
  "Guyon": 25081,
  "H": 35,
  "HD": 12068,
  "HIV": 15501,
  "HP": 15498,
  "HPV": 25086,
  "HRCT": 15509,
  "Ham": 8427,
  "Hamstring": 14748,
  "Hand": 9225,
  "Handle": 14826,
  "Hands": 15502,
  "Hard": 10339,
  "Haustra": 15510,
  "He": 3396,
  "Head": 4101,
  "HeadBodyAnteriorPosterior": 22410,
  "HeadBodyAnteriorPosteriorArticular": 26354,
  "HeadSuperior": 22409,
  "Heart": 9988,
  "Helic": 12071,
  "Helicotrema": 15074,
  "Hem": 9223,
  "Hemi": 14825,
  "Hemiarthroplasty": 24997,
  "Hemivertebra": 23930,
  "HemivertebraPartial": 26489,
  "Hep": 8426,
  "Hepat": 14747,
  "Hepatic": 11790,
  "Her": 15499,
  "Hern": 10343,
  "Hernias": 14912,
  "Herniation": 24167,
  "Herpes": 25087,
  "Hesselbach": 15507,
  "Hig": 12069,
  "High": 9224,
  "Highest": 15073,
  "Hilum": 15503,
  "Hinge": 10341,
  "Hist": 15500,
  "History": 25088,
  "Hodgkin": 15506,
  "Hook": 10342,
  "Hor": 7775,
  "Horizontal": 9142,
  "Horner": 23578,
  "How": 5088,
  "However": 10340,
  "Humeral": 9227,
  "Humero": 15508,
  "Humerus": 7295,
  "HumerusAcromionSpine": 23449,
  "Hy": 6502,
  "Hydrocephalus": 23240,
  "Hymen": 15505,
  "Hyoglossus": 9096,
  "Hyoid": 7776,
  "Hyp": 9226,
  "Hyperextension": 23239,
  "Hypertrophy": 23238,
  "Hypogastric": 12070,
  "Hypoglossal": 6191,
  "Hypoglossalnerve": 23134,
  "Hypothyroidism": 23931,
  "Hysterectomy": 15504,
  "I": 36,
  "ICA": 7296,
  "II": 417,
  "III": 1375,
  "IIII": 6619,
  "IIIIII": 11673,
  "IIIIIII": 11674,
  "IIIIIIIIIVVVIVIIVIIIIXX": 24446,
  "IIIIIIIVVVIVIILong": 24448,
  "IIIIIIIVVVIVIIVIIIIXX": 24447,
  "IIIIIIVVVIVIIVIIIIX": 15044,
  "IIIVVVIVIIVIIIIXX": 20454,
  "IIX": 9600,
  "IP": 9228,
  "IV": 1760,
  "IX": 2087,
  "IXMotor": 21221,
  "Iat": 15511,
  "Iatrogenic": 25089,
  "Identification": 9229,
  "Identifying": 7777,
  "If": 4806,
  "Ileum": 15513,
  "IleumTa": 25091,
  "Ili": 3167,
  "Iliac": 7623,
  "Iliacus": 23540,
  "Ilio": 5612,
  "Iliocostalis": 9977,
  "Iliohypogastric": 8948,
  "Ilioinguinal": 10114,
  "IlioinguinalnerveIlioinguinal": 14900,
  "Iliotibial": 8947,
  "Im": 4411,
  "Imaginary": 22554,
  "Imaging": 8266,
  "Imm": 15512,
  "Immediate": 22552,
  "Immediately": 6153,
  "Immunological": 25090,
  "Imp": 12073,
  "Implant": 22553,
  "Implantation": 26377,
  "Important": 8428,
  "Importantly": 23728,
  "Impulses": 24511,
  "In": 335,
  "Inability": 12932,
  "Inc": 5154,
  "Incis": 5892,
  "Incisional": 22830,
  "Incisive": 7697,
  "Incisors": 10125,
  "IncisorsCanines": 14901,
  "IncisorsMaxillary": 24129,
  "Incomplete": 22829,
  "Incus": 12927,
  "IncusPyramidal": 24685,
  "Ind": 10344,
  "Indeed": 24169,
  "Independent": 24168,
  "IndexFing": 24170,
  "Inf": 3295,
  "Infection": 14134,
  "Infer": 17890,
  "Inferior": 1117,
  "InferiorLateral": 13556,
  "InferiorLateralPosteriorPosteriorPosteriorPosterior": 15245,
  "InferiorTransverse": 19980,
  "Inferiorepigastric": 19982,
  "Inferiorly": 4889,
  "InferiorobliqueSuperior": 19983,
  "InferiorobliqueSuperiorobliqueSuperiorrectusInferiorrectus": 25966,
  "Inferiorrectus": 19981,
  "Inferolateralsurfaces": 25591,
  "InferolateralsurfacesSuperior": 26570,
  "Inflammation": 22008,
  "Infr": 4933,
  "Infra": 6766,
  "Infraglenoid": 11442,
  "Infraspinatus": 9037,
  "InfraspinatusPosteriorAnterior": 23891,
  "InfraspinatusTeres": 14813,
  "Infraspinousfossa": 22751,
  "InfraspinousfossaSpine": 26395,
  "Infratemporal": 7227,
  "Infratrochlear": 14382,
  "Infundibulum": 9565,
  "Inguinal": 4136,
  "Initial": 12933,
  "Injur": 10853,
  "Injuries": 24309,
  "Injury": 14972,
  "Inlet": 12926,
  "Inner": 10852,
  "Innervation": 3763,
  "Input": 12930,
  "Ins": 9563,
  "Insertion": 14868,
  "Inside": 12931,
  "Inspection": 24019,
  "InspirationExpiration": 24020,
  "InspirationExpirationDiaphragmRelaxation": 26496,
  "Inter": 2489,
  "Interarytenoid": 13982,
  "Interatrial": 21497,
  "Interc": 8904,
  "Interchondral": 13984,
  "Interclavicularligament": 21502,
  "Intercondylar": 14803,
  "Intercostal": 7596,
  "Intercostobrachial": 14804,
  "Interm": 12929,
  "Intermediate": 8905,
  "IntermediateLateralCuneiform": 23866,
  "Intermediatetarsal": 23865,
  "Intermuscular": 24686,
  "Internal": 2195,
  "Internally": 11313,
  "Internaloblique": 13898,
  "Interosseous": 5055,
  "Interosseousborder": 9040,
  "InterosseousborderMedialsurface": 11834,
  "InterosseousborderMedialsurfaceAnteriorborder": 15052,
  "InterosseousborderMedialsurfaceAnteriorborderMedialborderPosteriorborder": 25014,
  "InterosseousborderPosterior": 23892,
  "Interosseousmembrane": 11571,
  "Interphalangeal": 21496,
  "Interrupted": 21501,
  "Interruption": 21500,
  "Inters": 12928,
  "Interspinous": 15196,
  "Intertarsal": 21498,
  "Intertransvers": 21499,
  "Intertrochanteric": 13983,
  "Intertubercular": 9926,
  "Intertubercularsulcus": 14890,
  "IntertubercularsulcusLesser": 25001,
  "Intervertebral": 8179,
  "Intestinal": 17895,
  "Intra": 7973,
  "Intracranial": 17893,
  "Intralaminar": 17896,
  "Intraocular": 23640,
  "Intraperitoneal": 14707,
  "Intravenous": 23639,
  "Intrinsic": 9564,
  "Inversion": 17891,
  "Investig": 17894,
  "Investigation": 25593,
  "Investing": 17897,
  "Invol": 17892,
  "Involved": 25592,
  "Ir": 12072,
  "Irregular": 24510,
  "Is": 3271,
  "Isch": 3587,
  "Ischial": 4513,
  "Ischiocavernosus": 14181,
  "Ischiopubic": 8969,
  "Isolated": 21995,
  "Isthmus": 11437,
  "It": 2184,
  "Its": 5378,
  "J": 37,
  "Ja": 15514,
  "Jaundice": 25092,
  "Jejunum": 15515,
  "JejunumRight": 25093,
  "Joint": 6192,
  "Joints": 11649,
  "Jugular": 5421,
  "Junction": 12074,
  "Just": 5266,
  "K": 38,
  "Kern": 15516,
  "Kernig": 25094,
  "Kidney": 10346,
  "KidneyEnd": 24171,
  "Kienbock": 15519,
  "Kiesselbach": 15517,
  "Knee": 12075,
  "Knowing": 10345,
  "Kyphosis": 15518,
  "L": 39,
  "LA": 15520,
  "LAD": 10349,
  "LDH": 15531,
  "LE": 8429,
  "LI": 6193,
  "LIF": 14519,
  "LII": 6853,
  "LIIConus": 23321,
  "LIII": 8430,
  "LIILI": 14592,
  "LIILIII": 14593,
  "LIILIIILIVLVPubic": 15292,
  "LIIvertebrae": 23320,
  "LIIvertebraeEnd": 26444,
  "LIV": 6504,
  "LIVLIII": 14554,
  "LIVLIIILIILI": 15291,
  "LIVLV": 14553,
  "LIVLVPubic": 15290,
  "LP": 15521,
  "LR": 15522,
  "LV": 7778,
  "LVArch": 23579,
  "LVLIVLIIILIILI": 23580,
  "Lab": 6854,
  "Labial": 14594,
  "Labium": 8349,
  "Lach": 15523,
  "Lachman": 25095,
  "Lacrim": 15529,
  "Lacrimal": 3521,
  "Lactiferous": 9231,
  "Ladd": 15530,
  "Lam": 6851,
  "Lambd": 11695,
  "Lamina": 9110,
  "LaminaSpinous": 23903,
  "Lapar": 15526,
  "Laparoendoscopic": 25097,
  "Laparoscopic": 12084,
  "Large": 5912,
  "Laryng": 8431,
  "Laryngeal": 4962,
  "Laryngopharynx": 10236,
  "Laryngoscopy": 23729,
  "Larynx": 10348,
  "LarynxPharynxEsophagus": 24172,
  "Lat": 3443,
  "Lateral": 1167,
  "LateralCuneiform": 20034,
  "LateralMedial": 8081,
  "LateralMedialA": 23677,
  "LateralMedialSuperior": 23678,
  "Lateralepicondyle": 20035,
  "Laterally": 5034,
  "Lateralprocess": 13579,
  "Lateralrectus": 20033,
  "LateralrectusMedialrectus": 25977,
  "LateralrectusMedialrectusMuscle": 26605,
  "LateraltubercleGroove": 20036,
  "Latin": 4653,
  "Latissimus": 5859,
  "Latissimusdorsi": 23028,
  "Lay": 15525,
  "Le": 1196,
  "Leak": 20082,
  "Leakage": 25990,
  "Least": 11158,
  "Leaving": 20083,
  "Left": 1396,
  "LeftRight": 20504,
  "Les": 10347,
  "Lesions": 11908,
  "Lesser": 3211,
  "LesserSO": 21967,
  "Levator": 4369,
  "Levatores": 22537,
  "Level": 7521,
  "Levine": 20084,
  "Ligament": 5089,
  "Ligamentous": 22796,
  "Ligaments": 11574,
  "Ligamentum": 11575,
  "Like": 4412,
  "Limb": 15528,
  "Line": 4526,
  "Linea": 6470,
  "Lingual": 4963,
  "Lingula": 12083,
  "LingulaLingual": 24514,
  "Little": 12081,
  "Liver": 9230,
  "LiverSpleenSplenic": 23932,
  "Lo": 12076,
  "Lob": 12082,
  "Lobar": 15075,
  "Loc": 6852,
  "Local": 12080,
  "Located": 23319,
  "Locating": 14591,
  "Location": 9111,
  "Long": 3444,
  "Longissimus": 8221,
  "Look": 7779,
  "Loose": 24512,
  "Lord": 15524,
  "Lordosis": 25096,
  "Loss": 6194,
  "Louve": 24513,
  "Louveau": 26520,
  "Lower": 5422,
  "Lt": 12077,
  "Lumb": 6503,
  "Lumbar": 5913,
  "LumbarIliohypogastric": 23048,
  "Lumbosacral": 7717,
  "Lumbosacralenlargement": 14680,
  "Lunate": 15527,
  "Lung": 12078,
  "Lying": 12079,
  "Lymph": 2700,
  "Lymphatic": 3263,
  "Lymphatics": 7176,
  "Lymphoma": 21623,
  "M": 40,
  "MATI": 15551,
  "MATIC": 25103,
  "MB": 15532,
  "MCA": 15539,
  "MDP": 15552,
  "MFB": 15546,
  "MI": 15533,
  "MIP": 10356,
  "MRCP": 12093,
  "MRI": 5658,
  "MRP": 15547,
  "MTBI": 15545,
  "Magnetic": 10353,
  "Main": 10352,
  "Major": 4672,
  "Mal": 15534,
  "Malle": 8434,
  "Malleolar": 11791,
  "Malleus": 14749,
  "MalleusIncusPyramidal": 24983,
  "Malrotation": 25098,
  "Mam": 15537,
  "Mammary": 12092,
  "Mammillary": 25100,
  "Man": 3739,
  "Management": 22241,
  "Mandible": 10354,
  "Mandibular": 5425,
  "Manubrium": 5074,
  "ManubriumRight": 22793,
  "Manubriumof": 11572,
  "Many": 6452,
  "Margin": 9238,
  "Marginal": 12091,
  "Masses": 15544,
  "Masseter": 9237,
  "MasseterBuccinatorParotid": 23936,
  "Mastoid": 5424,
  "Mater": 12089,
  "Material": 24515,
  "Maxilla": 8436,
  "Maxillary": 3923,
  "Maxillarysinus": 22323,
  "Mc": 12085,
  "McBurney": 15076,
  "Mean": 15548,
  "Meanwhile": 25102,
  "Med": 6855,
  "Medial": 1325,
  "MedialAnteriorAnterior": 13653,
  "MedialAnteriorAnteriorAnterior": 15251,
  "MedialLateral": 9802,
  "MedialMedial": 20383,
  "MedialPunct": 20388,
  "MedialPunctaLacrimal": 26042,
  "MedialTuberosity": 20386,
  "Medialborder": 13651,
  "MedialborderPosteriorborder": 24844,
  "Medialcuneiform": 13654,
  "MedialcuneiformMetatarsal": 24846,
  "Medially": 6371,
  "MedialmalleolusLateral": 20387,
  "MedialmalleolusLateralmalleolusLateral": 26041,
  "Medialprocess": 20384,
  "MedialprocessGroove": 26040,
  "Medialrectus": 20385,
  "Medialsurface": 11182,
  "Medialtubercle": 13652,
  "Medialtubercleof": 24845,
  "Median": 3445,
  "MedianRadialUlnar": 22095,
  "Medianumbilicall": 22094,
  "MedianumbilicalligamentABBase": 26312,
  "Mediastinal": 14597,
  "Mediastinum": 14596,
  "Medical": 14595,
  "Medina": 23323,
  "Medium": 23322,
  "Melanoma": 15542,
  "Membrane": 15540,
  "Membranous": 7780,
  "Men": 12087,
  "Meningeal": 7298,
  "Meningitis": 12094,
  "Menisci": 15078,
  "Mental": 6505,
  "Mes": 7297,
  "Mesenteries": 23450,
  "Mesentery": 14642,
  "MesenteryVisceral": 24973,
  "Mesometrium": 23451,
  "Mesovarium": 14641,
  "Met": 15538,
  "Metacarpal": 9235,
  "Metacarpals": 11849,
  "Metastatic": 25101,
  "Metatarsal": 10355,
  "MetatarsalsNavicular": 24173,
  "Mic": 15536,
  "Mid": 10350,
  "Middle": 2667,
  "MiddleDistal": 21610,
  "MiddleProximal": 21611,
  "Middlemeningeal": 21612,
  "Midline": 14913,
  "Midway": 15541,
  "Milk": 15543,
  "Min": 8432,
  "Minimally": 23730,
  "Minor": 10237,
  "Mitral": 8435,
  "Mod": 9232,
  "Modifications": 23933,
  "Modiolus": 11847,
  "ModiolusScala": 24475,
  "Molars": 9236,
  "MolarsIncisorsCanines": 23935,
  "MolarsMolars": 23934,
  "Mon": 15535,
  "Mons": 12088,
  "Monteggia": 25099,
  "Mor": 12086,
  "More": 9233,
  "Morgagn": 15077,
  "Morgagni": 15302,
  "Most": 3336,
  "Motor": 5423,
  "Move": 8433,
  "Movements": 10238,
  "Moving": 12090,
  "Much": 10351,
  "Mucosal": 15550,
  "Mult": 9234,
  "Multiple": 11848,
  "Musc": 3397,
  "Muscle": 6130,
  "Muscles": 2846,
  "Muscul": 14147,
  "Muscular": 7632,
  "Musculi": 22066,
  "Musculocutaneous": 6440,
  "Musculus": 22065,
  "Mylohyoid": 6856,
  "MylohyoidBuccinator": 23325,
  "MylohyoidHyoglossus": 23326,
  "MylohyoidMylohyoidSuperior": 23327,
  "MylohyoidSuperior": 23324,
  "Myotomes": 15549,
  "N": 41,
  "NS": 2169,
  "NT": 15553,
  "Nares": 15559,
  "NaresAMajor": 25106,
  "Naris": 10358,
  "Nas": 4673,
  "Nasal": 4016,
  "Nasion": 15556,
  "NasionNasal": 25105,
  "Nasociliary": 10069,
  "Nasolacrimal": 10070,
  "Nasopalatine": 9023,
  "Nasopharynx": 9024,
  "NasopharynxCVI": 23885,
  "Navicular": 9240,
  "Ne": 6195,
  "Near": 6857,
  "Nec": 15554,
  "Neck": 4964,
  "NeckAttachment": 22759,
  "NeckNeckAttachment": 22761,
  "NeckQuadrate": 22760,
  "Necrosis": 25104,
  "Needle": 11650,
  "Ner": 2478,
  "Nerve": 3256,
  "NerveVein": 21990,
  "Nerves": 4386,
  "Nervous": 15562,
  "Neuhuber": 23135,
  "Neuro": 8330,
  "Neuroanatomy": 23705,
  "Neurological": 11783,
  "Neurons": 10357,
  "Neurovascular": 14739,
  "Next": 15563,
  "No": 9239,
  "Nodes": 15560,
  "Nomenclature": 15561,
  "Normal": 7299,
  "Normally": 7781,
  "Nostr": 15558,
  "Not": 8437,
  "NotchCalcaneal": 23731,
  "Note": 15557,
  "Nucle": 15555,
  "Nuclear": 9241,
  "Numerous": 5267,
  "O": 42,
  "OCT": 9245,
  "OLE": 10360,
  "Ob": 2503,
  "Oblique": 7597,
  "Obliquus": 9928,
  "Observation": 21515,
  "Obturator": 2954,
  "ObturatorarteryAnterior": 21789,
  "Occ": 5914,
  "Occasionally": 5090,
  "Occipital": 6829,
  "OccipitalarterySternocleidomastoid": 23317,
  "Occlusion": 23049,
  "Oculomotor": 9247,
  "Of": 7782,
  "Often": 12098,
  "Ol": 15564,
  "Olecranon": 10359,
  "OlecranonLong": 14914,
  "Olfaction": 25107,
  "Olfactory": 9246,
  "Oment": 15567,
  "Omenta": 25109,
  "Omental": 12096,
  "Omoclavicular": 15569,
  "Omohyoid": 12097,
  "On": 2479,
  "Once": 8903,
  "One": 3212,
  "Op": 2918,
  "Opening": 3726,
  "Openings": 11475,
  "Ophthalmic": 5660,
  "Opponens": 14063,
  "Opposite": 21772,
  "Optic": 6115,
  "Or": 3113,
  "Oral": 6858,
  "Orb": 4097,
  "Orbicularis": 8251,
  "Orbit": 11494,
  "OrbitMiddle": 24419,
  "Orbital": 5408,
  "Organ": 21893,
  "Organization": 21894,
  "Organs": 14106,
  "OrgansPeripheralSympathetic": 24913,
  "Orientation": 14105,
  "Origin": 8209,
  "Oroph": 9244,
  "Oropharyngeal": 8438,
  "Oropharyngealisthmus": 11792,
  "OropharyngealisthmusPharyngeal": 24463,
  "Oropharynx": 10270,
  "OropharynxLaryngopharynx": 14906,
  "OropharynxLaryngopharynxOropharyngealisthmusPharyngeal": 25002,
  "Oste": 8439,
  "Osteoarthritis": 23734,
  "Osteophytes": 23732,
  "OsteophytesLoss": 26474,
  "Osteoporosis": 14750,
  "Osteoporotic": 23733,
  "Ot": 15565,
  "Other": 4017,
  "Others": 22366,
  "Otic": 9242,
  "Otitis": 25108,
  "Our": 15566,
  "Out": 9243,
  "Outer": 12095,
  "Output": 23937,
  "Outside": 11850,
  "Ov": 5659,
  "Oval": 14453,
  "Ovarian": 7692,
  "Ovary": 11612,
  "OvaryAnteriorPosteriorMedialLateral": 24437,
  "OvaryVagina": 24436,
  "Over": 7300,
  "Overhang": 23453,
  "Overhanging": 26454,
  "Overview": 23452,
  "Owing": 15568,
  "P": 43,
  "PA": 15570,
  "PCA": 15581,
  "PCL": 15587,
  "PD": 9248,
  "PDA": 14827,
  "PDE": 23938,
  "PECT": 10370,
  "PET": 10368,
  "PETCT": 24178,
  "PICA": 15585,
  "PLIF": 15592,
  "PNS": 10366,
  "PS": 15571,
  "PSA": 15579,
  "Pain": 10364,
  "Paired": 12104,
  "Pal": 3595,
  "Palat": 5623,
  "Palatal": 22962,
  "Palatine": 4807,
  "Palatoglossal": 14450,
  "Palatoglossus": 14451,
  "Palatopharyngeal": 10115,
  "Palatovaginal": 11610,
  "Palmar": 7184,
  "Palpable": 11468,
  "Palpation": 22182,
  "Palpebral": 10005,
  "Panc": 7784,
  "Pancoast": 23583,
  "Pancreas": 10214,
  "PancreasDescending": 24139,
  "PancreasDuodenum": 24140,
  "Pancreatic": 23582,
  "Pap": 15574,
  "Papillary": 25111,
  "Par": 2995,
  "Para": 9968,
  "Parasternal": 11417,
  "Parasympathetic": 5395,
  "Parietal": 5846,
  "Parietomastoid": 21809,
  "ParietomastoidsutureParietal": 26275,
  "Parotid": 8942,
  "Pars": 15576,
  "Part": 4674,
  "Partial": 22661,
  "Parts": 14351,
  "Passing": 6197,
  "Patella": 8442,
  "PatellaAnterior": 23736,
  "PatellaPatellar": 14751,
  "PatellaPatellarligamentPatellar": 24984,
  "Patellar": 7786,
  "Patients": 6506,
  "Pect": 7302,
  "Pectineal": 14643,
  "Pectineus": 10189,
  "Pectoral": 4808,
  "Pectoralis": 5885,
  "Ped": 6859,
  "Pedicle": 9112,
  "PediclePosterior": 23904,
  "Pedicles": 11696,
  "Pelvic": 3596,
  "Pen": 7783,
  "Penetrates": 11758,
  "Penile": 23581,
  "Penis": 14687,
  "People": 15590,
  "Per": 2434,
  "Perforating": 7153,
  "Pericardial": 21446,
  "PericardialcavityJunction": 26233,
  "Pericarditis": 13961,
  "Pericranial": 21447,
  "Perineal": 4640,
  "Periorbita": 15586,
  "PeriorbitaLacrimal": 25114,
  "Periost": 21448,
  "Perioste": 7151,
  "Periosteum": 7738,
  "PeriosteumLevator": 23566,
  "PeriosteumOrbital": 23568,
  "PeriosteumSpinal": 23567,
  "Periostial": 26234,
  "Peripheral": 7152,
  "PeripheralSympathetic": 23419,
  "Peritoneal": 11353,
  "Peritoneum": 13960,
  "PeritoneumPelvic": 15270,
  "Perpendicular": 9922,
  "Pes": 10361,
  "Pet": 6861,
  "Petrotympanic": 9113,
  "Petrous": 11698,
  "Pfan": 15591,
  "Pfannens": 25115,
  "Pfannenstiel": 26558,
  "Ph": 2847,
  "Phalanges": 11404,
  "PhalangesMetatarsalsNavicular": 24403,
  "Pharyngeal": 4190,
  "Pharyngealbranch": 14270,
  "Pharyngealrecess": 22441,
  "Pharyngotympanic": 8928,
  "Pharynx": 8927,
  "PharynxEsophagus": 14808,
  "Philtrum": 14052,
  "PhiltrumVestibuleOrbicularis": 24905,
  "Phonation": 21708,
  "Photoreceptors": 21707,
  "Phrenic": 11403,
  "Physical": 21709,
  "Pia": 10362,
  "Pial": 15572,
  "Piriform": 9251,
  "Piriformis": 6862,
  "Pis": 12100,
  "Pisiform": 8441,
  "PisiformPisiform": 23735,
  "Pisohamate": 24517,
  "Pit": 12101,
  "Pituitary": 15079,
  "Pivot": 12108,
  "Pl": 5661,
  "Pla": 9249,
  "Placement": 22976,
  "Placing": 22977,
  "Plain": 10271,
  "Plane": 10117,
  "Plantar": 8312,
  "Plantarflexion": 23701,
  "PlantarismuscleLateral": 23702,
  "Ple": 7301,
  "Pleaural": 23454,
  "Pleura": 8368,
  "Pleural": 15582,
  "Plic": 15577,
  "Pop": 15575,
  "Popeye": 25112,
  "Popliteal": 4965,
  "Poplitealfossa": 22762,
  "PoplitealfossaPlantarismuscleLateral": 26396,
  "Popliteus": 10367,
  "PopliteusSoleal": 24176,
  "PopliteusmuscleMedial": 24177,
  "Porta": 12105,
  "Portal": 8440,
  "Pos": 12102,
  "Position": 3447,
  "Positioning": 14155,
  "Positive": 24518,
  "Positron": 24519,
  "Possible": 12107,
  "Post": 10363,
  "PostPost": 14915,
  "PostPosteriorAnteriorLeftRight": 24174,
  "PostPosteriorAnteriorLeftRightSeptalLtLt": 26506,
  "Poster": 9252,
  "Posterior": 963,
  "PosteriorAnterior": 9745,
  "PosteriorAnteriorInferior": 24061,
  "PosteriorAnteriorLeftRight": 24062,
  "PosteriorInferior": 19703,
  "PosteriorPosterior": 8058,
  "PosteriorPosteriorPosteriorPosterior": 14718,
  "Posteriorborder": 19705,
  "Posteriorcalcaneal": 19709,
  "Posteriorcomm": 19708,
  "Posteriorcompartment": 19712,
  "PosteriorcompartmentDeep": 25932,
  "Posteriorfornix": 19710,
  "Posteriorintercostal": 13476,
  "Posteriorinterosseous": 19706,
  "Posteriorlongitudinal": 13477,
  "Posteriorlongitudinalligament": 15236,
  "PosteriorlongitudinalligamentFacets": 25039,
  "Posteriorly": 4886,
  "Posteriormalleolar": 19707,
  "Posteriorprocess": 19704,
  "Posteriortalofibular": 19711,
  "Posteroinferior": 23939,
  "Posterolateral": 10369,
  "Posteromedial": 14829,
  "Postganglionic": 6196,
  "Pot": 15573,
  "Potential": 25110,
  "Pr": 12099,
  "Pre": 3168,
  "Preganglionic": 4931,
  "Premolars": 11430,
  "PremolarsCanines": 24408,
  "PremolarsCaninesIncisorsMaxillary": 26513,
  "PremolarsMolarsMolars": 24409,
  "Preprostatic": 21919,
  "Prepuce": 9978,
  "Pretracheal": 14107,
  "Prevertebral": 8211,
  "Primary": 24516,
  "Pro": 3213,
  "Probably": 21970,
  "Profunda": 9980,
  "Projecting": 8213,
  "Prolactin": 21969,
  "Prom": 6860,
  "Prominence": 10174,
  "Prominent": 23328,
  "Promontory": 11697,
  "PromontoryMargin": 24450,
  "Pron": 5662,
  "PronatedSupinated": 22978,
  "PronatedSupinatedSupinatorBiceps": 26418,
  "Pronation": 11613,
  "Pronator": 7243,
  "Prostate": 7787,
  "ProstateInferiorepigastric": 23584,
  "Prostatic": 7304,
  "Protection": 14119,
  "Protraction": 21968,
  "Protrusion": 14120,
  "Providing": 21972,
  "Proximal": 5068,
  "ProximalCarpal": 22791,
  "ProximalMiddleDistal": 22792,
  "ProximalMiddleDistalProximalCarpal": 26399,
  "Proximally": 21971,
  "Psoas": 10365,
  "PsoasDuraQuadratus": 24175,
  "Pterion": 12106,
  "Pteryg": 3446,
  "Pterygoid": 5619,
  "Pterygoidham": 22961,
  "PterygoidhamulusExternal": 26414,
  "Pterygomandibular": 8960,
  "Pterygomaxillary": 11457,
  "Pterygopalatine": 6442,
  "PterygopalatineganglionOtic": 23221,
  "Pub": 9250,
  "Pubic": 3522,
  "PubisPubic": 14828,
  "Pudendal": 5915,
  "Pulled": 15589,
  "Pulmonary": 4211,
  "Puls": 15583,
  "Pulsatile": 25113,
  "Pulse": 15588,
  "Pump": 15580,
  "Punct": 15578,
  "Pup": 12103,
  "PupilPalpebral": 24520,
  "Purkinje": 15584,
  "Pyloric": 7785,
  "Pyramid": 7303,
  "Pyramidal": 9127,
  "Q": 44,
  "QST": 15593,
  "Qu": 3924,
  "Quad": 4400,
  "Quadrangular": 10057,
  "Quadrate": 9003,
  "Quadratus": 9002,
  "Quadriceps": 8263,
  "Quiet": 22324,
  "R": 45,
  "RAL": 12115,
  "RALABicuspid": 24523,
  "RALABicuspidvalveTricuspid": 26522,
  "RCP": 9254,
  "RCT": 10373,
  "RE": 10371,
  "RI": 2309,
  "RP": 12109,
  "RPQST": 24521,
  "RV": 15594,
  "RVLVArch": 25116,
  "Rad": 8443,
  "Radial": 3076,
  "RadialUlnar": 21856,
  "Radialcollateralligament": 21857,
  "RadialcollateralligamentAUlnarcollateralligamentAnular": 26281,
  "Radialis": 21855,
  "Radius": 9162,
  "RadiusRadius": 23915,
  "RadiusWrist": 14820,
  "Ramus": 9255,
  "Rap": 9253,
  "Raphe": 11851,
  "RapheEpididymis": 24476,
  "Rapid": 23940,
  "Rare": 15598,
  "Rarely": 25120,
  "Re": 7305,
  "Reaching": 14644,
  "Rect": 4413,
  "Recto": 14310,
  "Rectum": 7658,
  "RectumPeritoneumPelvic": 23549,
  "RectumRound": 23548,
  "Rectus": 6790,
  "Recurrent": 8444,
  "Redundant": 12116,
  "Referred": 23455,
  "Reg": 5427,
  "Region": 11599,
  "Regional": 6482,
  "Reinfor": 23456,
  "Reinforcing": 26455,
  "Rel": 12112,
  "Relationsh": 10374,
  "Relationships": 11909,
  "Relax": 15081,
  "Relaxation": 15303,
  "Rem": 12113,
  "Remnant": 15082,
  "Renal": 6198,
  "Res": 15596,
  "Restrictive": 25118,
  "Ret": 7306,
  "Reticulospinal": 23457,
  "Retr": 12114,
  "Retraction": 15083,
  "Retromandibular": 14645,
  "Retroperitoneal": 14646,
  "Rhomboid": 6199,
  "Rib": 3523,
  "RibJoint": 22154,
  "RibPedicle": 22155,
  "RibPedicleLocation": 26323,
  "RibTransverse": 22153,
  "Ribs": 14168,
  "Rid": 12111,
  "Ridge": 15080,
  "Right": 1518,
  "Rightbronchialartery": 20665,
  "Rightkidney": 20666,
  "Rightvagus": 20664,
  "RightvagusnerveTracheaArch": 26095,
  "Rima": 10375,
  "Ring": 15597,
  "RingIndexFing": 25119,
  "Ro": 15595,
  "Roof": 25117,
  "Root": 4675,
  "Roots": 6796,
  "Rostral": 15600,
  "Rotator": 12117,
  "Rotators": 24524,
  "Roug": 6863,
  "Roughen": 7271,
  "Roughened": 10188,
  "Roughening": 11730,
  "Roughenings": 23435,
  "Round": 5426,
  "Rt": 12110,
  "RtPostPost": 24522,
  "RtPostPostPostPosteriorAnteriorLeftRightSeptalLtLt": 26521,
  "Running": 12118,
  "Rupture": 10372,
  "Ruptures": 15599,
  "S": 46,
  "SA": 4414,
  "SCE": 15634,
  "SD": 6507,
  "SE": 6864,
  "SF": 3337,
  "SI": 15601,
  "SII": 12121,
  "SO": 12119,
  "SPECT": 12131,
  "SRI": 12123,
  "SRIs": 15085,
  "SSA": 15613,
  "SSRIs": 15633,
  "ST": 8445,
  "STOLE": 11793,
  "SVA": 15619,
  "SVE": 15615,
  "SY": 12120,
  "SYSTOLE": 15084,
  "SYSTOLEDI": 25017,
  "Sac": 3828,
  "Saccule": 14221,
  "SacculeHelicotrema": 24926,
  "SacculeHelicotremaDura": 26546,
  "Sacral": 5916,
  "SacralSuperior": 23050,
  "Sacro": 5870,
  "Sacrospinous": 6142,
  "Sacrotuberous": 6490,
  "Sacrum": 10386,
  "SacrumSacrospinous": 14917,
  "Saddle": 15618,
  "Sagittal": 10379,
  "Sal": 9256,
  "Salivary": 14830,
  "Salpingopharyngeal": 14831,
  "Saphenous": 7788,
  "SaphenousbranchSuperior": 23585,
  "Sartorius": 6200,
  "SartoriusSartorius": 23136,
  "SartoriusSartoriusStraight": 26434,
  "Sc": 3338,
  "Scala": 8956,
  "Scalat": 22037,
  "Scaphoid": 9984,
  "Scapula": 14139,
  "ScapulaAxillary": 24917,
  "ScapulaManubriumof": 24918,
  "Scarpa": 9985,
  "Sciatic": 6125,
  "Sclera": 15630,
  "Scoliosis": 22036,
  "Scottie": 22038,
  "Scro": 9983,
  "Scrotal": 24097,
  "Scrotum": 11894,
  "ScrotumFrenulum": 24482,
  "Se": 4809,
  "Sebaceous": 15627,
  "Sec": 4966,
  "Second": 6474,
  "Secondary": 10159,
  "Secret": 11562,
  "Secretions": 24431,
  "Secretomotor": 11563,
  "Secretory": 15036,
  "Sections": 15617,
  "See": 22704,
  "Segmental": 10384,
  "Segmentalspinal": 24182,
  "Selected": 14373,
  "Sem": 4810,
  "Semilunar": 22705,
  "Semimembranosus": 10074,
  "Seminal": 10381,
  "Seminiferous": 22706,
  "Semispinalis": 9033,
  "Semitendinosus": 8282,
  "SemitendinosusmuscleSemimembranosus": 23693,
  "Sensation": 15620,
  "Sensory": 4811,
  "Sep": 15605,
  "Separ": 12128,
  "Separating": 15087,
  "Sept": 15609,
  "Septa": 25124,
  "Septal": 5664,
  "SeptalLt": 22979,
  "SeptalLtLt": 26419,
  "Serratus": 6510,
  "Serum": 15628,
  "Sesamoid": 9261,
  "Seven": 11550,
  "Sever": 15610,
  "Several": 6162,
  "Severe": 25125,
  "Sh": 4018,
  "Shadow": 14241,
  "Shaft": 6144,
  "Shift": 22367,
  "Short": 7199,
  "Shoulder": 14240,
  "ShoulderGlenohumeral": 24929,
  "Sigmoid": 10382,
  "Significant": 12127,
  "Significantly": 15086,
  "Sim": 9257,
  "Similar": 15612,
  "Similarly": 6865,
  "Simple": 23941,
  "Simplified": 23944,
  "Simply": 23942,
  "Simultaneously": 23943,
  "Since": 12126,
  "Single": 10380,
  "Sinu": 15616,
  "Site": 15606,
  "Six": 15608,
  "Skeletal": 9260,
  "Skene": 9263,
  "Skin": 4967,
  "SkinAB": 14385,
  "SkinPubic": 22763,
  "SkinVertebra": 22764,
  "Skull": 12125,
  "SkullDura": 24526,
  "Slight": 15622,
  "Small": 4968,
  "Smallsaphenous": 14386,
  "Smallsaphenousvein": 15287,
  "SmallsaphenousveinCommonfibular": 25051,
  "Smooth": 10385,
  "So": 5091,
  "Soft": 6810,
  "Sole": 9042,
  "Soleal": 11835,
  "Soleus": 14814,
  "Solid": 15614,
  "Som": 10376,
  "Somatic": 4812,
  "Some": 5663,
  "Sometimes": 10383,
  "Somite": 14916,
  "Somites": 24179,
  "Soon": 22797,
  "Sound": 15607,
  "Sp": 2088,
  "Spec": 5584,
  "Special": 6822,
  "Specific": 10113,
  "Spermatic": 9262,
  "Sphen": 4637,
  "Sphenoid": 22646,
  "Sphenoidal": 9019,
  "Sphenomandibular": 10065,
  "Sphenopalatine": 9018,
  "Sphenoparietal": 11537,
  "Sphenosquamous": 22647,
  "Spina": 21222,
  "Spinal": 4813,
  "Spinalganglion": 22707,
  "Spinalis": 11551,
  "SpinalisIliocostalis": 15035,
  "Spine": 6091,
  "Spinous": 5216,
  "Spinousprocess": 11589,
  "Spiral": 11293,
  "Spleen": 7790,
  "SpleenLeft": 11759,
  "SpleenSplenic": 23586,
  "Splenic": 11294,
  "Splenius": 8884,
  "Spongy": 21223,
  "Spread": 13880,
  "Squamous": 8447,
  "St": 5268,
  "Sta": 9258,
  "Staging": 14832,
  "Stapes": 14833,
  "Stent": 22856,
  "Stern": 10377,
  "Sternal": 8446,
  "Sternoc": 5428,
  "Sternocleidomastoid": 6172,
  "SternocleidomastoidParotid": 23128,
  "SternocleidomastoidmuscleCarotid": 23129,
  "Sternohyoid": 24181,
  "Sternum": 24180,
  "Stimulation": 14412,
  "Stomach": 8448,
  "StomachLiver": 23738,
  "StomachLiverPancreasDescending": 26475,
  "StomachTributaries": 23737,
  "Stop": 15625,
  "Stopping": 25127,
  "Str": 15604,
  "Straight": 11590,
  "Striated": 25123,
  "Stroke": 15631,
  "Struct": 9259,
  "Structural": 14834,
  "Structurally": 14835,
  "Structures": 4527,
  "Sty": 7789,
  "Styl": 7232,
  "Stylohyoid": 10215,
  "Styloid": 9124,
  "Stylomastoid": 11728,
  "Stylopharyngeus": 14688,
  "Sub": 2262,
  "Subacromial": 13914,
  "Subarachnoid": 8894,
  "SubarachnoidspaceLumbosacralenlargement": 23864,
  "Subclav": 5819,
  "Subclavian": 6828,
  "Subclavius": 11625,
  "Subcostal": 9913,
  "Subcutaneous": 13913,
  "Subdural": 21360,
  "Sublingual": 6739,
  "Submandibular": 5380,
  "Submandibularganglion": 14426,
  "SubmandibularganglionPterygopalatineganglionOtic": 24942,
  "Suboccipital": 21361,
  "Subphrenic": 21362,
  "Subscapular": 6095,
  "Subscapularis": 8326,
  "SubscapularisHumerusAcromionSpine": 23704,
  "Subtendinous": 13915,
  "Sulcus": 15621,
  "Summary": 15624,
  "Sup": 2919,
  "Superficial": 2383,
  "Superficialinguinal": 13950,
  "Superior": 1150,
  "SuperiorMiddle": 13573,
  "SuperiorMiddleInferiorLateralPosteriorPosteriorPosteriorPosterior": 15247,
  "SuperiorMiddleInferiorLateralPosteriorPosteriorPosteriorPosteriorMedialAnteriorAnteriorAnterior": 15306,
  "Superiorconstrictorof": 20016,
  "Superiorlaryngeal": 20014,
  "Superiorly": 5777,
  "Superiorsub": 20013,
  "Superiorvena": 20015,
  "Superolateral": 14065,
  "Supinated": 14066,
  "Supinator": 9962,
  "SupinatorBiceps": 24094,
  "Support": 21773,
  "Supr": 4193,
  "Supra": 14064,
  "Supracondylar": 22443,
  "Supraglenoid": 21774,
  "Suprascapular": 5875,
  "Supraspinatus": 10040,
  "SupraspinatusInfraspinatusPosteriorAnterior": 24112,
  "SupraspinatusInfraspinatusPosteriorAnteriorClavicleAcromionTeres": 26503,
  "SupraspinatusInfraspinatusTeres": 24110,
  "SupraspinatusSubscapularisHumerusAcromionSpine": 24111,
  "Supraspinous": 14271,
  "Supratrochlear": 22442,
  "Sur": 15603,
  "Sural": 10378,
  "Surface": 3597,
  "Surfaces": 12129,
  "Surfer": 25122,
  "Surgeons": 15632,
  "Surgery": 10387,
  "Surgical": 6201,
  "Surrounding": 12130,
  "Susp": 6508,
  "Suspended": 23241,
  "Suspensory": 7263,
  "Sustentaculum": 12124,
  "Sutures": 12132,
  "Sw": 15602,
  "Swallowing": 15623,
  "Swimmer": 25121,
  "Sympathetic": 3829,
  "SympatheticT": 22291,
  "Sympathetictrunk": 22292,
  "Symphyses": 15629,
  "Symptoms": 15626,
  "Syn": 12122,
  "Synchondroses": 24525,
  "Synd": 15611,
  "Syndesmoses": 25126,
  "Synovial": 6509,
  "T": 47,
  "TB": 7307,
  "TBI": 11732,
  "TI": 7308,
  "TIA": 14647,
  "TIII": 15645,
  "TIPS": 23459,
  "TIPedicle": 23458,
  "TIV": 10388,
  "TP": 15635,
  "TS": 15636,
  "TVI": 15647,
  "TXII": 15646,
  "TXIILIILIIILIVLVPubic": 25133,
  "Ta": 15637,
  "Table": 1307,
  "Tables": 12143,
  "Tail": 12140,
  "Talus": 8452,
  "TalusAB": 23741,
  "TalusCalcaneus": 23742,
  "TalusLateral": 23740,
  "TalusPosteriorprocess": 23743,
  "TalusPosteriorprocessof": 26476,
  "Tarsal": 7792,
  "Tarsus": 15651,
  "Taste": 10390,
  "Tear": 12138,
  "Tears": 15649,
  "Tect": 12135,
  "Tectorial": 24528,
  "Tectospinal": 24527,
  "Teeth": 15652,
  "TeethAnterior": 25134,
  "Teg": 10389,
  "Tegmen": 11910,
  "Temporal": 6866,
  "Temporalis": 14598,
  "Ten": 15639,
  "Tend": 3524,
  "Tendon": 4198,
  "Tendons": 8226,
  "Tenosynovitis": 25129,
  "Tension": 15648,
  "Tensor": 6202,
  "Teres": 5665,
  "Term": 15642,
  "Terminal": 5666,
  "Terminalnerves": 22980,
  "TerminalnervesCordsDivisionsTrunksRoots": 26420,
  "Terms": 25131,
  "Test": 7791,
  "Testicular": 10391,
  "Testing": 15650,
  "Testis": 9143,
  "TestisIschial": 23909,
  "TestisTunica": 23910,
  "Th": 1382,
  "The": 144,
  "Their": 16787,
  "Thenar": 16788,
  "There": 2050,
  "These": 4428,
  "They": 16786,
  "Third": 7536,
  "This": 3245,
  "Thorac": 8103,
  "Thoracic": 4624,
  "Thoracodorsal": 10228,
  "Thorax": 20469,
  "Those": 9816,
  "Three": 3637,
  "Thromb": 20470,
  "Thrombosis": 26060,
  "Through": 13671,
  "Throughout": 7537,
  "Thus": 11188,
  "Thymus": 13672,
  "ThymusManubrium": 24850,
  "Thyro": 5555,
  "Thyrocervical": 10110,
  "Thyrohyoid": 8308,
  "ThyrohyoidSuperior": 23698,
  "Thyroid": 8834,
  "Tib": 12134,
  "Tibia": 6511,
  "Tibial": 4676,
  "Tin": 15638,
  "Tinel": 25128,
  "Tip": 12136,
  "To": 3740,
  "Together": 8237,
  "Tom": 15640,
  "Tongue": 9264,
  "TongueLingual": 23946,
  "TongueNasal": 23945,
  "Top": 12137,
  "Topographical": 24529,
  "Torn": 12141,
  "Torus": 9265,
  "Tr": 2222,
  "Tra": 8450,
  "Trabeculae": 14754,
  "Trachea": 3798,
  "TracheaABLeft": 22285,
  "TracheaArch": 14217,
  "TracheaCricoid": 14218,
  "TracheaEp": 22283,
  "TracheaEsophagusLeft": 22284,
  "TracheaLeft": 8980,
  "TracheaRib": 22282,
  "Tracheal": 21300,
  "Tracts": 13904,
  "Traditionally": 14753,
  "Trans": 5917,
  "Transection": 23051,
  "Transition": 14484,
  "Transitional": 14486,
  "Transmission": 23052,
  "Transplant": 14485,
  "Transpyloric": 11630,
  "Transvers": 6867,
  "Transversalis": 14599,
  "Transverse": 3662,
  "Transverseprocess": 14600,
  "TransverseprocessSpinousprocess": 15293,
  "Transversus": 11699,
  "Trapez": 8451,
  "Trapezium": 14755,
  "TrapeziumTrapezium": 24985,
  "Trapezius": 5429,
  "TrapeziusDeltoid": 11600,
  "TrapeziusDeltoidDeltoid": 15039,
  "TrapeziusExtrinsic": 22905,
  "TrapeziusLatissimus": 11601,
  "Trapezoid": 11795,
  "TrapezoidLunate": 24464,
  "TrapezoidLunateUlnaTriquetrumTriquetrumPisiformPisiform": 26517,
  "Trauma": 23739,
  "Treat": 15641,
  "Treatment": 5918,
  "Treatments": 25130,
  "Trendelenburg": 15653,
  "Triangles": 21302,
  "Triangular": 8162,
  "Tributaries": 6738,
  "Tric": 12139,
  "Tricuspid": 15089,
  "Trigeminal": 6094,
  "Trigger": 21301,
  "Trigone": 13905,
  "TrigoneTrigone": 24888,
  "Triquetrum": 13903,
  "TriquetrumPisiformPisiform": 24887,
  "Tro": 8449,
  "Trochanteric": 14752,
  "Trochlea": 11794,
  "Trochlear": 7793,
  "Trochlearnot": 23587,
  "Trunks": 11319,
  "TrunksRoots": 15018,
  "Tuber": 4415,
  "Tubercle": 8267,
  "Tubercles": 14311,
  "Tuberculosis": 14312,
  "Tuberculum": 10058,
  "Tuberosity": 8268,
  "Tum": 12133,
  "Tumors": 15088,
  "Tunic": 15644,
  "Tunica": 12142,
  "Tunicavaginal": 25132,
  "Two": 3398,
  "Tympan": 15643,
  "Tympanic": 6203,
  "Typ": 4969,
  "Type": 10084,
  "Types": 22765,
  "Typical": 10085,
  "Typically": 7671,
  "U": 48,
  "UB": 10392,
  "US": 9266,
  "USE": 12146,
  "Ul": 2668,
  "Ulna": 8191,
  "UlnaOblique": 23688,
  "UlnaTriquetrum": 23689,
  "UlnaTriquetrumTriquetrumPisiformPisiform": 26470,
  "Ulnar": 3202,
  "Ultrasonography": 21613,
  "Ultrasound": 8190,
  "Umb": 9269,
  "Umbil": 11852,
  "Umbilical": 24477,
  "UmboCone": 23947,
  "Un": 3830,
  "Uncinate": 10017,
  "Under": 12144,
  "Underlying": 24530,
  "Unfortunately": 10016,
  "Unique": 22293,
  "Unlike": 5075,
  "Until": 22294,
  "Up": 4970,
  "Upon": 22766,
  "Upper": 5888,
  "UpperLower": 11628,
  "UpperLowerMain": 24440,
  "UpperLowerMolarsIncisorsCanines": 24441,
  "UpperLowerMolarsIncisorsCaninesBUpperLower": 26515,
  "Ur": 15654,
  "Ure": 3831,
  "Ureter": 7643,
  "UreterHilum": 23545,
  "UreterThird": 23543,
  "UreterUterine": 23544,
  "Ureteric": 14222,
  "Ureters": 11484,
  "UretersUrethraUrethra": 24418,
  "Urethra": 8981,
  "UrethraNeck": 23878,
  "UrethraPeripheral": 23879,
  "UrethraUrethra": 23880,
  "Urethral": 6780,
  "Urinary": 25135,
  "Urogenital": 7795,
  "Using": 7794,
  "Usually": 9268,
  "Uter": 5919,
  "Uterine": 9070,
  "Uterus": 9069,
  "UterusSuperficialinguinal": 23900,
  "Utricle": 12145,
  "UtricleAmpullaAnterior": 24531,
  "Uv": 9267,
  "Uvula": 10272,
  "UvulaInternal": 24145,
  "UvulaPalatine": 24146,
  "V": 49,
  "VA": 6868,
  "VAL": 23329,
  "VATS": 23330,
  "VE": 5269,
  "VF": 15655,
  "VI": 2607,
  "VII": 1114,
  "VIII": 4266,
  "VIIIIX": 9770,
  "VIIVIII": 19974,
  "VISCE": 21575,
  "VIVII": 8911,
  "VSD": 15661,
  "VT": 7796,
  "VV": 7797,
  "VVScaphoid": 23588,
  "VVVIVII": 9144,
  "VVVIVIILong": 23911,
  "VVVIVIIVIIIIX": 10265,
  "VVVIVIIVIIIIXX": 14905,
  "Vag": 6869,
  "Vagal": 9114,
  "Vagina": 11700,
  "VaginaOpening": 24451,
  "Vaginal": 6870,
  "Vagus": 9270,
  "Val": 6512,
  "Vallate": 15663,
  "Vallec": 11663,
  "Vallecula": 15043,
  "ValleculaLingual": 25012,
  "ValleculaPiriform": 25013,
  "Valve": 9097,
  "Valves": 23242,
  "Var": 7309,
  "Variations": 14649,
  "Varicose": 11733,
  "Various": 14648,
  "Vascular": 5920,
  "Vastus": 4814,
  "Ve": 12147,
  "Vein": 15090,
  "Veins": 4019,
  "VeinsNerves": 22368,
  "VeinsNervesArteriesEsophagus": 26348,
  "Ven": 15656,
  "Venous": 4528,
  "Ventral": 10394,
  "Ventricular": 15660,
  "Venules": 25136,
  "Ver": 3114,
  "Verm": 12149,
  "Vermilion": 15091,
  "Vertebra": 5609,
  "VertebraDisc": 22958,
  "Vertebrae": 21896,
  "Vertebral": 4649,
  "Vertebralbody": 22648,
  "Vertebroplasty": 21898,
  "Vertical": 21895,
  "Verticalline": 21897,
  "VerticallineFlexordigitorum": 26287,
  "Ves": 12148,
  "Vessels": 5921,
  "Vest": 4971,
  "Vestibular": 7228,
  "Vestibule": 8290,
  "VestibuleCut": 23694,
  "VestibuleOrbicularis": 23695,
  "Vestibulospinal": 22767,
  "View": 15658,
  "Viewed": 25138,
  "Vis": 10393,
  "Viscera": 15664,
  "Visceral": 3035,
  "Visible": 11911,
  "Visual": 12150,
  "Visualization": 24532,
  "Visualizing": 4972,
  "Vocal": 6513,
  "Volk": 15662,
  "Volkmann": 25140,
  "Vom": 15657,
  "Vomer": 7798,
  "VomerBody": 23589,
  "Vomiting": 25137,
  "Vvertebral": 15659,
  "VvertebrallevelLeft": 25139,
  "W": 50,
  "WI": 10395,
  "Wal": 15666,
  "Waldeyer": 25142,
  "Walls": 8453,
  "Wasting": 15668,
  "We": 15665,
  "Weakness": 25141,
  "Wedge": 15667,
  "West": 12151,
  "Westphal": 15092,
  "Wh": 5922,
  "What": 11631,
  "Whatever": 23053,
  "When": 2411,
  "Whenever": 11351,
  "Where": 7310,
  "While": 14487,
  "White": 9071,
  "Winging": 15670,
  "With": 6514,
  "Within": 4529,
  "Without": 23243,
  "Working": 15669,
  "Wrist": 9271,
  "X": 51,
  "XI": 3272,
  "XII": 2283,
  "XIX": 15671,
  "XIXIIIIIIIIIVVVIVIIVIIIIXX": 25143,
  "XUSE": 12152,
  "XUSES": 15093,
  "Xiphoid": 8454,
  "Y": 52,
  "Z": 53,
  "Zonal": 15672,
  "Zyg": 3832,
  "Zygomatic": 4006,
  "Zygomaticofacial": 11487,
  "Zygomaticofacialforamen": 15031,
  "ZygomaticofacialforamenZygomatic": 25010,
  "Zygomaticotemporal": 10028,
  "Zygomaticotemporalforamen": 14895,
  "[": 54,
  "]": 55,
  "](": 10396,
  "])": 3448,
  "]),": 6204,
  "]).": 6515,
  "])[": 22096,
  "],": 1653,
  "].": 1489,
  "]:": 15673,
  "];": 15674,
  "][": 5430,
  "]âĢĶ": 7799,
  "a": 56,
  "aArch": 15686,
  "aLacrimal": 15687,
  "aParietal": 15690,
  "aTarsus": 15697,
  "aTarsusSebaceous": 25147,
  "aave": 15682,
  "ab": 421,
  "abdom": 10902,
  "abdominal": 4251,
  "abdominis": 14978,
  "abducent": 10903,
  "abies": 18297,
  "abilities": 18298,
  "ability": 3690,
  "able": 622,
  "ables": 4456,
  "ably": 5160,
  "above": 13056,
  "abs": 7443,
  "absence": 14666,
  "ac": 133,
  "acar": 1445,
  "acarpal": 3971,
  "acarpophalangeal": 13701,
  "acav": 16715,
  "acaval": 16718,
  "acc": 7889,
  "access": 16714,
  "accessory": 25371,
  "accular": 16717,
  "ace": 255,
  "acea": 17524,
  "aced": 5129,
  "acement": 4047,
  "acenarrow": 16720,
  "aceous": 10788,
  "acer": 2928,
  "acerebral": 6427,
  "aces": 764,
  "acet": 3682,
  "acetab": 10789,
  "acetabular": 14966,
  "acetal": 12826,
  "acets": 9529,
  "aceutical": 8659,
  "ach": 231,
  "ache": 592,
  "achea": 1620,
  "acheal": 3367,
  "ached": 802,
  "aches": 1308,
  "achial": 2648,
  "achian": 12776,
  "achiasmatic": 17341,
  "aching": 5491,
  "achioradialis": 17340,
  "achnoid": 1592,
  "achus": 12775,
  "acial": 3087,
  "acil": 4125,
  "acile": 7362,
  "acilis": 4206,
  "acing": 6937,
  "acity": 12542,
  "ack": 816,
  "acket": 6672,
  "aclavicular": 10638,
  "acolic": 10639,
  "acological": 12543,
  "acondylar": 16716,
  "acorpore": 16719,
  "acr": 1170,
  "acral": 2564,
  "acranial": 3346,
  "acrim": 11151,
  "acrimal": 1249,
  "acrimation": 15005,
  "acrine": 20040,
  "acristal": 11152,
  "acrom": 4124,
  "acromial": 4296,
  "acromion": 22417,
  "acrum": 8082,
  "acrylate": 20041,
  "act": 404,
  "acted": 18269,
  "acter": 2128,
  "actic": 4989,
  "actiferous": 7987,
  "acting": 13039,
  "action": 1658,
  "actitioner": 7988,
  "active": 7018,
  "actorial": 18271,
  "actors": 18270,
  "actory": 2680,
  "acts": 9598,
  "acture": 10893,
  "acula": 4828,
  "acular": 12541,
  "aculum": 1766,
  "acute": 10637,
  "acy": 16713,
  "ad": 262,
  "add": 12833,
  "addle": 6278,
  "adduction": 17545,
  "adductor": 7954,
  "ade": 4446,
  "aded": 9531,
  "aden": 6594,
  "adenocarcinoma": 23263,
  "adenohyp": 23262,
  "adenohypophysis": 26440,
  "ades": 6593,
  "adial": 2067,
  "adian": 17541,
  "adicated": 17548,
  "adily": 17543,
  "ading": 6277,
  "adjust": 12836,
  "adow": 12834,
  "adowing": 12835,
  "adox": 17546,
  "adrenal": 17547,
  "adult": 17542,
  "advent": 17544,
  "adventitia": 25530,
  "adver": 9532,
  "ae": 1326,
  "aeAnterior": 20389,
  "aedic": 15691,
  "af": 5431,
  "affect": 9055,
  "affected": 10260,
  "affecting": 23896,
  "affer": 22906,
  "afferent": 15689,
  "aft": 1473,
  "ag": 352,
  "age": 426,
  "ageal": 2395,
  "agectomy": 10906,
  "aged": 2862,
  "agement": 5739,
  "agendie": 13059,
  "ages": 1465,
  "agic": 9573,
  "agina": 12959,
  "aginal": 3475,
  "aginary": 18005,
  "agination": 12960,
  "aging": 6011,
  "aginous": 3136,
  "agittal": 1753,
  "agn": 7433,
  "agnetic": 4347,
  "agocy": 18006,
  "ague": 12958,
  "agul": 10865,
  "agus": 747,
  "ah": 15675,
  "ai": 15676,
  "ail": 1905,
  "ailable": 11270,
  "aily": 9272,
  "ain": 1956,
  "aine": 12154,
  "ained": 9273,
  "ains": 1838,
  "air": 2608,
  "aired": 3525,
  "aising": 15688,
  "ajor": 2584,
  "ak": 1682,
  "aker": 5806,
  "akers": 20852,
  "aking": 15685,
  "akness": 13771,
  "aks": 15684,
  "al": 104,
  "ala": 7848,
  "alact": 16328,
  "alam": 1732,
  "alamic": 4273,
  "alaminar": 8129,
  "alamohyp": 13784,
  "alamus": 2261,
  "alangeal": 3932,
  "alanges": 10549,
  "alar": 16322,
  "alass": 16326,
  "alat": 16321,
  "alate": 16324,
  "alateral": 4544,
  "alatine": 1204,
  "alation": 16325,
  "alc": 1032,
  "alcanal": 19818,
  "alcane": 1222,
  "alcaneal": 4754,
  "alcaneonavicular": 5783,
  "alcaneonavicularligament": 23009,
  "alcaneus": 7527,
  "alcaneusFibular": 23528,
  "alcarpal": 13513,
  "alcells": 11112,
  "alcellsFrontal": 24367,
  "alciform": 9755,
  "alcohol": 19819,
  "ale": 6909,
  "alea": 14606,
  "aled": 10545,
  "alen": 10544,
  "ales": 5109,
  "alet": 16329,
  "alf": 1441,
  "alian": 16330,
  "align": 10547,
  "alignant": 14931,
  "aline": 5455,
  "aling": 12365,
  "alis": 3221,
  "alize": 16331,
  "all": 215,
  "allate": 9503,
  "alle": 4543,
  "alled": 1990,
  "allel": 16332,
  "allic": 12721,
  "alline": 12723,
  "allium": 17186,
  "allosal": 17188,
  "allot": 12722,
  "allow": 2972,
  "allower": 17187,
  "allowing": 3864,
  "alls": 7939,
  "alluc": 2019,
  "allucis": 2030,
  "ally": 733,
  "aloc": 16327,
  "along": 10546,
  "als": 16320,
  "also": 9364,
  "although": 12366,
  "aluminal": 9366,
  "alus": 7849,
  "alvaria": 16333,
  "alve": 16323,
  "alveolar": 9365,
  "alveoli": 25267,
  "alves": 6910,
  "alysis": 10548,
  "am": 265,
  "amage": 8662,
  "amate": 10794,
  "ame": 1575,
  "amed": 9533,
  "amedial": 17551,
  "amedian": 7955,
  "amen": 2423,
  "ament": 331,
  "amental": 10850,
  "ames": 17549,
  "amic": 5719,
  "amina": 10795,
  "aminase": 17553,
  "amination": 4719,
  "amine": 12837,
  "amining": 17552,
  "amkiew": 8664,
  "ammary": 8663,
  "amol": 17550,
  "amous": 3230,
  "amp": 4447,
  "ampiniform": 7659,
  "ampl": 12838,
  "amples": 6154,
  "amplitude": 15181,
  "ampulla": 22569,
  "amus": 8661,
  "an": 129,
  "ana": 16669,
  "anal": 3410,
  "anasal": 4553,
  "anastomoses": 16681,
  "anating": 16674,
  "anatomical": 7885,
  "anatomy": 16678,
  "anc": 851,
  "ance": 828,
  "anced": 5030,
  "ancer": 11077,
  "ances": 2551,
  "ancies": 7499,
  "ancing": 9721,
  "ancreat": 8789,
  "ancy": 3142,
  "and": 475,
  "andible": 6632,
  "andibular": 1295,
  "andmar": 2573,
  "andpelvic": 18499,
  "androgens": 18500,
  "ands": 2384,
  "ane": 445,
  "anePubic": 18350,
  "aned": 16671,
  "anel": 8581,
  "anent": 5694,
  "aneous": 865,
  "aneously": 8048,
  "anephric": 18351,
  "anese": 16684,
  "ang": 330,
  "angeal": 1987,
  "anged": 10848,
  "anger": 5323,
  "anges": 1830,
  "angina": 17867,
  "anging": 12920,
  "angioplasty": 17868,
  "angl": 555,
  "angleRib": 17869,
  "anglia": 1815,
  "anglion": 649,
  "angu": 9562,
  "angular": 10849,
  "ani": 16670,
  "anic": 6933,
  "aning": 16672,
  "anion": 6934,
  "ankart": 16682,
  "ankle": 16676,
  "annel": 16675,
  "anococcygeal": 16679,
  "anoma": 9428,
  "anome": 7884,
  "anometer": 8393,
  "ans": 966,
  "anse": 16673,
  "ansing": 19713,
  "ant": 402,
  "antaneous": 13038,
  "antar": 1058,
  "ante": 10628,
  "anteflexed": 24253,
  "anterior": 2439,
  "anteriorcutaneous": 21451,
  "anteriorly": 21450,
  "anterolateral": 9427,
  "anteroposterior": 7886,
  "anterosuperior": 16680,
  "antes": 4455,
  "antesSympathetictrunk": 22577,
  "anteverted": 24254,
  "antigra": 18267,
  "antigravity": 25684,
  "ants": 7441,
  "anual": 12534,
  "anulus": 16677,
  "anvier": 16683,
  "anx": 2851,
  "any": 5127,
  "aor": 15678,
  "aorta": 12156,
  "aortaThoracic": 24533,
  "aortic": 3741,
  "aortopulmonary": 25144,
  "ap": 323,
  "apar": 3948,
  "aparin": 22336,
  "aparoscopic": 10025,
  "apart": 17811,
  "apatite": 17817,
  "ape": 1932,
  "aped": 1007,
  "apert": 10837,
  "aperture": 11937,
  "apes": 17810,
  "apez": 10838,
  "aphen": 2133,
  "aphenous": 2247,
  "aphoid": 3449,
  "aphylactic": 12158,
  "apital": 12906,
  "aplegia": 9554,
  "aponeuroses": 17815,
  "aponeurosis": 8677,
  "aponeurosisMedial": 23817,
  "aponeurotic": 17814,
  "apophysial": 6285,
  "aporation": 17816,
  "app": 4244,
  "appear": 22469,
  "append": 10044,
  "appendicular": 24114,
  "apping": 17813,
  "apraxia": 9555,
  "aps": 4724,
  "apse": 17812,
  "apsular": 9029,
  "apsule": 9030,
  "apt": 17809,
  "apter": 4575,
  "apters": 10839,
  "apula": 7970,
  "apular": 1550,
  "aque": 6205,
  "aqueduct": 12157,
  "aqueous": 23137,
  "ar": 115,
  "arable": 16492,
  "arachnoid": 2189,
  "aracter": 2483,
  "aracteristically": 21494,
  "arc": 8548,
  "arch": 8550,
  "arches": 12452,
  "arcinoma": 10588,
  "arct": 7867,
  "arctation": 8389,
  "arcuate": 23771,
  "ard": 360,
  "ardiac": 6014,
  "arding": 12975,
  "ardrop": 18066,
  "ards": 12974,
  "are": 2269,
  "ared": 4323,
  "arenal": 2924,
  "ares": 8549,
  "arg": 375,
  "arge": 641,
  "arged": 7439,
  "argin": 8695,
  "arginal": 7008,
  "argins": 10882,
  "argy": 18173,
  "aria": 12451,
  "arian": 3222,
  "aries": 1570,
  "arietal": 8552,
  "arii": 12455,
  "arily": 2270,
  "arin": 16491,
  "aring": 3936,
  "aris": 7350,
  "arising": 16497,
  "arium": 3044,
  "arius": 9397,
  "ariusErector": 23981,
  "ark": 5948,
  "arly": 6918,
  "arm": 5462,
  "armaceutical": 9056,
  "armacological": 14433,
  "arosp": 16494,
  "arotid": 10587,
  "around": 16493,
  "arp": 2964,
  "arpa": 9966,
  "arpal": 6549,
  "arr": 5115,
  "arran": 12450,
  "arranged": 16495,
  "arrant": 16500,
  "arranted": 15126,
  "arrector": 16499,
  "arret": 12454,
  "arrhea": 14398,
  "arried": 22810,
  "arrow": 12453,
  "arrows": 16498,
  "arry": 16496,
  "ars": 898,
  "arsChoanae": 19591,
  "arsal": 1165,
  "arse": 6919,
  "arseness": 11090,
  "arso": 3851,
  "arsus": 11089,
  "art": 188,
  "arter": 2188,
  "arterectomy": 11308,
  "arterial": 11307,
  "arteries": 6093,
  "arteriesMediastinal": 23113,
  "arters": 9398,
  "artery": 2841,
  "arteryAmpulla": 21692,
  "arteryAnterior": 14048,
  "arteryBroad": 21694,
  "arteryDeep": 21687,
  "arteryDorsal": 14049,
  "arteryExtensordigitorum": 21691,
  "arteryFirst": 21688,
  "arteryInferior": 21686,
  "arteryMain": 21693,
  "arteryPalmar": 21690,
  "arteryPr": 21695,
  "arterySternocleidomastoid": 21689,
  "arteryand": 21685,
  "arth": 4338,
  "arthria": 22528,
  "arthrop": 22527,
  "arthropathies": 26372,
  "arthroplasty": 11510,
  "artics": 16988,
  "articular": 3543,
  "articularis": 6576,
  "articulates": 16989,
  "artil": 670,
  "arting": 16986,
  "artmann": 16990,
  "artment": 3612,
  "artments": 16987,
  "artorius": 3356,
  "artos": 9488,
  "arts": 6264,
  "arum": 10586,
  "arves": 8551,
  "ary": 206,
  "aryn": 355,
  "aryng": 2054,
  "aryngeal": 558,
  "aryngeus": 3056,
  "aryngotympanic": 2455,
  "arynx": 752,
  "arytenoid": 3863,
  "arytenoids": 22311,
  "as": 140,
  "asagittal": 10655,
  "asal": 617,
  "asc": 413,
  "ascapular": 2374,
  "ascending": 10656,
  "ascia": 5325,
  "ascial": 6306,
  "ascites": 18285,
  "ascular": 1226,
  "asculature": 5158,
  "ase": 510,
  "ased": 4331,
  "ases": 1712,
  "ash": 4707,
  "ashion": 5883,
  "asia": 10653,
  "asible": 16774,
  "asic": 10652,
  "asilar": 7370,
  "asing": 8596,
  "asion": 2319,
  "asionally": 2556,
  "asions": 12565,
  "asis": 5974,
  "asive": 7898,
  "asm": 5474,
  "asms": 16775,
  "asp": 1886,
  "aspinatus": 2336,
  "aspinatusInfraspinatus": 21395,
  "asping": 11265,
  "aspinous": 4776,
  "aspinousfossa": 22695,
  "ass": 253,
  "asse": 16773,
  "asses": 10787,
  "assess": 12822,
  "assessment": 24665,
  "asseter": 8597,
  "assic": 17518,
  "assification": 17521,
  "assing": 4845,
  "assisted": 12824,
  "assium": 12823,
  "assive": 17520,
  "assment": 17519,
  "associated": 6275,
  "ast": 440,
  "astatic": 18344,
  "astating": 10910,
  "aste": 3464,
  "asteric": 12566,
  "asternal": 4332,
  "astic": 3411,
  "asting": 5019,
  "astly": 18343,
  "astoid": 1136,
  "astom": 1412,
  "astomoses": 11198,
  "astric": 1183,
  "astro": 1269,
  "astrocnemius": 7083,
  "astrointestinal": 8823,
  "astus": 2681,
  "asty": 5506,
  "asurable": 12567,
  "asure": 10654,
  "asympathetic": 1133,
  "at": 112,
  "ata": 5286,
  "atae": 16456,
  "atarsal": 5287,
  "atase": 16454,
  "atation": 12430,
  "ate": 229,
  "ateHam": 12774,
  "ateHamateHam": 24648,
  "atePhalanges": 17338,
  "atePhalangesAMetacarpalsCarpal": 25493,
  "atectomy": 9395,
  "ated": 252,
  "atedSupinated": 17517,
  "ategic": 17339,
  "atel": 16453,
  "atelets": 17337,
  "atella": 7861,
  "atellar": 4693,
  "ately": 677,
  "atemporal": 1688,
  "ater": 4321,
  "ateral": 200,
  "ates": 356,
  "atever": 9517,
  "ateway": 5992,
  "ateways": 6974,
  "ath": 1048,
  "athTendon": 19841,
  "athe": 536,
  "ather": 4594,
  "athic": 19839,
  "athies": 19840,
  "athoracic": 13514,
  "athy": 5191,
  "athyroid": 4072,
  "atial": 16452,
  "atibility": 16460,
  "atible": 9392,
  "atic": 342,
  "atically": 8541,
  "atients": 3934,
  "atification": 16458,
  "atified": 9394,
  "atile": 9393,
  "atin": 9391,
  "atine": 702,
  "ating": 692,
  "atinized": 14845,
  "atinous": 12432,
  "ation": 230,
  "ational": 8644,
  "ations": 1110,
  "ationsh": 2756,
  "atite": 16455,
  "ative": 1640,
  "atively": 2436,
  "atives": 7860,
  "atlanto": 16459,
  "atlas": 12434,
  "ato": 6917,
  "atoid": 7859,
  "atology": 12433,
  "atom": 877,
  "atoma": 3565,
  "atomal": 19568,
  "atome": 5460,
  "atomembranous": 19569,
  "atomes": 3189,
  "atomical": 5185,
  "atomy": 2801,
  "atomyotome": 7608,
  "ator": 462,
  "atorenal": 7446,
  "ators": 13090,
  "atory": 1538,
  "atous": 7349,
  "atozoa": 7732,
  "atr": 4320,
  "atracheal": 14303,
  "atria": 14302,
  "atrial": 5249,
  "atrochlear": 4420,
  "ats": 16451,
  "attach": 16457,
  "attached": 4694,
  "atter": 12429,
  "attered": 12435,
  "atur": 6545,
  "atural": 12431,
  "ature": 1345,
  "atures": 2047,
  "aturia": 9099,
  "atus": 700,
  "atusSup": 13323,
  "au": 5667,
  "aud": 5092,
  "audad": 22798,
  "auditory": 22799,
  "ault": 5668,
  "aur": 7311,
  "aural": 15683,
  "auricular": 8369,
  "aus": 15679,
  "auscult": 15693,
  "auscultates": 25146,
  "ause": 799,
  "austra": 12159,
  "aut": 15680,
  "auterization": 15694,
  "autions": 15696,
  "autonomic": 25145,
  "av": 2263,
  "avage": 21363,
  "avaginal": 21364,
  "aval": 11323,
  "ave": 680,
  "avern": 5270,
  "avernous": 7233,
  "aves": 15681,
  "avic": 2504,
  "avicular": 2529,
  "aving": 4639,
  "avity": 5820,
  "aw": 15677,
  "away": 12155,
  "ax": 12153,
  "axia": 15692,
  "axial": 4677,
  "axilla": 7800,
  "axillary": 2532,
  "axis": 15695,
  "ay": 453,
  "ayed": 7999,
  "ayers": 10915,
  "ays": 1683,
  "azygos": 8455,
  "b": 57,
  "ba": 15698,
  "bab": 12162,
  "bably": 12168,
  "baby": 15094,
  "bac": 15702,
  "bach": 9275,
  "back": 6207,
  "backflow": 23139,
  "backward": 23138,
  "bag": 15709,
  "bal": 10397,
  "balance": 24183,
  "ball": 8457,
  "ballo": 14756,
  "ballooning": 24987,
  "balloons": 24986,
  "band": 12163,
  "bar": 15700,
  "barium": 15722,
  "basal": 15712,
  "base": 10400,
  "based": 12167,
  "basic": 15733,
  "basicervical": 25152,
  "basilar": 8459,
  "bd": 5432,
  "be": 5923,
  "beak": 23054,
  "bearing": 4679,
  "bec": 4678,
  "because": 15717,
  "become": 22662,
  "becomes": 14352,
  "beculae": 14353,
  "before": 15725,
  "beginning": 15726,
  "being": 14488,
  "bel": 7313,
  "believed": 23461,
  "bella": 12165,
  "bellar": 15721,
  "belly": 23460,
  "below": 10191,
  "ber": 2701,
  "bers": 6206,
  "bery": 12164,
  "bes": 10398,
  "best": 15708,
  "bet": 5669,
  "betes": 5899,
  "between": 7801,
  "bi": 15699,
  "biceps": 9277,
  "bicipital": 15727,
  "bicuspid": 15724,
  "bicuspids": 25151,
  "bil": 15705,
  "bilirubin": 25149,
  "bility": 9278,
  "bioscrotal": 15728,
  "bipennate": 15731,
  "birth": 6871,
  "bism": 15723,
  "bit": 6517,
  "bitis": 15716,
  "bl": 12160,
  "black": 24534,
  "bladder": 2505,
  "ble": 1957,
  "blepharosp": 21150,
  "blepharospasm": 26177,
  "blind": 24535,
  "blo": 15707,
  "bloating": 25150,
  "block": 12172,
  "blockages": 24539,
  "blocking": 15729,
  "blood": 9276,
  "blow": 15711,
  "blue": 15730,
  "bly": 15703,
  "bo": 12161,
  "board": 24537,
  "boat": 24536,
  "bock": 12166,
  "bodies": 15734,
  "body": 5434,
  "bodyABPosterior": 22907,
  "bon": 8456,
  "bone": 15706,
  "bony": 10402,
  "book": 12170,
  "bor": 6516,
  "borate": 11664,
  "border": 5433,
  "bore": 8458,
  "born": 10401,
  "borne": 14555,
  "bors": 15710,
  "both": 15713,
  "bound": 15714,
  "bow": 1555,
  "bowed": 20724,
  "bowing": 15715,
  "bowstr": 20725,
  "bowstrings": 26107,
  "box": 3834,
  "br": 1519,
  "brach": 8115,
  "brachial": 3638,
  "brachii": 9159,
  "brain": 2669,
  "brainstem": 15720,
  "bran": 522,
  "branch": 3871,
  "branchSuperior": 22314,
  "branches": 6033,
  "branchesEsophageal": 23102,
  "bre": 7312,
  "breathing": 15732,
  "brevis": 10190,
  "brevisTransverse": 24134,
  "brid": 20667,
  "brided": 20668,
  "bronch": 5561,
  "bronchial": 6486,
  "bronchialartery": 14550,
  "bucc": 9279,
  "buccal": 14836,
  "buccinator": 23951,
  "buccopharyngeal": 23950,
  "bucket": 15735,
  "bul": 9274,
  "bulb": 12169,
  "bulbar": 24538,
  "bulent": 23948,
  "bulky": 23949,
  "bur": 15704,
  "burg": 12171,
  "burn": 15719,
  "burs": 15718,
  "burst": 25148,
  "bus": 15701,
  "but": 10399,
  "buttock": 24184,
  "by": 3833,
  "bÃ©": 15736,
  "c": 58,
  "cache": 15746,
  "cachexia": 25159,
  "cal": 3742,
  "calc": 8461,
  "calcane": 15752,
  "calcaneal": 10413,
  "calcaneocuboid": 25162,
  "calcaneonavicular": 15769,
  "calcaneus": 15776,
  "calcified": 11796,
  "calculi": 23745,
  "calculus": 23744,
  "called": 9282,
  "canal": 15763,
  "cancer": 15785,
  "cap": 10404,
  "cape": 15759,
  "capsule": 15779,
  "car": 9280,
  "card": 6518,
  "cardiac": 15770,
  "caroticotympanic": 14837,
  "carp": 10411,
  "carpal": 10417,
  "carpometacarpal": 24187,
  "carpus": 23952,
  "carr": 12178,
  "carries": 24540,
  "carrying": 24541,
  "cartil": 3835,
  "cartilage": 7196,
  "cartilageLamina": 23423,
  "cartilageNasal": 23422,
  "cartilaginous": 14223,
  "cated": 15742,
  "caud": 10414,
  "cauda": 24188,
  "caudally": 24190,
  "caudate": 24189,
  "cave": 12176,
  "cavernous": 15773,
  "cavity": 10415,
  "cavityJunction": 24191,
  "cc": 339,
  "ccasionally": 3187,
  "ccess": 4576,
  "ccomp": 10854,
  "ccompan": 11938,
  "ce": 258,
  "cealed": 17534,
  "cealing": 17535,
  "ceased": 12830,
  "cecal": 10792,
  "ced": 1168,
  "ceiving": 17533,
  "cele": 9530,
  "cell": 10405,
  "cells": 15775,
  "cence": 15749,
  "cending": 3184,
  "cent": 4416,
  "cephal": 6276,
  "cephalus": 7259,
  "cept": 3526,
  "ceptual": 7636,
  "cer": 1623,
  "ceration": 20776,
  "cerebellar": 13758,
  "cerebrospinal": 20777,
  "cerebrum": 20778,
  "cers": 5436,
  "cerv": 15743,
  "cervical": 3273,
  "cervicofacial": 25157,
  "ces": 2185,
  "cess": 412,
  "cesses": 18284,
  "cetab": 2275,
  "ch": 202,
  "chCalcaneal": 17131,
  "chTuberosity": 17133,
  "chan": 1483,
  "change": 6385,
  "changed": 12710,
  "chanter": 2165,
  "chanteric": 4383,
  "chanters": 9827,
  "charged": 10723,
  "che": 2248,
  "ched": 5818,
  "cheek": 21341,
  "cheeks": 21342,
  "chemic": 21340,
  "chemical": 21343,
  "cher": 15747,
  "chers": 15784,
  "ches": 343,
  "chhikes": 17137,
  "chiasmatic": 10724,
  "child": 17129,
  "childbirth": 25452,
  "ching": 6270,
  "chiop": 12708,
  "chiopexy": 15171,
  "chle": 1253,
  "chlea": 2576,
  "chlear": 1673,
  "chn": 1464,
  "chnic": 2080,
  "choana": 17135,
  "choanae": 12709,
  "chocardiography": 17136,
  "cholang": 17132,
  "cholangiogram": 25453,
  "cholec": 17134,
  "cholecystitis": 25454,
  "chond": 4840,
  "chondral": 8284,
  "chondroses": 14377,
  "chorda": 17130,
  "chors": 17125,
  "chow": 12706,
  "chron": 17128,
  "chwan": 17138,
  "chyl": 17126,
  "chyle": 17127,
  "chylomicrons": 25451,
  "chym": 12707,
  "ci": 6208,
  "cid": 15738,
  "cide": 15744,
  "cience": 15766,
  "cies": 12174,
  "ciform": 15750,
  "cillation": 15777,
  "cin": 2745,
  "cinate": 4924,
  "cing": 4973,
  "cinoma": 3811,
  "cious": 3663,
  "circ": 15748,
  "circle": 25160,
  "circumflex": 15771,
  "cision": 15754,
  "cited": 15764,
  "ck": 4305,
  "cked": 15755,
  "cking": 10408,
  "cks": 10407,
  "cky": 22504,
  "cl": 1502,
  "cla": 15740,
  "clature": 9828,
  "clav": 5094,
  "clavicle": 15757,
  "clavicular": 4974,
  "clavicularligament": 14387,
  "clavicularligamentInterclavicularligament": 24941,
  "clavius": 22804,
  "clawed": 25155,
  "clawing": 15782,
  "cle": 1008,
  "clearing": 19780,
  "clera": 13713,
  "clerosis": 20628,
  "cles": 3115,
  "clesLingual": 21899,
  "clic": 15751,
  "click": 25161,
  "clin": 13712,
  "clinical": 24858,
  "clinically": 24859,
  "clip": 20624,
  "clitoris": 20625,
  "clock": 20626,
  "clockwise": 20629,
  "closed": 8112,
  "closing": 20627,
  "clot": 11215,
  "clotting": 15013,
  "cm": 10403,
  "cn": 3036,
  "cnemius": 3074,
  "co": 5924,
  "coagul": 11632,
  "coal": 23055,
  "coated": 23056,
  "coccy": 12177,
  "coccygeal": 15096,
  "coelom": 23058,
  "cohol": 9283,
  "coils": 23057,
  "col": 5093,
  "colic": 15761,
  "collateral": 11576,
  "collateralligament": 15038,
  "collateralligamentAnular": 25011,
  "collectively": 14395,
  "collic": 15758,
  "colloid": 22802,
  "colon": 15765,
  "colonoscopy": 25165,
  "colorectum": 22803,
  "colors": 22801,
  "cols": 22800,
  "column": 10088,
  "columnar": 24124,
  "columns": 24123,
  "comb": 15760,
  "come": 6874,
  "comm": 10412,
  "common": 10409,
  "comp": 8462,
  "compartment": 14757,
  "compatibility": 23748,
  "compound": 23746,
  "computed": 23747,
  "con": 4306,
  "concave": 22506,
  "concealed": 22507,
  "conchae": 15786,
  "cone": 5925,
  "coneus": 6491,
  "congenital": 12180,
  "coning": 14295,
  "connect": 7804,
  "connected": 11760,
  "connecting": 23593,
  "connective": 23594,
  "cons": 7802,
  "consisting": 23591,
  "constrict": 23590,
  "constrictive": 23592,
  "constrictor": 14689,
  "constrictorof": 15294,
  "cont": 3399,
  "contact": 22067,
  "containing": 14296,
  "contains": 22505,
  "continuation": 14297,
  "contraction": 11506,
  "contrast": 6789,
  "cop": 1424,
  "cor": 12173,
  "coracobrachialis": 15783,
  "cord": 12175,
  "cords": 15781,
  "coronary": 15095,
  "cose": 6875,
  "costal": 3214,
  "cough": 15753,
  "coughing": 25163,
  "covered": 10418,
  "covering": 12182,
  "covertebral": 14489,
  "cr": 6872,
  "cranial": 8460,
  "cranium": 15767,
  "creat": 15745,
  "creatine": 25158,
  "cribed": 12181,
  "cric": 10406,
  "cricoid": 24185,
  "cricovocal": 24186,
  "crip": 15772,
  "critical": 23331,
  "cro": 6873,
  "crosis": 15756,
  "cross": 7314,
  "crossed": 14650,
  "crowing": 15788,
  "cruciate": 11701,
  "crum": 7803,
  "crus": 14601,
  "crush": 24968,
  "ct": 154,
  "cting": 9454,
  "ction": 480,
  "ctiv": 4557,
  "ctomy": 10675,
  "ctopic": 6254,
  "ctor": 7907,
  "cu": 15737,
  "cuate": 10410,
  "cuatel": 25153,
  "cub": 15741,
  "cube": 25156,
  "cubital": 15774,
  "cuboid": 15768,
  "cul": 1664,
  "cular": 3037,
  "cule": 4530,
  "cules": 5804,
  "culomotor": 8126,
  "culosis": 13766,
  "culum": 5437,
  "cune": 15762,
  "cuneate": 25164,
  "cuneiform": 12179,
  "cup": 15739,
  "cupula": 25154,
  "currently": 15778,
  "curv": 15787,
  "cus": 1121,
  "cuss": 2805,
  "cussion": 14039,
  "cut": 5435,
  "cutaneous": 4112,
  "cutaneousnerve": 14257,
  "cuts": 22908,
  "cutting": 22909,
  "cy": 1138,
  "cyl": 9281,
  "cylinder": 10273,
  "cyst": 10416,
  "cystectomy": 15780,
  "cystitis": 24192,
  "cystoscope": 24193,
  "d": 59,
  "da": 10419,
  "dal": 5095,
  "dalek": 14396,
  "dam": 15794,
  "damaging": 25168,
  "danger": 12188,
  "dark": 15808,
  "day": 10422,
  "dd": 15789,
  "de": 547,
  "debr": 15815,
  "debridement": 25178,
  "dec": 15795,
  "decibel": 25169,
  "ded": 3664,
  "deep": 5170,
  "def": 7039,
  "deferens": 13206,
  "defined": 8360,
  "definition": 14625,
  "degree": 18747,
  "del": 15791,
  "deltoid": 6876,
  "deltopectoral": 25166,
  "den": 5096,
  "dense": 15805,
  "density": 9288,
  "dent": 4307,
  "dentate": 22508,
  "dentification": 7654,
  "dentifying": 6149,
  "dep": 12184,
  "dependent": 15816,
  "depress": 15097,
  "depressed": 25018,
  "der": 720,
  "derly": 5761,
  "derm": 15798,
  "dermatome": 25172,
  "dermatomes": 12187,
  "des": 9284,
  "descending": 10424,
  "descent": 15809,
  "described": 23953,
  "determination": 18746,
  "develop": 9659,
  "developed": 10292,
  "development": 18745,
  "dex": 2724,
  "deyer": 18748,
  "diaphragm": 15802,
  "diaphragmatic": 9286,
  "diast": 15803,
  "diastolic": 25176,
  "dience": 15807,
  "diencephalic": 25177,
  "digit": 8464,
  "digital": 10425,
  "dil": 15792,
  "dilation": 15810,
  "dilator": 25167,
  "dim": 10420,
  "dimensional": 14918,
  "dimer": 24194,
  "ding": 5271,
  "diplopia": 15817,
  "dish": 15813,
  "dist": 15797,
  "distal": 10423,
  "distance": 25171,
  "dition": 1013,
  "ditional": 5540,
  "ditionally": 5190,
  "diver": 15801,
  "diverticulitis": 25175,
  "divisions": 9287,
  "dle": 528,
  "dles": 12185,
  "dom": 359,
  "dome": 18062,
  "domen": 18063,
  "dominal": 2515,
  "dominated": 18064,
  "dominopelvic": 18065,
  "dor": 12183,
  "dors": 9285,
  "dorsal": 5926,
  "dorsalis": 23059,
  "dorsi": 14838,
  "dorsum": 14839,
  "dose": 7316,
  "double": 15814,
  "down": 6519,
  "downward": 14556,
  "drag": 15799,
  "dragging": 25173,
  "drainage": 15812,
  "draining": 10426,
  "dram": 15800,
  "dramnios": 25174,
  "drate": 15804,
  "dration": 15811,
  "dro": 3743,
  "drocele": 22243,
  "drocephalus": 22242,
  "drogenase": 22245,
  "drooping": 22244,
  "drop": 8238,
  "dry": 15806,
  "ds": 7315,
  "dub": 15793,
  "duc": 1839,
  "duce": 8463,
  "duced": 6727,
  "ducent": 3980,
  "ducing": 11262,
  "duct": 580,
  "ductal": 18888,
  "ducted": 18889,
  "duction": 1438,
  "ductive": 3481,
  "ductor": 990,
  "ductors": 18890,
  "ducts": 7475,
  "ductsLactiferous": 23511,
  "due": 10421,
  "duodenal": 4531,
  "dural": 3169,
  "during": 12186,
  "dy": 15790,
  "dys": 15796,
  "dysphag": 25170,
  "dysphagia": 26559,
  "e": 60,
  "eFig": 860,
  "eFigs": 13421,
  "ePial": 15835,
  "eTable": 10428,
  "eTables": 15833,
  "each": 12191,
  "eal": 1596,
  "ean": 12190,
  "ear": 423,
  "earchers": 18301,
  "eard": 10427,
  "eardrum": 11912,
  "earing": 4348,
  "earm": 873,
  "ears": 6020,
  "earwa": 18300,
  "earwax": 25692,
  "eated": 8467,
  "eating": 15821,
  "eatus": 15822,
  "eau": 15828,
  "eb": 530,
  "ebaceous": 10975,
  "eball": 18680,
  "ebellar": 8734,
  "ebellum": 18682,
  "ebr": 13182,
  "ebrae": 13183,
  "ebral": 4734,
  "ebrospinal": 8735,
  "ebrum": 18681,
  "ec": 297,
  "ecation": 17739,
  "ecause": 1829,
  "ecavity": 17740,
  "ecchym": 17743,
  "ecchymoses": 25563,
  "eceptors": 5998,
  "ecessary": 17744,
  "ech": 8466,
  "echn": 15824,
  "eciduous": 17742,
  "eck": 3417,
  "ecoming": 17741,
  "ect": 219,
  "ectasis": 10735,
  "ected": 5003,
  "ectineus": 17209,
  "ection": 968,
  "ectionInternal": 19715,
  "ections": 5715,
  "ectomy": 3051,
  "ectopic": 17210,
  "ectoral": 3008,
  "ectorial": 17211,
  "ectrum": 12726,
  "ecum": 12886,
  "ecurrent": 7417,
  "ed": 131,
  "edUp": 16701,
  "edal": 9433,
  "edded": 5696,
  "ede": 16695,
  "eded": 10632,
  "edema": 16699,
  "edge": 3942,
  "edged": 16700,
  "edial": 852,
  "edian": 2969,
  "edic": 5964,
  "edicular": 16698,
  "ediency": 16702,
  "eding": 2587,
  "edis": 16696,
  "edle": 10633,
  "edles": 10634,
  "eds": 4702,
  "educ": 16697,
  "education": 25369,
  "educed": 12536,
  "educt": 5695,
  "edundant": 10635,
  "eed": 15818,
  "een": 315,
  "eenth": 15834,
  "eenthorax": 25180,
  "eep": 1454,
  "eeth": 12192,
  "ef": 8465,
  "efferent": 15827,
  "efore": 5438,
  "eg": 2148,
  "eginning": 6409,
  "egmental": 6736,
  "eins": 3400,
  "ejaculatory": 15831,
  "ejun": 3077,
  "ejunum": 14095,
  "ek": 2920,
  "eks": 4020,
  "el": 173,
  "elSesamoid": 16925,
  "elae": 10694,
  "elanoma": 9475,
  "elastic": 6566,
  "elationsh": 4838,
  "elayed": 16924,
  "elbow": 16921,
  "ele": 15819,
  "elect": 9289,
  "electrocard": 23955,
  "electrocardiography": 26490,
  "electron": 23954,
  "eled": 7916,
  "elements": 15832,
  "elenburg": 12637,
  "elephant": 25179,
  "eleration": 7386,
  "elerations": 12636,
  "elev": 12194,
  "elevate": 15099,
  "elf": 2932,
  "elfth": 11412,
  "eliac": 2444,
  "elic": 10691,
  "elids": 16926,
  "elift": 16923,
  "eligament": 10692,
  "eligamentJoint": 24271,
  "elike": 16922,
  "elinated": 12635,
  "eling": 16916,
  "elitis": 12633,
  "ell": 436,
  "ella": 2272,
  "ellar": 2900,
  "ellate": 18330,
  "ellation": 10907,
  "elled": 9607,
  "ellent": 5740,
  "elline": 18331,
  "elling": 18328,
  "ellipsoid": 10908,
  "ello": 16919,
  "ellop": 10693,
  "ellow": 6021,
  "ells": 7445,
  "ellular": 6622,
  "ellum": 18329,
  "elly": 16917,
  "eloid": 16918,
  "elom": 12632,
  "elomic": 12634,
  "els": 8613,
  "eltoid": 3861,
  "elve": 5982,
  "elvic": 2295,
  "elvis": 16920,
  "em": 214,
  "ema": 3357,
  "emale": 17183,
  "eman": 17178,
  "ematous": 17184,
  "emb": 9502,
  "ember": 5486,
  "emble": 17179,
  "embolize": 24008,
  "embran": 549,
  "embrane": 7040,
  "embranous": 5751,
  "emed": 12720,
  "emell": 3467,
  "emellus": 14159,
  "emerge": 10734,
  "emia": 5485,
  "eminal": 1973,
  "eminim": 17185,
  "emitting": 17181,
  "emius": 3050,
  "emoral": 1858,
  "emoving": 17182,
  "empor": 17180,
  "emporal": 639,
  "emur": 10733,
  "en": 116,
  "enaf": 16504,
  "enal": 812,
  "enarrow": 16508,
  "enburg": 12461,
  "ence": 871,
  "enced": 12459,
  "encephalic": 8050,
  "encephalon": 7060,
  "ences": 3674,
  "ench": 5116,
  "enched": 16505,
  "enchym": 6476,
  "enchymal": 23230,
  "encing": 16502,
  "ency": 4034,
  "end": 332,
  "endal": 1608,
  "endation": 17871,
  "ended": 3186,
  "ending": 17870,
  "enditure": 17873,
  "endocrine": 12923,
  "endous": 12922,
  "endovascular": 17872,
  "endrocy": 10851,
  "ends": 12921,
  "endymal": 12924,
  "ene": 1907,
  "ened": 2965,
  "eneration": 12460,
  "energy": 10590,
  "enervation": 10589,
  "eness": 9399,
  "enestration": 16512,
  "eng": 1928,
  "enging": 11273,
  "ength": 9881,
  "enhancing": 16509,
  "eniae": 9401,
  "enign": 5288,
  "ening": 596,
  "eningeal": 5518,
  "eninges": 13257,
  "eningiomas": 18931,
  "eningitis": 11010,
  "enis": 12456,
  "enital": 9400,
  "enlarged": 16506,
  "enlargement": 9402,
  "enn": 6240,
  "ennate": 7257,
  "eno": 7868,
  "enogram": 16501,
  "enosis": 12458,
  "enous": 3457,
  "enpox": 16510,
  "enpub": 16507,
  "enpubisPubic": 25323,
  "ens": 316,
  "ensation": 6993,
  "ensations": 12898,
  "ense": 3852,
  "enses": 7968,
  "ensible": 17791,
  "ension": 2828,
  "ensional": 14042,
  "ensions": 4242,
  "ensitive": 17792,
  "ensity": 8672,
  "ensive": 10835,
  "ensor": 494,
  "ensory": 824,
  "enstick": 17793,
  "ent": 145,
  "enta": 10660,
  "ental": 2291,
  "entary": 10661,
  "ented": 8599,
  "enter": 823,
  "enteric": 8785,
  "enteries": 11068,
  "enterology": 19450,
  "entery": 13398,
  "entgen": 16789,
  "enth": 12572,
  "ential": 5699,
  "entially": 8600,
  "entilation": 16792,
  "ention": 4429,
  "entle": 7900,
  "ently": 2129,
  "entorium": 16790,
  "entral": 1038,
  "entrance": 16791,
  "entric": 805,
  "entricular": 1728,
  "ents": 913,
  "enu": 5949,
  "enude": 16503,
  "enular": 12457,
  "enulum": 5950,
  "enum": 1799,
  "enzene": 16511,
  "eoff": 15830,
  "eography": 15826,
  "eople": 12193,
  "eous": 15820,
  "ep": 223,
  "epage": 17230,
  "epar": 7942,
  "epatic": 17229,
  "epaxial": 17232,
  "epend": 4567,
  "ependent": 14329,
  "epending": 7663,
  "eper": 12733,
  "ephalic": 7805,
  "epicardium": 12735,
  "epicond": 5716,
  "epicondylar": 6826,
  "epicondyle": 14460,
  "epicondyleLateralepicondyle": 24944,
  "epid": 9508,
  "epididymal": 24010,
  "epididymis": 24009,
  "epidural": 14859,
  "epiece": 17233,
  "epig": 4841,
  "epigastric": 14378,
  "epiglottic": 5257,
  "epiglotticpart": 22854,
  "epine": 17228,
  "epineurium": 25476,
  "epiploic": 9509,
  "epithe": 12734,
  "epitheliumRound": 24636,
  "epression": 17231,
  "eprocess": 12736,
  "eps": 1057,
  "epspollicis": 19858,
  "ept": 1060,
  "eptal": 4716,
  "eption": 8069,
  "eptive": 11124,
  "eptives": 13524,
  "eptor": 19866,
  "eptors": 3375,
  "eptum": 9761,
  "equate": 9290,
  "er": 102,
  "era": 1239,
  "eral": 178,
  "erall": 5306,
  "erally": 5984,
  "erance": 16289,
  "erate": 12355,
  "eration": 6538,
  "erations": 12356,
  "erator": 16288,
  "erc": 4418,
  "erciliary": 22555,
  "erclap": 22556,
  "ere": 2171,
  "erebellar": 10537,
  "erect": 10536,
  "erectile": 24221,
  "erector": 24220,
  "ered": 7337,
  "eres": 1724,
  "erfic": 563,
  "erficial": 564,
  "erg": 4542,
  "erge": 10535,
  "ergic": 11523,
  "ergy": 5643,
  "eries": 9358,
  "erimp": 16291,
  "ering": 16286,
  "erinus": 6906,
  "erior": 167,
  "eriorbit": 7384,
  "eriorbita": 7748,
  "erm": 607,
  "erman": 18941,
  "ermanent": 18942,
  "ermatomes": 4601,
  "erminal": 4257,
  "ermis": 13258,
  "ermost": 6328,
  "ern": 7841,
  "erolateral": 3279,
  "eromedial": 4985,
  "erosis": 5283,
  "erotic": 8524,
  "erous": 16287,
  "errant": 12358,
  "erratus": 5684,
  "erred": 12357,
  "ers": 350,
  "ersRadiusWrist": 18003,
  "ershed": 12956,
  "ert": 868,
  "ertebra": 16290,
  "ertilization": 19553,
  "ertion": 7059,
  "ertips": 19552,
  "erts": 19551,
  "ertubercle": 13423,
  "erty": 7502,
  "erum": 12354,
  "erv": 309,
  "ervain": 12895,
  "ervation": 2373,
  "ervative": 12894,
  "erve": 9356,
  "erved": 4723,
  "erventilation": 17766,
  "erver": 9357,
  "ervical": 664,
  "erving": 9550,
  "ervoir": 10833,
  "ervous": 10832,
  "ery": 1745,
  "es": 111,
  "esNasal": 16447,
  "esam": 4548,
  "esamoid": 4950,
  "esare": 16445,
  "esaving": 16448,
  "esce": 16441,
  "escending": 5112,
  "escent": 6236,
  "escop": 10572,
  "ese": 16439,
  "esear": 16443,
  "esh": 7347,
  "esho": 16449,
  "eshoe": 25310,
  "esia": 12424,
  "eside": 7348,
  "esis": 12423,
  "eskin": 12425,
  "esmoses": 12428,
  "esoph": 5285,
  "esophageal": 6478,
  "esophagus": 10098,
  "esophagusAbdominal": 24126,
  "espiratory": 12426,
  "espite": 12427,
  "ess": 195,
  "essary": 17102,
  "essel": 464,
  "esselbach": 9617,
  "essels": 4053,
  "esser": 3006,
  "esses": 10717,
  "est": 324,
  "establis": 16446,
  "este": 16440,
  "ested": 8678,
  "esteem": 25309,
  "estern": 16442,
  "esthe": 2344,
  "esthesia": 11341,
  "esticular": 3605,
  "estinal": 1961,
  "esting": 6286,
  "estis": 17818,
  "estration": 16450,
  "esuperior": 16444,
  "et": 433,
  "etacarpal": 5505,
  "etatarsal": 7444,
  "etate": 18325,
  "eth": 1425,
  "ethmoidal": 6209,
  "etite": 18326,
  "etitive": 13063,
  "etium": 8713,
  "etr": 1638,
  "etrates": 9849,
  "etroperitoneal": 13064,
  "ets": 9606,
  "etus": 4349,
  "etween": 3450,
  "eu": 12189,
  "eur": 1923,
  "eurons": 5576,
  "eutic": 15098,
  "evelop": 15823,
  "even": 15825,
  "ever": 1709,
  "evit": 15829,
  "ex": 1093,
  "exFing": 19945,
  "examination": 19943,
  "except": 6689,
  "excited": 19946,
  "exed": 19941,
  "existing": 9765,
  "exp": 13542,
  "expulsion": 24814,
  "ext": 11136,
  "extended": 19944,
  "extension": 6690,
  "extensor": 6688,
  "external": 8073,
  "externus": 19942,
  "extorsion": 24374,
  "extra": 13544,
  "extracorpore": 19947,
  "extracorporeal": 25958,
  "extradural": 13545,
  "exy": 13543,
  "eye": 10429,
  "eyond": 12195,
  "ez": 1605,
  "f": 61,
  "face": 9291,
  "facet": 15847,
  "facial": 9295,
  "facing": 12201,
  "faction": 8469,
  "factory": 2702,
  "fal": 8468,
  "falc": 15843,
  "falcine": 25182,
  "fall": 10432,
  "fallopian": 14919,
  "false": 14758,
  "falx": 11797,
  "fan": 12197,
  "fascia": 12200,
  "fasciaIlioinguinalnerveIlioinguinal": 24543,
  "fast": 15840,
  "fat": 10430,
  "fate": 7806,
  "fatty": 24195,
  "fe": 12196,
  "fect": 1273,
  "fectively": 20305,
  "feeling": 24542,
  "fem": 15838,
  "femoral": 6520,
  "fer": 685,
  "ferences": 19164,
  "ferens": 3303,
  "ferent": 1363,
  "ferential": 20438,
  "ferentially": 11184,
  "ferents": 4062,
  "ferior": 760,
  "ferred": 4741,
  "fers": 10433,
  "ferson": 14920,
  "fert": 11040,
  "fertilization": 24352,
  "fever": 15845,
  "ffe": 15859,
  "fferent": 4680,
  "ffic": 15841,
  "ffort": 10437,
  "fib": 10431,
  "fibroid": 24197,
  "fibula": 24196,
  "fibular": 5671,
  "fic": 506,
  "fice": 18574,
  "ficiency": 10950,
  "ficient": 5513,
  "ficult": 3479,
  "field": 15848,
  "fifth": 8471,
  "fifths": 10239,
  "filled": 4975,
  "filledloop": 14388,
  "filledloops": 15288,
  "fine": 15839,
  "first": 10435,
  "fissure": 12199,
  "fit": 15837,
  "fits": 15842,
  "five": 10434,
  "fix": 15844,
  "fixed": 25183,
  "fizz": 15858,
  "fizzy": 25186,
  "fl": 15836,
  "flac": 15851,
  "flaccid": 25185,
  "flail": 15857,
  "flammatory": 15854,
  "flat": 15856,
  "flected": 12203,
  "flex": 1179,
  "flexed": 13582,
  "flexion": 8083,
  "flexionAxis": 23679,
  "flexor": 5547,
  "floor": 10436,
  "flow": 5439,
  "fluence": 12198,
  "fluid": 9296,
  "flutter": 25181,
  "fness": 9293,
  "fold": 7808,
  "foldPharyngealrecess": 23599,
  "folds": 23598,
  "fontanelles": 15855,
  "foot": 8470,
  "footplate": 23749,
  "for": 1684,
  "foramen": 5807,
  "foramenObturator": 23011,
  "forate": 20853,
  "forating": 6082,
  "forations": 20855,
  "forator": 20854,
  "force": 13772,
  "fore": 863,
  "forebrain": 19546,
  "form": 6877,
  "formation": 9294,
  "formed": 14602,
  "forming": 14603,
  "formula": 23332,
  "fornix": 11240,
  "fornixInternal": 24387,
  "fort": 3078,
  "fortunately": 4507,
  "forward": 5209,
  "fossa": 7807,
  "fossaLateral": 23595,
  "fossaSuprascapular": 23596,
  "fossaTympan": 23597,
  "four": 15846,
  "fourth": 25184,
  "fovea": 15850,
  "fr": 5670,
  "fracture": 11615,
  "free": 9292,
  "frey": 15860,
  "friction": 15853,
  "from": 2105,
  "front": 11614,
  "frontal": 15849,
  "ft": 310,
  "ften": 6600,
  "fter": 2089,
  "ful": 1685,
  "fully": 7560,
  "function": 5440,
  "fund": 2412,
  "funda": 8175,
  "fundibulum": 8900,
  "fundus": 9921,
  "fuse": 7317,
  "fusion": 4815,
  "fusions": 12202,
  "future": 15852,
  "g": 62,
  "gagn": 12215,
  "gain": 15870,
  "gal": 9299,
  "galea": 15883,
  "gan": 7809,
  "ganglia": 15869,
  "ganglion": 1044,
  "ganglionOtic": 19833,
  "ganglionic": 1067,
  "ganization": 10216,
  "gans": 9300,
  "gas": 12208,
  "gastritis": 24546,
  "gastrocnemius": 15877,
  "gastrointestinal": 15879,
  "gated": 15863,
  "gateway": 12214,
  "gative": 6880,
  "ge": 204,
  "geal": 477,
  "ged": 3451,
  "gemell": 10727,
  "gemelli": 24280,
  "gemellus": 14960,
  "gement": 17150,
  "gen": 1202,
  "genase": 20113,
  "gencies": 20114,
  "gency": 3309,
  "gener": 3884,
  "generative": 10021,
  "genicular": 7523,
  "genital": 2240,
  "genitofemoral": 11159,
  "gens": 15865,
  "gent": 4976,
  "ger": 9298,
  "gered": 15878,
  "germinal": 10440,
  "ges": 1710,
  "gest": 3744,
  "get": 17149,
  "gether": 1276,
  "geting": 17151,
  "geus": 2369,
  "gg": 6878,
  "ggia": 15875,
  "gh": 261,
  "ghen": 2848,
  "gia": 6210,
  "gic": 12207,
  "gical": 2609,
  "ging": 3079,
  "gional": 10441,
  "gist": 12210,
  "giving": 15873,
  "gkin": 9301,
  "gla": 7810,
  "gland": 10217,
  "glandLingual": 24141,
  "glands": 23600,
  "glans": 12212,
  "glaucoma": 23601,
  "glenohumeral": 15881,
  "gles": 15862,
  "globin": 15882,
  "gloss": 4977,
  "glossopharyngeal": 10439,
  "glossus": 6806,
  "gluteal": 8473,
  "gluteus": 9302,
  "gma": 12213,
  "gn": 864,
  "gnancy": 19548,
  "gnant": 19547,
  "gnetic": 3527,
  "gnosing": 19549,
  "gnosis": 4614,
  "go": 9297,
  "goiter": 23957,
  "gon": 12206,
  "gonal": 12211,
  "goose": 23956,
  "gor": 5672,
  "gory": 15868,
  "gow": 12209,
  "gr": 5927,
  "gra": 4681,
  "gracile": 23062,
  "gracilis": 23061,
  "grade": 5880,
  "gram": 4816,
  "grasp": 23060,
  "gre": 15861,
  "greater": 6522,
  "gree": 15867,
  "greenstick": 25187,
  "grind": 14490,
  "gro": 10438,
  "grooveLacrimal": 24198,
  "ground": 15866,
  "grow": 6521,
  "gs": 12204,
  "gthe": 15864,
  "gu": 12205,
  "guidance": 24545,
  "guided": 24544,
  "guinal": 783,
  "guing": 15876,
  "gular": 839,
  "gulate": 15872,
  "gulation": 8472,
  "gulatory": 15874,
  "gums": 15880,
  "gus": 6879,
  "gut": 2996,
  "guts": 21810,
  "gyr": 15871,
  "gyri": 25188,
  "h": 63,
  "haave": 15908,
  "hab": 7812,
  "hable": 15892,
  "half": 4417,
  "hallucis": 6523,
  "hallucislongus": 14557,
  "hallucislongusDorsalis": 24966,
  "ham": 7318,
  "hamstr": 9128,
  "hamstring": 14818,
  "hamstrings": 11839,
  "hanced": 15900,
  "hancing": 15904,
  "hand": 15891,
  "hang": 10443,
  "hangs": 24199,
  "happ": 15897,
  "hard": 10444,
  "has": 15886,
  "haustra": 15905,
  "have": 12219,
  "he": 99,
  "hea": 9352,
  "head": 3403,
  "heal": 16259,
  "health": 25257,
  "hearing": 16261,
  "heart": 12351,
  "heck": 9353,
  "hed": 2849,
  "hedema": 21710,
  "heel": 12350,
  "heeled": 16262,
  "helix": 9354,
  "helm": 12353,
  "hem": 5282,
  "hematoma": 14413,
  "hematuria": 11591,
  "hemical": 10097,
  "hemodialysis": 22865,
  "hemoptysis": 22866,
  "hen": 408,
  "henar": 4250,
  "henoid": 18278,
  "hep": 4688,
  "hepat": 11541,
  "hepatic": 5253,
  "hepatocytes": 24427,
  "hepatoduodenal": 24426,
  "hepatogastric": 24425,
  "her": 699,
  "heral": 1854,
  "here": 598,
  "herent": 5523,
  "heres": 2771,
  "heric": 16260,
  "herical": 8040,
  "herocy": 16263,
  "hers": 11047,
  "hery": 4874,
  "hes": 303,
  "heses": 7966,
  "hest": 1449,
  "hether": 4116,
  "hette": 12352,
  "heum": 6231,
  "heumatic": 23153,
  "hiatus": 10446,
  "hiatusDescendinggenicular": 24203,
  "hib": 15887,
  "hicle": 9303,
  "hid": 12218,
  "hidrosis": 15100,
  "hig": 10442,
  "high": 15889,
  "higher": 11913,
  "hikes": 15906,
  "hilar": 15895,
  "hinal": 8474,
  "hind": 12221,
  "hindbrain": 24548,
  "hinder": 15902,
  "hing": 2585,
  "hinged": 21560,
  "hip": 7811,
  "hist": 15890,
  "histamine": 25189,
  "hit": 12217,
  "hitchhikes": 24547,
  "hk": 12216,
  "hn": 15884,
  "ho": 5272,
  "hole": 22857,
  "homb": 2670,
  "homboid": 2743,
  "hood": 6814,
  "hook": 22858,
  "hooked": 22859,
  "hooks": 22860,
  "hor": 15885,
  "horn": 8476,
  "hot": 15888,
  "hour": 10447,
  "hout": 15893,
  "huber": 15896,
  "humeral": 8475,
  "humero": 15903,
  "humerus": 15894,
  "hump": 15898,
  "hunch": 15907,
  "hunchback": 25190,
  "hy": 4682,
  "hydrocele": 22666,
  "hyoglossus": 22663,
  "hyoid": 1089,
  "hyp": 10445,
  "hypaxial": 24200,
  "hyper": 11540,
  "hypercoagul": 24422,
  "hypercoagulable": 26514,
  "hyperhidrosis": 24423,
  "hypertension": 22665,
  "hyperthyroidism": 24424,
  "hypertrophy": 22664,
  "hypochondrium": 24201,
  "hypogastric": 15899,
  "hypoglossal": 15901,
  "hypothenar": 24202,
  "hyroid": 12220,
  "hysterectomy": 12222,
  "i": 64,
  "iCochlear": 15924,
  "ia": 257,
  "iability": 17531,
  "iable": 3228,
  "iably": 17532,
  "iac": 1128,
  "iacophrenic": 7075,
  "iad": 12828,
  "iae": 6591,
  "iaeOpening": 23261,
  "ial": 159,
  "ially": 1971,
  "ials": 16851,
  "ialysis": 16852,
  "ian": 566,
  "iand": 17530,
  "iang": 614,
  "iangle": 7477,
  "iangles": 18951,
  "iangular": 7044,
  "ianopia": 10996,
  "iant": 10448,
  "iants": 15921,
  "iaphragm": 2975,
  "iaphragmatic": 4392,
  "iaqueduct": 12829,
  "iar": 12223,
  "ias": 958,
  "iasm": 4153,
  "iasmatic": 10037,
  "iast": 2997,
  "iastinal": 3204,
  "iastinum": 1220,
  "iat": 5097,
  "iatal": 11577,
  "iate": 1597,
  "iated": 3837,
  "iately": 12225,
  "iates": 7813,
  "iatic": 1046,
  "iating": 5675,
  "iation": 3665,
  "iations": 6211,
  "iative": 15915,
  "iatric": 22805,
  "iatus": 2201,
  "iaxial": 6592,
  "iazygos": 4238,
  "ib": 169,
  "ibbus": 16888,
  "ibel": 16886,
  "ibi": 12613,
  "ibia": 5478,
  "ibial": 2719,
  "ibility": 9466,
  "ible": 646,
  "ibly": 16885,
  "ibr": 3225,
  "ibrium": 12614,
  "ibular": 633,
  "ibule": 6957,
  "ibulocochlear": 9467,
  "ibulopelvic": 12615,
  "ibulospinal": 16887,
  "ibulum": 4434,
  "ibut": 907,
  "ibutaries": 3063,
  "ibute": 2157,
  "ic": 123,
  "ica": 8564,
  "icae": 16601,
  "ical": 295,
  "icall": 12502,
  "ically": 980,
  "ican": 16595,
  "icard": 1410,
  "icardial": 9822,
  "icarditis": 13691,
  "icardium": 8839,
  "icate": 5291,
  "icated": 12503,
  "ication": 9416,
  "ications": 16599,
  "ice": 3458,
  "iceal": 16602,
  "iced": 7877,
  "iceps": 1274,
  "ices": 3343,
  "ich": 237,
  "iched": 8567,
  "icher": 16598,
  "ichiatus": 17380,
  "ichiatusEsophagealhiatus": 25502,
  "icial": 16597,
  "ician": 2562,
  "icians": 21544,
  "icinity": 16609,
  "icion": 10612,
  "icious": 12505,
  "iciously": 24603,
  "icipital": 6931,
  "icirc": 3939,
  "icircular": 4009,
  "icit": 16596,
  "icitis": 5467,
  "ick": 1388,
  "icking": 11190,
  "ickle": 13674,
  "icle": 2016,
  "icles": 3409,
  "iclosed": 16608,
  "ico": 9414,
  "icofacial": 16604,
  "icommunic": 16606,
  "icond": 2064,
  "icondylar": 13870,
  "icondyles": 21213,
  "icontract": 16607,
  "icose": 8566,
  "icranial": 12504,
  "icranium": 10613,
  "icroscopic": 16605,
  "ics": 9415,
  "iction": 16603,
  "icture": 16600,
  "icul": 1866,
  "icular": 949,
  "icularis": 2726,
  "iculate": 3152,
  "iculates": 13823,
  "iculi": 8142,
  "iculiLacrimal": 23684,
  "iculostriate": 13824,
  "iculotemporal": 4174,
  "iculum": 7358,
  "iculus": 4912,
  "icus": 3344,
  "icuspid": 5122,
  "icz": 8565,
  "id": 151,
  "idance": 4995,
  "idden": 12588,
  "iddle": 2294,
  "ide": 340,
  "ided": 1302,
  "idement": 12938,
  "idence": 4834,
  "ident": 1887,
  "ider": 2293,
  "idered": 21371,
  "ides": 840,
  "idetect": 10855,
  "idi": 10667,
  "idiaphragm": 9451,
  "idiary": 14952,
  "ididymis": 12587,
  "iding": 2821,
  "idious": 16828,
  "idirection": 9452,
  "idirectional": 10285,
  "idis": 5134,
  "idisc": 16829,
  "idity": 5975,
  "idium": 16826,
  "idline": 16827,
  "idly": 12585,
  "idne": 1314,
  "idney": 8831,
  "idor": 16824,
  "ids": 16823,
  "idst": 16825,
  "idual": 12586,
  "idulating": 16830,
  "iduous": 7904,
  "idus": 5700,
  "idway": 8602,
  "idym": 3757,
  "idymal": 22258,
  "idymis": 3915,
  "ie": 382,
  "iec": 15910,
  "iece": 13017,
  "iectasis": 15925,
  "ied": 1070,
  "ief": 9591,
  "iel": 3836,
  "ield": 4007,
  "ien": 6881,
  "ienbock": 14604,
  "ience": 4817,
  "iences": 15918,
  "iency": 7319,
  "iend": 15911,
  "iene": 15916,
  "ient": 381,
  "ientation": 8699,
  "iented": 18186,
  "ients": 3687,
  "ier": 2921,
  "ies": 254,
  "iescent": 17523,
  "iesis": 17522,
  "iesselbach": 10454,
  "iest": 12825,
  "iet": 6298,
  "ietal": 1560,
  "ietic": 18188,
  "ieto": 18187,
  "ietom": 10887,
  "ietomastoid": 11943,
  "iety": 4249,
  "ieve": 6299,
  "ieved": 4452,
  "iew": 527,
  "if": 344,
  "ifacet": 6606,
  "ifacetal": 17917,
  "ifacets": 10859,
  "ife": 10856,
  "ifer": 5728,
  "iferous": 6487,
  "ifest": 6288,
  "iffness": 9569,
  "ifiable": 10858,
  "ific": 842,
  "ifically": 7427,
  "ificance": 11072,
  "ificant": 1577,
  "ification": 3423,
  "ifications": 19498,
  "ifices": 19497,
  "ifidus": 17916,
  "ified": 2053,
  "ifies": 7426,
  "iflex": 4577,
  "iform": 1065,
  "ift": 5674,
  "ifth": 3764,
  "ifurc": 10857,
  "ifurcation": 11939,
  "ify": 3617,
  "ifying": 4578,
  "ig": 135,
  "igament": 333,
  "igamentAB": 17874,
  "igamentABBase": 25588,
  "igastric": 7890,
  "igated": 16722,
  "igel": 16721,
  "igeminal": 2017,
  "igested": 16725,
  "igger": 10642,
  "igh": 259,
  "ight": 306,
  "ighter": 12831,
  "ightliness": 17762,
  "ightly": 2466,
  "igial": 12545,
  "igid": 9435,
  "igin": 5697,
  "iginating": 9063,
  "igins": 16723,
  "igit": 6247,
  "igital": 5471,
  "iglottic": 16724,
  "iglottis": 5965,
  "igmoid": 2226,
  "ign": 882,
  "ignificant": 7504,
  "igod": 10640,
  "igone": 10641,
  "igorous": 16727,
  "igra": 9436,
  "igue": 8587,
  "igued": 16726,
  "igur": 8586,
  "ihood": 12229,
  "ii": 4532,
  "iitis": 15914,
  "iju": 15926,
  "ike": 2998,
  "ikes": 12227,
  "iking": 12226,
  "iky": 15927,
  "il": 177,
  "ilPalpebral": 16937,
  "ila": 8616,
  "ilar": 1188,
  "ilated": 10697,
  "ilateral": 2250,
  "ilation": 6568,
  "ilatory": 12642,
  "ilay": 16936,
  "ild": 2445,
  "ile": 803,
  "ileal": 11061,
  "ilection": 19399,
  "iled": 8617,
  "ileptic": 13381,
  "ilevel": 19400,
  "ilhelm": 16938,
  "ili": 458,
  "ilia": 9478,
  "iliac": 3554,
  "iliacus": 22169,
  "iliary": 1754,
  "ilibrium": 12643,
  "ilic": 4438,
  "ilical": 16935,
  "ilii": 13087,
  "iline": 12640,
  "iliohypogastric": 18399,
  "ilion": 10696,
  "iliopsoas": 13088,
  "ilit": 3288,
  "ilitating": 22004,
  "ilitation": 8216,
  "ilities": 9479,
  "ility": 1788,
  "ilium": 18398,
  "iliz": 2321,
  "ilization": 6412,
  "ilize": 13924,
  "ilized": 8168,
  "ilizes": 21384,
  "ilk": 9477,
  "ill": 398,
  "illa": 757,
  "illae": 5526,
  "illar": 8704,
  "illaries": 7016,
  "illary": 542,
  "illation": 8705,
  "illed": 4584,
  "illedema": 22625,
  "iller": 18254,
  "illes": 12641,
  "illi": 13032,
  "illin": 18255,
  "illing": 13033,
  "illis": 7986,
  "illoma": 18257,
  "illothalamic": 13034,
  "illumination": 13035,
  "illus": 18256,
  "ilm": 16933,
  "ils": 6959,
  "iltr": 16934,
  "iltration": 7918,
  "iltrum": 8618,
  "ilum": 3289,
  "ilunar": 4559,
  "ily": 1122,
  "im": 201,
  "ima": 5986,
  "imal": 1192,
  "imally": 17117,
  "imarily": 17119,
  "imary": 8635,
  "imate": 7932,
  "imated": 12703,
  "imately": 2624,
  "imatter": 17124,
  "imb": 7931,
  "imber": 17120,
  "imbing": 11768,
  "imbr": 7395,
  "ime": 2251,
  "imembran": 4440,
  "imembranosus": 4520,
  "imen": 12702,
  "imentary": 7814,
  "imes": 2933,
  "imesenteric": 21781,
  "imeters": 21346,
  "imilar": 4231,
  "imilarly": 4665,
  "iminim": 17123,
  "imm": 12701,
  "immed": 12704,
  "immer": 17122,
  "immunotherapy": 24633,
  "imp": 10721,
  "impar": 17121,
  "importantly": 24279,
  "impulse": 24278,
  "imulation": 10722,
  "imus": 2230,
  "imuscle": 12705,
  "imuscles": 17118,
  "in": 103,
  "ina": 918,
  "inaRight": 19626,
  "inal": 209,
  "inally": 3947,
  "inance": 16297,
  "inant": 1967,
  "inants": 21156,
  "inar": 7843,
  "inary": 2387,
  "inase": 10540,
  "inat": 10538,
  "inata": 16310,
  "inate": 4689,
  "inated": 4027,
  "inates": 7844,
  "inating": 12361,
  "ination": 1244,
  "inations": 7845,
  "inative": 16301,
  "inator": 2311,
  "inatus": 2312,
  "inc": 1665,
  "ince": 7338,
  "incepspollicis": 20799,
  "incis": 11236,
  "incisive": 15015,
  "incisor": 24386,
  "including": 11237,
  "incus": 16298,
  "ind": 952,
  "inder": 6908,
  "index": 10542,
  "inding": 6352,
  "indrical": 5770,
  "indrically": 19682,
  "induced": 19681,
  "ine": 238,
  "ineIncisors": 17383,
  "inePect": 17382,
  "inePectenpubisPubic": 25503,
  "inea": 12792,
  "ineae": 5995,
  "ineal": 2896,
  "ineate": 17381,
  "ined": 1285,
  "inence": 2850,
  "inences": 9362,
  "inent": 10539,
  "inergic": 16316,
  "inery": 16304,
  "ines": 4117,
  "iness": 6907,
  "inessman": 23346,
  "ineus": 3547,
  "inf": 7842,
  "infection": 23608,
  "inferior": 4219,
  "inferiorly": 14273,
  "inflammatory": 11763,
  "inflate": 23609,
  "infor": 16303,
  "infr": 7846,
  "infraspinatus": 23610,
  "infratemporal": 9146,
  "infund": 16306,
  "infundibulopelvic": 25266,
  "infundibulum": 16313,
  "ing": 146,
  "inge": 3541,
  "inged": 16794,
  "inges": 16793,
  "inging": 12573,
  "ingiv": 2891,
  "ingiva": 8932,
  "ingle": 1867,
  "ings": 1643,
  "ingual": 1431,
  "inguinal": 3047,
  "ingula": 7901,
  "inhib": 16318,
  "ini": 2417,
  "iniferous": 9363,
  "iniform": 7339,
  "inim": 12359,
  "ining": 3119,
  "inis": 2287,
  "initially": 16315,
  "inition": 12360,
  "initive": 16308,
  "inity": 16296,
  "inizing": 16307,
  "ink": 16292,
  "inked": 16299,
  "inking": 9361,
  "inlet": 12362,
  "inletBCD": 24577,
  "inner": 16300,
  "innervated": 12364,
  "innervation": 12363,
  "inning": 5941,
  "inol": 16295,
  "inopathy": 10543,
  "inopelvic": 7847,
  "inoper": 16311,
  "inosa": 16302,
  "inosus": 3843,
  "inotransversales": 16314,
  "inous": 919,
  "ins": 391,
  "insertion": 18239,
  "inset": 16312,
  "insic": 1648,
  "insuf": 18238,
  "insufficiency": 25678,
  "int": 1796,
  "inter": 3002,
  "interarytenoid": 14083,
  "intercarpal": 21814,
  "intercostal": 5847,
  "intercr": 21813,
  "intercrural": 26277,
  "interhem": 21812,
  "interhemispheric": 26276,
  "interm": 16305,
  "intermediate": 21811,
  "intermittent": 25265,
  "internal": 9360,
  "internus": 10541,
  "interosseous": 5607,
  "intestinal": 2028,
  "inth": 2224,
  "inting": 13805,
  "into": 9359,
  "intorsion": 20989,
  "intracerebral": 16317,
  "intrinsic": 16309,
  "introitus": 13806,
  "inu": 5454,
  "inum": 16294,
  "inus": 691,
  "invasive": 16319,
  "inx": 16293,
  "io": 2385,
  "ioc": 3080,
  "iocalcaneal": 11425,
  "iocavern": 8206,
  "iocavernosus": 8410,
  "iocephalic": 9304,
  "ioclavicular": 4929,
  "iod": 4021,
  "iofemoral": 10452,
  "iog": 15912,
  "ioglossus": 5098,
  "iogram": 8477,
  "iograph": 3116,
  "iography": 9305,
  "iohyoid": 4089,
  "ioles": 15919,
  "iolog": 10450,
  "iologic": 24204,
  "iological": 15917,
  "iologist": 10453,
  "iologists": 14921,
  "iolus": 4022,
  "iomas": 12230,
  "iomediastinal": 15920,
  "iometr": 15923,
  "iometry": 25191,
  "ion": 143,
  "ional": 4992,
  "ionavicular": 10659,
  "ions": 650,
  "ionuc": 6949,
  "ionucl": 7276,
  "iop": 2186,
  "iopancreat": 9907,
  "iopaque": 21270,
  "iopathic": 21271,
  "ioplasty": 15922,
  "iopubic": 4498,
  "ior": 134,
  "ioradial": 3347,
  "ioradialis": 3389,
  "ioradialisBranch": 22061,
  "iorespiratory": 12544,
  "ios": 1823,
  "iosclerosis": 21022,
  "ioscro": 7565,
  "ioscrotal": 7753,
  "iosis": 10449,
  "iost": 15913,
  "ioste": 3151,
  "iosum": 4084,
  "iosus": 4773,
  "iotic": 4533,
  "ious": 1490,
  "iov": 2814,
  "iovascular": 6113,
  "ioventricular": 3435,
  "ip": 357,
  "ipares": 18055,
  "ipated": 18051,
  "ipation": 18050,
  "ipectoral": 4451,
  "iped": 12970,
  "ipennate": 9577,
  "iph": 12224,
  "ipheral": 5502,
  "iphoid": 3666,
  "ipit": 4450,
  "ipital": 1141,
  "ipitofrontalis": 22571,
  "ipitomastoidsuture": 22572,
  "iplan": 18054,
  "iplate": 18056,
  "iple": 2467,
  "iplinary": 18058,
  "iplo": 5730,
  "iploic": 6488,
  "iplop": 12971,
  "iplopia": 15199,
  "iploÃ«": 14461,
  "ipment": 18049,
  "ipolar": 9576,
  "ipose": 18053,
  "ipping": 8689,
  "ipronated": 18057,
  "ips": 1860,
  "ipsoid": 8867,
  "ipsy": 21066,
  "iput": 18052,
  "ique": 2284,
  "iques": 5099,
  "iquet": 7586,
  "iquetrum": 8895,
  "iquid": 12228,
  "ir": 260,
  "iral": 4132,
  "iration": 6983,
  "irc": 853,
  "ircase": 19524,
  "irchow": 12832,
  "irculated": 19525,
  "ircum": 5766,
  "ircumflex": 6177,
  "ird": 995,
  "ire": 473,
  "irect": 3619,
  "irection": 8721,
  "ired": 1603,
  "irenal": 17538,
  "ires": 6982,
  "iretina": 18498,
  "iretinal": 18497,
  "iriform": 1859,
  "iriformis": 2014,
  "iring": 17537,
  "iris": 17536,
  "irm": 3229,
  "iro": 15909,
  "irrh": 4718,
  "irrhosis": 4953,
  "irrup": 17539,
  "irst": 930,
  "irth": 3129,
  "irting": 17540,
  "irubin": 6984,
  "is": 117,
  "isMedial": 12465,
  "isPubic": 10593,
  "isVisceral": 16520,
  "isanterior": 16519,
  "isanteriorOrigin": 25325,
  "isc": 1998,
  "iscal": 11281,
  "iscera": 11282,
  "isceral": 2911,
  "isch": 16514,
  "ische": 13856,
  "ischemia": 24882,
  "ischemic": 24881,
  "isci": 8881,
  "iscus": 2644,
  "ise": 1456,
  "ised": 2925,
  "isel": 16513,
  "isensory": 16518,
  "ises": 4422,
  "isfactory": 10592,
  "ish": 8553,
  "ished": 12466,
  "isiform": 3853,
  "ising": 4550,
  "isinter": 12467,
  "isinterp": 15127,
  "ision": 1353,
  "isional": 20425,
  "isions": 2063,
  "isite": 16517,
  "isitely": 25324,
  "isition": 16515,
  "isk": 12462,
  "ism": 3405,
  "ismajor": 22072,
  "isms": 7869,
  "ismuscleLateral": 16522,
  "isnomer": 16523,
  "isons": 16516,
  "isotop": 10594,
  "isotope": 11924,
  "isp": 2345,
  "ispedis": 21404,
  "ispheric": 21403,
  "ispinal": 5463,
  "ispinalis": 5652,
  "ispl": 13929,
  "isposterior": 11342,
  "isposteriorOrigin": 24396,
  "iss": 442,
  "issary": 7996,
  "issau": 18347,
  "issection": 18346,
  "issimus": 2831,
  "ission": 5020,
  "issions": 18345,
  "issural": 10911,
  "issure": 5162,
  "issures": 9612,
  "ist": 451,
  "ista": 4035,
  "istal": 2966,
  "isted": 10914,
  "isten": 18354,
  "istent": 8716,
  "istently": 13075,
  "isthesis": 12468,
  "isthmus": 10591,
  "istic": 3675,
  "istically": 14191,
  "istinct": 16521,
  "isting": 4588,
  "istorically": 18355,
  "istr": 12464,
  "ists": 2864,
  "isual": 3606,
  "isualizing": 3912,
  "isy": 12463,
  "it": 130,
  "ital": 460,
  "itantes": 16692,
  "itary": 10629,
  "itated": 16685,
  "itating": 9430,
  "itation": 5469,
  "itations": 16689,
  "itching": 10631,
  "ite": 656,
  "itec": 16687,
  "itect": 6935,
  "itecture": 14611,
  "ited": 4328,
  "itend": 3754,
  "itendinosus": 3914,
  "iter": 5673,
  "ites": 3461,
  "ith": 193,
  "ithe": 3345,
  "ithelial": 22045,
  "ither": 1252,
  "ithin": 3128,
  "ithorax": 17011,
  "ithotomy": 17013,
  "ithromb": 17012,
  "itia": 8582,
  "itial": 5468,
  "itially": 9431,
  "itic": 7360,
  "itical": 5963,
  "itically": 16688,
  "iticeal": 14653,
  "ities": 1101,
  "iting": 5128,
  "ition": 383,
  "itional": 7984,
  "itioner": 7983,
  "itis": 1482,
  "itium": 12535,
  "itiv": 9429,
  "itive": 2968,
  "itively": 16690,
  "itivity": 10283,
  "itofemoral": 4038,
  "itone": 879,
  "itoneal": 8793,
  "itoneum": 9726,
  "itor": 814,
  "itoral": 8583,
  "itoris": 1649,
  "itorum": 1330,
  "itorumbrevis": 19442,
  "itory": 4066,
  "itorymeatus": 19441,
  "itour": 10630,
  "itral": 5470,
  "itrate": 16691,
  "itron": 7887,
  "itrons": 16694,
  "its": 955,
  "itsARib": 19690,
  "itt": 1385,
  "ittal": 1749,
  "itted": 4077,
  "ittent": 7538,
  "itting": 4758,
  "ittle": 1901,
  "ituated": 16693,
  "itud": 1764,
  "itude": 9432,
  "itudinal": 1777,
  "iture": 16686,
  "itus": 5962,
  "ity": 296,
  "itymp": 6991,
  "itympanic": 7278,
  "ium": 594,
  "iumPubisPubic": 18930,
  "iureter": 15928,
  "ius": 658,
  "iv": 387,
  "ival": 6300,
  "ivary": 3418,
  "ivational": 13018,
  "ive": 378,
  "ived": 2447,
  "ively": 1195,
  "iven": 5016,
  "iventricular": 8700,
  "iver": 2558,
  "ivers": 10451,
  "ivertebra": 11374,
  "ives": 1210,
  "ivid": 2679,
  "iving": 4453,
  "ivision": 18195,
  "ivisions": 7011,
  "ivocochlear": 18196,
  "ivot": 6615,
  "ivus": 6614,
  "ivusJugular": 23274,
  "ix": 1045,
  "ixCecum": 19834,
  "ixCecumHaustra": 25941,
  "iz": 561,
  "izable": 13217,
  "ization": 1935,
  "izations": 13218,
  "ize": 1678,
  "ized": 1366,
  "izes": 6644,
  "izing": 2866,
  "izontal": 1694,
  "izz": 10991,
  "j": 65,
  "jac": 771,
  "jacent": 827,
  "jaculation": 13362,
  "jaculatory": 9711,
  "je": 6882,
  "ject": 777,
  "jecting": 6664,
  "jections": 13365,
  "jective": 19330,
  "jects": 19329,
  "jejun": 8478,
  "jejunal": 9163,
  "jo": 10455,
  "join": 7815,
  "joined": 23602,
  "joint": 6883,
  "jor": 509,
  "ju": 12231,
  "jugular": 5676,
  "jun": 2480,
  "junctiv": 4783,
  "jur": 9306,
  "just": 5100,
  "k": 66,
  "kable": 6884,
  "kart": 15929,
  "ke": 709,
  "ked": 1427,
  "keeper": 19193,
  "kel": 12233,
  "keletal": 4608,
  "ken": 4683,
  "kene": 8480,
  "ker": 10456,
  "keratinized": 14922,
  "kes": 3745,
  "ket": 10457,
  "kethand": 19194,
  "kidne": 15932,
  "kidney": 15934,
  "kidneys": 25192,
  "kiew": 8479,
  "kill": 15930,
  "kin": 3215,
  "king": 1491,
  "kins": 12234,
  "kle": 1455,
  "kles": 6524,
  "kling": 15933,
  "knee": 9307,
  "knees": 12235,
  "kneesmove": 24549,
  "known": 15935,
  "ks": 1338,
  "kull": 6212,
  "ky": 12232,
  "kyl": 15931,
  "l": 67,
  "la": 233,
  "label": 17364,
  "labeled": 25498,
  "labioscrotal": 17366,
  "lac": 7320,
  "lace": 15940,
  "lacrimal": 10462,
  "lact": 15945,
  "lactin": 8370,
  "lad": 1017,
  "ladder": 1026,
  "lade": 10762,
  "laden": 19783,
  "lagen": 17362,
  "lail": 10761,
  "lamed": 12783,
  "lamina": 17367,
  "lamm": 6976,
  "lammation": 11709,
  "lammatory": 10178,
  "lan": 1937,
  "lanchnic": 2168,
  "lanchnicnerves": 21261,
  "landular": 17365,
  "lans": 2223,
  "lanto": 7130,
  "lants": 15960,
  "lap": 3469,
  "lapar": 17363,
  "laparotomy": 25497,
  "laps": 5994,
  "lapse": 6443,
  "lapsed": 11637,
  "laque": 12782,
  "large": 6526,
  "larged": 10463,
  "largement": 6838,
  "laryngeal": 7321,
  "las": 3038,
  "lass": 12239,
  "last": 15946,
  "lasts": 25193,
  "lat": 10459,
  "late": 9308,
  "lated": 5102,
  "lateral": 1606,
  "laterally": 13754,
  "lation": 9309,
  "latively": 15956,
  "lav": 999,
  "lavic": 1076,
  "lavicle": 1578,
  "lavicular": 2024,
  "lavicularligament": 21178,
  "lavipectoral": 4475,
  "lawing": 10763,
  "lay": 6975,
  "layered": 10177,
  "lays": 12781,
  "lbow": 9311,
  "ld": 10458,
  "lder": 15949,
  "lderly": 15958,
  "le": 132,
  "leRib": 16705,
  "leading": 12539,
  "learly": 9434,
  "leasing": 12540,
  "least": 16704,
  "lebitis": 16712,
  "lec": 3123,
  "lecranon": 3997,
  "lect": 2617,
  "lected": 8184,
  "lecting": 21577,
  "lection": 4425,
  "lectively": 7160,
  "lectomy": 21578,
  "leculae": 21901,
  "led": 5101,
  "ledge": 6527,
  "leeding": 7888,
  "leeds": 12538,
  "leen": 2563,
  "left": 4703,
  "legia": 8585,
  "legs": 16710,
  "leid": 2366,
  "leidomastoid": 2381,
  "lel": 2927,
  "lementary": 16707,
  "lementation": 16711,
  "lements": 10636,
  "lemovement": 16708,
  "lemovementElevation": 25370,
  "len": 1139,
  "lengthe": 20000,
  "lengthening": 25971,
  "lenic": 6693,
  "lenius": 8076,
  "lenohumeral": 11143,
  "lenoid": 3883,
  "lenomegal": 11144,
  "lenomegaly": 11962,
  "lens": 15943,
  "leocecal": 16706,
  "leptic": 16709,
  "ler": 15936,
  "les": 249,
  "less": 6525,
  "lesser": 9312,
  "let": 844,
  "letal": 1765,
  "lete": 1969,
  "letely": 21157,
  "letes": 9719,
  "letic": 16703,
  "leting": 8787,
  "leton": 3487,
  "lets": 3486,
  "leum": 12537,
  "leural": 6555,
  "lev": 6246,
  "levation": 7258,
  "levator": 7361,
  "level": 6936,
  "levelLeft": 23361,
  "levels": 23360,
  "lex": 304,
  "lexus": 546,
  "lexuses": 18744,
  "ley": 8584,
  "lfactory": 7816,
  "li": 482,
  "lia": 15941,
  "lial": 4308,
  "lic": 1106,
  "lication": 8806,
  "lid": 15939,
  "liding": 12242,
  "lie": 5441,
  "lied": 1976,
  "lier": 9630,
  "lies": 1003,
  "liesthe": 19778,
  "life": 15963,
  "lifer": 12243,
  "lig": 15938,
  "ligament": 3838,
  "ligamentCoracohumeral": 22300,
  "ligamentFascial": 22299,
  "ligamentLong": 22296,
  "ligamentPatellar": 22298,
  "ligamentPosteriortalofibular": 22301,
  "ligamentTibia": 22297,
  "ligamentTibiaMedialmalleolusLateralmalleolusLateral": 26339,
  "ligamentof": 22295,
  "ligaments": 14224,
  "light": 9310,
  "like": 1437,
  "likely": 20544,
  "lim": 12237,
  "limited": 24550,
  "linary": 15955,
  "line": 835,
  "lined": 5442,
  "lines": 15957,
  "liness": 15959,
  "ling": 4978,
  "lingual": 2999,
  "lip": 15944,
  "lipping": 15961,
  "lipsoid": 12244,
  "lique": 957,
  "liquus": 9631,
  "lis": 3216,
  "list": 15947,
  "listening": 25194,
  "literative": 18502,
  "little": 15954,
  "lium": 3620,
  "liumRound": 22194,
  "liver": 18501,
  "lives": 10935,
  "lix": 7026,
  "ll": 1492,
  "lled": 4165,
  "lling": 7545,
  "lm": 12236,
  "lo": 317,
  "loaded": 17797,
  "loading": 12900,
  "lob": 4573,
  "lobin": 14334,
  "lobulesLymphatic": 22616,
  "loc": 1809,
  "local": 12241,
  "localized": 24551,
  "located": 21008,
  "locations": 21009,
  "lock": 7127,
  "lockage": 10181,
  "locking": 8134,
  "lod": 10460,
  "logical": 3474,
  "logist": 12901,
  "loglossus": 17796,
  "lohyoid": 1889,
  "loid": 15942,
  "loin": 10461,
  "long": 3274,
  "longed": 11438,
  "longitudinal": 11439,
  "longus": 5614,
  "longusOrigin": 14449,
  "lood": 599,
  "loop": 12899,
  "loor": 997,
  "loose": 17794,
  "lop": 792,
  "lopharyngeus": 9551,
  "lor": 6885,
  "lore": 12240,
  "losed": 15951,
  "loss": 964,
  "lossopharyngeal": 2331,
  "lot": 2042,
  "lott": 2526,
  "lottic": 4381,
  "lottis": 3029,
  "low": 579,
  "lower": 7474,
  "lowest": 18887,
  "loyed": 17795,
  "lu": 345,
  "lub": 12238,
  "lucent": 9570,
  "lucose": 6999,
  "lude": 6009,
  "luded": 5155,
  "ludes": 10860,
  "luding": 7429,
  "lue": 8683,
  "luence": 3950,
  "luid": 7428,
  "lumb": 15948,
  "lumbar": 5928,
  "lumbarization": 23063,
  "lumborum": 25195,
  "lumbrical": 15962,
  "lumbricals": 25196,
  "lumen": 15964,
  "lung": 15950,
  "lunt": 15952,
  "luoroscopy": 17918,
  "lus": 15937,
  "lusion": 15953,
  "lute": 750,
  "luteal": 7055,
  "luteus": 4745,
  "lux": 6008,
  "ly": 149,
  "lyaway": 16810,
  "lyc": 12581,
  "lyhy": 16809,
  "lying": 1841,
  "lyings": 16807,
  "lymp": 16808,
  "lymph": 4555,
  "lymphatic": 9007,
  "lymphedema": 25394,
  "lymphoma": 22608,
  "m": 68,
  "ma": 4534,
  "maGran": 22595,
  "mac": 15966,
  "macroadenoma": 25198,
  "made": 12253,
  "magn": 15991,
  "main": 10467,
  "mainly": 14925,
  "major": 12251,
  "mak": 15981,
  "makes": 25203,
  "mal": 15965,
  "males": 15989,
  "malignant": 15996,
  "mall": 3528,
  "malle": 5443,
  "malleolar": 10106,
  "malleolus": 8303,
  "malleolusLateral": 11782,
  "malleolusMedialTuberosity": 23696,
  "malleus": 11602,
  "malnutrition": 25197,
  "man": 5929,
  "mandible": 9316,
  "mandibular": 2264,
  "mann": 14491,
  "mar": 1090,
  "margin": 15994,
  "marginal": 15990,
  "mariju": 19940,
  "marijuana": 25957,
  "markable": 7072,
  "marked": 19939,
  "marrow": 19938,
  "mary": 5930,
  "mas": 4818,
  "mass": 15970,
  "massages": 25201,
  "masseter": 14374,
  "mastoid": 15979,
  "mat": 8481,
  "matic": 5273,
  "matical": 14760,
  "mation": 15969,
  "matism": 23750,
  "matozoa": 12256,
  "matr": 12252,
  "matrix": 15101,
  "matter": 14759,
  "mature": 15980,
  "maul": 22594,
  "maxilla": 14325,
  "maxillary": 10468,
  "may": 12248,
  "mb": 6213,
  "me": 1284,
  "meatusSup": 13636,
  "med": 781,
  "medi": 982,
  "medial": 3630,
  "median": 13369,
  "mediate": 2907,
  "mediately": 1162,
  "medulla": 19354,
  "mell": 10466,
  "membrane": 7324,
  "membraneMandibular": 23463,
  "men": 6215,
  "meningeal": 9314,
  "meninges": 15995,
  "menisci": 14520,
  "ment": 185,
  "mental": 3355,
  "mentary": 6963,
  "mentation": 12662,
  "mented": 5712,
  "ments": 652,
  "mentum": 10702,
  "mer": 6214,
  "mera": 5932,
  "mes": 10465,
  "mesenteric": 24206,
  "mesenteries": 14924,
  "met": 12247,
  "metacarpal": 7323,
  "metacarpalarteries": 11736,
  "metacarpalarteriesDeep": 24458,
  "metacarpals": 23462,
  "metatarsal": 15992,
  "metic": 11175,
  "mework": 3310,
  "mia": 4023,
  "mic": 1383,
  "mical": 15972,
  "micturition": 11189,
  "mid": 7322,
  "midbrain": 11735,
  "middle": 6216,
  "midline": 11734,
  "mig": 15967,
  "migrate": 25199,
  "mild": 15985,
  "mill": 15973,
  "millary": 15975,
  "min": 9313,
  "mina": 15978,
  "minor": 23958,
  "minus": 15977,
  "minusPosteriorcomm": 25202,
  "mission": 12254,
  "mit": 12245,
  "mitters": 24552,
  "mm": 1853,
  "mmon": 15974,
  "mo": 3170,
  "moc": 15971,
  "moclavicular": 12257,
  "mod": 15968,
  "moderator": 25200,
  "mohyoid": 4651,
  "moid": 953,
  "molars": 10469,
  "mom": 7817,
  "mon": 465,
  "monary": 1016,
  "mond": 4684,
  "monella": 18402,
  "mong": 7818,
  "monis": 13094,
  "mooth": 6765,
  "more": 4113,
  "moregulation": 14258,
  "moregulatory": 22413,
  "mos": 12246,
  "moses": 12250,
  "mosp": 15988,
  "most": 2784,
  "mother": 15983,
  "motor": 12249,
  "mount": 15984,
  "mounted": 25204,
  "mouth": 15987,
  "move": 5677,
  "movement": 8313,
  "moving": 9315,
  "mp": 2881,
  "mped": 15986,
  "mph": 3667,
  "mportant": 3815,
  "ms": 2746,
  "muc": 5931,
  "much": 15976,
  "mucosa": 14492,
  "murs": 15982,
  "musc": 2610,
  "muscle": 3808,
  "muscleCarotid": 22288,
  "muscleLateral": 14219,
  "muscleMedial": 22287,
  "musclePerineal": 14220,
  "muscleRadialis": 22290,
  "muscleSemimembranosus": 22289,
  "muscleSuperior": 22286,
  "muscles": 8482,
  "musclesPalmar": 23751,
  "muscular": 4092,
  "my": 10464,
  "myelinated": 14923,
  "mylohyoid": 12255,
  "myocardium": 24205,
  "myx": 15993,
  "myxedema": 25205,
  "n": 69,
  "na": 6217,
  "naculum": 5444,
  "nail": 12262,
  "nal": 12258,
  "name": 16009,
  "namely": 25208,
  "nan": 15998,
  "nant": 4309,
  "nar": 2338,
  "narrowing": 21397,
  "nas": 15999,
  "nasal": 9319,
  "nasalis": 23959,
  "nat": 12259,
  "natal": 15102,
  "navel": 23140,
  "navicular": 10472,
  "nce": 7819,
  "nd": 107,
  "nded": 16349,
  "nder": 3845,
  "nders": 10555,
  "ndevelop": 16351,
  "ndie": 12383,
  "nding": 743,
  "ndom": 12381,
  "ndoubtedly": 16350,
  "ndrites": 10556,
  "nds": 368,
  "ndular": 12382,
  "ne": 486,
  "neck": 6218,
  "neckPosterior": 23141,
  "nect": 619,
  "ned": 4819,
  "nee": 875,
  "needles": 10942,
  "nees": 7027,
  "negative": 18522,
  "neic": 13130,
  "nein": 18520,
  "nel": 1344,
  "nens": 16005,
  "ner": 1543,
  "nerable": 7552,
  "nermost": 16013,
  "ners": 16007,
  "nerv": 9318,
  "nervated": 10274,
  "nervation": 2703,
  "nerve": 3247,
  "nerveGreater": 21981,
  "nerveIlio": 21983,
  "nerveIlioinguinal": 14124,
  "nerveTo": 21982,
  "nerveTracheaArch": 21984,
  "nerves": 6387,
  "ness": 1864,
  "nest": 16006,
  "netic": 2629,
  "network": 18523,
  "neum": 3555,
  "neumothorax": 10001,
  "neur": 10940,
  "neural": 10941,
  "neuron": 24330,
  "neurons": 24331,
  "next": 18521,
  "ney": 8007,
  "nicious": 16017,
  "ning": 1503,
  "nios": 16010,
  "nis": 15997,
  "nix": 10471,
  "nod": 16002,
  "nodes": 16016,
  "nodose": 25206,
  "noid": 1589,
  "nomer": 16014,
  "non": 12260,
  "nong": 16004,
  "nonglandular": 25207,
  "nonkeratinized": 24553,
  "normal": 1938,
  "normally": 9320,
  "nose": 12261,
  "nosebleeds": 16018,
  "nostr": 16015,
  "nostrils": 25209,
  "not": 9317,
  "note": 16012,
  "now": 16001,
  "nowing": 7820,
  "nown": 10470,
  "nth": 16003,
  "nuff": 16011,
  "nular": 16000,
  "numb": 16008,
  "nutr": 10473,
  "nutrition": 14926,
  "nutritive": 24207,
  "o": 70,
  "oCone": 16040,
  "oab": 16027,
  "oacromial": 16033,
  "oag": 8484,
  "oagulant": 23752,
  "oagulation": 10240,
  "oam": 16023,
  "oan": 4535,
  "oana": 11522,
  "oanae": 5252,
  "oanterior": 6886,
  "oappend": 10479,
  "oappendix": 11915,
  "oarth": 5447,
  "oarthritis": 22910,
  "oast": 16028,
  "ob": 4310,
  "obacter": 22510,
  "obasilar": 22511,
  "obed": 22509,
  "oblique": 8997,
  "obliqueSuperior": 14811,
  "obliqueSuperiorrectusInferiorrectus": 24996,
  "obrachial": 4213,
  "obrachialis": 4297,
  "obronchial": 10478,
  "obturator": 10053,
  "oc": 268,
  "ocal": 1769,
  "ocarcinoma": 12845,
  "ocard": 2757,
  "ocardial": 9949,
  "ocardiograph": 21648,
  "ocardiography": 14033,
  "ocardium": 21647,
  "ocarpal": 10800,
  "ocavity": 17573,
  "occ": 4048,
  "occasionally": 22382,
  "occipital": 4662,
  "occl": 17570,
  "occlusion": 25531,
  "occul": 12843,
  "occupying": 11490,
  "occurring": 22383,
  "occy": 1558,
  "oce": 1761,
  "ocecal": 5569,
  "ocele": 6394,
  "ocephalic": 2124,
  "ocerebellar": 10801,
  "ocervical": 10799,
  "och": 12264,
  "ochdalek": 15103,
  "ochlear": 4311,
  "ochond": 6528,
  "ochondrium": 6839,
  "oci": 538,
  "ociated": 3872,
  "ociliary": 4847,
  "ock": 3548,
  "ocket": 4397,
  "ockwise": 11463,
  "oclavicular": 7957,
  "ococ": 17568,
  "ococcy": 5318,
  "ococcygeal": 6818,
  "ococcygeus": 9052,
  "ocochlear": 17572,
  "ocolic": 5495,
  "ocolon": 4848,
  "oconiosis": 12846,
  "ocortic": 17571,
  "ocorticotropic": 25532,
  "ocostal": 7956,
  "ocostalis": 8402,
  "ocranial": 17569,
  "ocranium": 12844,
  "ocrin": 17574,
  "ocrine": 6987,
  "ocuboid": 5496,
  "ocular": 5008,
  "ocularmuscle": 14389,
  "oculomotor": 10802,
  "ocutaneous": 5151,
  "ocy": 6986,
  "ocytes": 23374,
  "ocytosis": 23375,
  "od": 221,
  "ode": 5146,
  "odeoxyglucose": 14403,
  "oderm": 10738,
  "odes": 8638,
  "odfrey": 17223,
  "odgkin": 9506,
  "odialysis": 17225,
  "odiaphragmatic": 6970,
  "odic": 17220,
  "odies": 10737,
  "odigastric": 10739,
  "odine": 17221,
  "odontoid": 17224,
  "odorsal": 5488,
  "odular": 6969,
  "oduodenal": 3545,
  "ody": 2825,
  "odynamic": 17222,
  "oe": 16019,
  "oec": 16025,
  "oeconomic": 25210,
  "oemb": 16035,
  "oen": 12263,
  "oend": 9323,
  "oendoscopic": 23960,
  "oendothelial": 11853,
  "oepithe": 16039,
  "oer": 16020,
  "oes": 10474,
  "of": 698,
  "ofacial": 5177,
  "ofascial": 8766,
  "ofemoral": 3012,
  "off": 8039,
  "ofibular": 3627,
  "ofrontal": 6047,
  "ofrontalis": 6182,
  "oft": 12265,
  "often": 12267,
  "ofug": 11046,
  "og": 447,
  "ogastric": 2516,
  "ogen": 9614,
  "ogenic": 14870,
  "ogens": 10912,
  "oglenoid": 10913,
  "oglobin": 18352,
  "ogloss": 1333,
  "oglossal": 2057,
  "oglossus": 2217,
  "oglyc": 13074,
  "ogn": 6624,
  "ogra": 874,
  "ogram": 3015,
  "ograms": 13424,
  "ograp": 11082,
  "ograph": 983,
  "ographic": 19755,
  "ographical": 11106,
  "ographically": 19756,
  "ography": 2198,
  "ogy": 13073,
  "oh": 1892,
  "ohamate": 11269,
  "ohol": 8869,
  "ohumeral": 2452,
  "ohyoid": 4980,
  "ohyp": 11268,
  "ohypogastric": 4913,
  "oice": 5274,
  "oid": 272,
  "oidal": 7959,
  "oiding": 7960,
  "oidosis": 17580,
  "oids": 4342,
  "oidsuture": 22529,
  "oidsutureParietomastoidsutureParietal": 26373,
  "oileal": 16037,
  "oiled": 16034,
  "oin": 271,
  "oinferior": 2370,
  "oinfund": 9538,
  "oining": 17579,
  "oint": 308,
  "ointRet": 17765,
  "ointment": 17764,
  "oir": 10476,
  "ok": 3039,
  "oked": 8485,
  "oking": 12266,
  "oks": 16031,
  "ol": 203,
  "ola": 7933,
  "olaSecretory": 23637,
  "olacrimal": 5145,
  "olae": 12712,
  "oland": 17142,
  "olang": 7934,
  "olar": 1134,
  "olars": 6271,
  "olated": 12711,
  "olateral": 932,
  "olateralsurfaces": 19665,
  "old": 1618,
  "ole": 8483,
  "olec": 8486,
  "olerance": 17148,
  "oles": 4715,
  "olfaction": 17146,
  "olfactory": 17145,
  "oli": 5002,
  "olic": 3290,
  "olid": 5144,
  "oligament": 17140,
  "olin": 8636,
  "olinium": 23807,
  "oliosis": 6808,
  "olip": 17141,
  "olisthesis": 12714,
  "olize": 17144,
  "olk": 9497,
  "ollateral": 17143,
  "ollen": 9498,
  "ollic": 1726,
  "ollicis": 1741,
  "ollow": 6581,
  "ollowing": 11668,
  "olog": 1266,
  "ological": 2355,
  "ologically": 5201,
  "ologist": 5785,
  "ologists": 20299,
  "ology": 2495,
  "olon": 4441,
  "oloration": 17147,
  "ols": 17139,
  "oluble": 5987,
  "olumbar": 4339,
  "olumbrical": 12713,
  "oluminal": 10726,
  "olus": 1657,
  "olute": 10725,
  "olution": 5482,
  "oly": 9321,
  "om": 155,
  "oma": 2110,
  "omach": 1690,
  "omal": 7908,
  "omandibular": 2443,
  "omarginal": 12601,
  "omas": 7378,
  "omastoid": 1959,
  "omastoidfissure": 21151,
  "omastoidfissureMastoid": 26178,
  "omastoidsuture": 21152,
  "omatic": 849,
  "omatically": 16844,
  "omaxillary": 5376,
  "omb": 2619,
  "ome": 642,
  "omechan": 13287,
  "omed": 4040,
  "omedial": 1856,
  "omediastinal": 6461,
  "omedullary": 8987,
  "omegal": 11024,
  "omembranous": 16842,
  "omen": 6953,
  "omenclature": 10176,
  "omening": 9457,
  "omeninges": 14851,
  "omenta": 16845,
  "omental": 5137,
  "omer": 6561,
  "omes": 1669,
  "omesencephalic": 9857,
  "omet": 2511,
  "ometacarpal": 5830,
  "ometatarsal": 7599,
  "ometimes": 3201,
  "ometr": 8031,
  "ometrium": 11772,
  "omfort": 6563,
  "omic": 3124,
  "omicrons": 11428,
  "omies": 9456,
  "ominant": 16841,
  "ominata": 16846,
  "oming": 6562,
  "omm": 3465,
  "ommissural": 22119,
  "ommon": 2347,
  "ommunic": 9995,
  "omohyoid": 8604,
  "omolog": 8603,
  "omorph": 16843,
  "omotion": 12600,
  "omotor": 2390,
  "omous": 9455,
  "omp": 1278,
  "ompartment": 20307,
  "ompasses": 20308,
  "omph": 12599,
  "omphoses": 15159,
  "omplete": 20306,
  "omy": 1617,
  "omyelitis": 13755,
  "omyotomy": 20767,
  "on": 113,
  "onFibrous": 16472,
  "onad": 5946,
  "onade": 16469,
  "onal": 2174,
  "onality": 21264,
  "onally": 5689,
  "onary": 12440,
  "onas": 16461,
  "onasal": 6238,
  "onate": 12441,
  "onates": 16465,
  "onating": 16466,
  "onation": 12442,
  "onavicular": 4223,
  "once": 16464,
  "onch": 1475,
  "onchae": 11208,
  "oncontrast": 16471,
  "ond": 615,
  "onds": 9324,
  "ondylar": 2799,
  "one": 279,
  "oneal": 10807,
  "onecrosis": 17597,
  "onegative": 17596,
  "onens": 5947,
  "onent": 12438,
  "onents": 7862,
  "ones": 2365,
  "oneto": 17595,
  "oneu": 1646,
  "oneuro": 5722,
  "oneuroses": 8123,
  "oneurosis": 1708,
  "oneurotic": 5901,
  "ong": 307,
  "onged": 17763,
  "ongenital": 9549,
  "ongiosus": 5726,
  "ongue": 1171,
  "ongy": 10831,
  "onic": 5688,
  "onin": 12436,
  "oning": 16462,
  "oniosis": 12445,
  "onitis": 10576,
  "onnect": 2288,
  "onodular": 16473,
  "onography": 16468,
  "onomic": 12443,
  "onomous": 16474,
  "onro": 10573,
  "ons": 429,
  "onscious": 6307,
  "onse": 4695,
  "onset": 14354,
  "onsillar": 18323,
  "onsils": 13060,
  "onsive": 18322,
  "onstr": 1294,
  "ont": 1377,
  "ontal": 886,
  "ontanel": 9814,
  "ontanelles": 10299,
  "ontin": 10575,
  "ontine": 9813,
  "onto": 10574,
  "ontoid": 16467,
  "ontory": 4623,
  "ontract": 12444,
  "ontrast": 16470,
  "onular": 16463,
  "onum": 12439,
  "onve": 12437,
  "ony": 6237,
  "ood": 9322,
  "oody": 16032,
  "oogen": 16036,
  "oogenesis": 25211,
  "ook": 5678,
  "ooking": 16038,
  "oophorectomy": 8487,
  "oor": 16021,
  "oord": 16026,
  "oos": 16022,
  "oose": 16029,
  "oot": 3275,
  "oots": 8953,
  "op": 389,
  "opalatine": 1315,
  "opanc": 18229,
  "opaque": 9593,
  "oparietal": 8701,
  "opathy": 6301,
  "opaus": 18232,
  "opausal": 25677,
  "opedal": 13024,
  "opelvic": 5737,
  "open": 18226,
  "opening": 13022,
  "opens": 10889,
  "oper": 5933,
  "operated": 23064,
  "operforator": 23065,
  "oph": 576,
  "opharmaceutical": 11004,
  "opharyngeal": 1610,
  "opharyngealsphincter": 20764,
  "opharyngealsphincterTorus": 26116,
  "opharyngeus": 4598,
  "opharyngeusmuscle": 22629,
  "opharynx": 2521,
  "ophob": 18886,
  "ophorectomy": 8025,
  "ophrenic": 4861,
  "ophthal": 11003,
  "ophthalmic": 24347,
  "ophthalmos": 14988,
  "ophy": 5172,
  "ophys": 4736,
  "ophyseal": 6813,
  "ophysial": 5256,
  "ophysis": 13243,
  "ophytes": 14406,
  "opia": 10888,
  "opian": 7440,
  "opic": 5736,
  "oping": 18227,
  "opl": 1185,
  "oplasia": 13587,
  "oplasty": 7519,
  "ople": 5017,
  "oplite": 1243,
  "opliteal": 1370,
  "opliteus": 4158,
  "opo": 13021,
  "opoiesis": 24715,
  "opor": 4728,
  "oporosis": 11545,
  "oporotic": 22674,
  "oposterior": 3363,
  "oppler": 6302,
  "opress": 18228,
  "oprostatic": 9592,
  "opsoas": 13023,
  "optic": 7012,
  "optysis": 18231,
  "opubic": 18230,
  "opulmonary": 6019,
  "or": 106,
  "ora": 1182,
  "orable": 12376,
  "orac": 485,
  "oraces": 13129,
  "oracic": 575,
  "oracoacromial": 18519,
  "oracobrachialis": 10939,
  "oracoid": 18517,
  "oracolumbar": 18518,
  "orad": 16342,
  "orage": 16343,
  "oral": 349,
  "oran": 16340,
  "orange": 25269,
  "oration": 12372,
  "oratory": 9370,
  "orax": 1395,
  "orb": 1599,
  "orbed": 11233,
  "orbit": 13752,
  "orbital": 1955,
  "orbitalartery": 21149,
  "orchiopexy": 16347,
  "ord": 341,
  "orda": 3096,
  "ordae": 6007,
  "order": 2544,
  "orders": 3949,
  "ordia": 17915,
  "ordig": 5501,
  "ordigitorum": 5897,
  "ordigitorumbrevis": 22927,
  "ording": 6006,
  "ords": 9568,
  "orduodenal": 12939,
  "ore": 520,
  "orec": 12373,
  "oreception": 15112,
  "oreceptors": 7851,
  "orect": 4824,
  "orectal": 6163,
  "orectomy": 7850,
  "orectum": 22710,
  "oregional": 10969,
  "orenal": 6233,
  "ores": 12370,
  "oreticular": 10968,
  "organ": 16345,
  "organization": 16346,
  "orhinal": 8526,
  "orial": 8525,
  "orically": 12378,
  "orific": 12377,
  "orig": 12371,
  "originate": 15111,
  "originating": 12379,
  "oris": 1442,
  "orium": 4221,
  "orius": 3121,
  "ork": 1703,
  "orking": 10552,
  "orks": 9369,
  "orm": 419,
  "ormagn": 13049,
  "ormal": 962,
  "ormally": 2004,
  "ormation": 2210,
  "ormed": 13048,
  "orming": 10900,
  "orn": 2711,
  "orne": 12375,
  "orner": 9371,
  "orniculate": 8192,
  "oroid": 4545,
  "oronal": 4028,
  "oropharyngeal": 5110,
  "oroscopy": 16344,
  "orough": 10551,
  "orous": 16341,
  "orph": 6539,
  "orpor": 9372,
  "orpore": 16348,
  "orpt": 5942,
  "orption": 6830,
  "orptive": 23067,
  "orpus": 10554,
  "orrent": 10553,
  "orrential": 11920,
  "orrh": 3042,
  "orrhea": 12380,
  "ors": 478,
  "orsal": 2136,
  "orsion": 6633,
  "orso": 12374,
  "ort": 427,
  "orta": 3844,
  "ortal": 1968,
  "ortance": 4855,
  "ortant": 1029,
  "ortantly": 19813,
  "ortic": 3120,
  "orton": 18320,
  "ortosystemic": 18321,
  "ortunately": 6621,
  "orum": 4690,
  "orus": 7341,
  "ory": 1041,
  "os": 139,
  "osa": 1654,
  "osacral": 3284,
  "osal": 3609,
  "osalpinx": 10006,
  "osalpinxBroad": 24102,
  "osant": 16765,
  "osarc": 16770,
  "oscl": 16767,
  "oscop": 1689,
  "oscope": 3316,
  "oscopes": 11242,
  "oscopic": 3892,
  "oscopically": 9860,
  "oscopy": 3196,
  "ose": 708,
  "oseb": 12563,
  "osebleeds": 15152,
  "osed": 1064,
  "osen": 12562,
  "osensory": 7897,
  "osenth": 16771,
  "oses": 1642,
  "osigmoid": 16768,
  "osing": 4705,
  "osis": 906,
  "osities": 16766,
  "osition": 2753,
  "osity": 6557,
  "oskeletal": 6947,
  "osomal": 16769,
  "osomarginal": 16772,
  "osp": 3349,
  "osph": 7896,
  "ospinal": 3678,
  "ospinales": 7188,
  "ospongiosus": 5853,
  "ospongiosusmusclePerineal": 14474,
  "osquamous": 8595,
  "oss": 351,
  "ossa": 449,
  "osse": 1054,
  "ossei": 19850,
  "osseous": 3143,
  "ossible": 5729,
  "ossified": 18004,
  "ossy": 12957,
  "ost": 491,
  "ostal": 657,
  "ostatic": 10943,
  "oste": 9446,
  "osteomyelitis": 23989,
  "osteophytes": 23990,
  "osteoporosis": 23988,
  "oster": 4832,
  "osterior": 632,
  "osterolateral": 6946,
  "ostganglionic": 4352,
  "ostic": 6945,
  "ostmicturition": 18533,
  "osto": 4706,
  "ostobrachial": 9028,
  "ostocervical": 14357,
  "ostomies": 13132,
  "ostomy": 3768,
  "ostosis": 18532,
  "ostr": 7368,
  "ostral": 12564,
  "ostriate": 11741,
  "osum": 3046,
  "osuperior": 2890,
  "osure": 7369,
  "osus": 2510,
  "osyn": 10651,
  "osynovitis": 11929,
  "osystemic": 4991,
  "ot": 183,
  "otal": 6573,
  "otalar": 10162,
  "otation": 16967,
  "otator": 10701,
  "ote": 5445,
  "oted": 16965,
  "otemporal": 2704,
  "otemporalnerves": 21624,
  "otence": 12658,
  "otendinous": 7325,
  "otent": 16966,
  "oth": 630,
  "othalamic": 7048,
  "othe": 2720,
  "othelial": 7164,
  "othelium": 11391,
  "othenar": 12659,
  "other": 2111,
  "otherap": 11390,
  "otherapy": 3324,
  "otherwise": 21227,
  "othoraces": 13283,
  "othoracic": 8030,
  "othorax": 4357,
  "othyro": 19030,
  "othyroid": 2596,
  "othyroidism": 21573,
  "otibial": 4563,
  "otic": 2178,
  "oticed": 21265,
  "oticotympanic": 13895,
  "otid": 694,
  "otion": 4562,
  "otions": 12657,
  "otograph": 16970,
  "otome": 6574,
  "otomes": 5711,
  "otomies": 12660,
  "otomy": 3862,
  "oton": 16964,
  "otonin": 16974,
  "otop": 8625,
  "otopic": 16971,
  "otopically": 23801,
  "otor": 807,
  "otoreceptors": 8779,
  "otoxic": 16973,
  "otr": 9484,
  "otracheal": 11864,
  "otrans": 16968,
  "otransvers": 7924,
  "otransversales": 9152,
  "otransverse": 6575,
  "otrem": 9485,
  "otrema": 10286,
  "otripsy": 24004,
  "otrop": 16972,
  "otropic": 25428,
  "ots": 16963,
  "ottie": 16975,
  "otympanic": 2391,
  "otyp": 16969,
  "oub": 10475,
  "ouble": 10477,
  "oubtedly": 11914,
  "oug": 5446,
  "ough": 1327,
  "oul": 1151,
  "ould": 2941,
  "oulder": 8079,
  "oun": 4979,
  "ounced": 7672,
  "ound": 984,
  "ounds": 6887,
  "oung": 4212,
  "ount": 2285,
  "our": 3339,
  "oure": 16024,
  "ourse": 5616,
  "ous": 243,
  "oustic": 2232,
  "out": 971,
  "outcro": 19719,
  "outcropping": 25933,
  "outer": 16030,
  "outflow": 13479,
  "outh": 2727,
  "outine": 19716,
  "output": 19717,
  "outside": 19718,
  "ov": 689,
  "ovable": 19166,
  "ovaginal": 5760,
  "oval": 8764,
  "ovarian": 19168,
  "ovarium": 7050,
  "ovascular": 6337,
  "ove": 392,
  "oveLacrimal": 18240,
  "ovea": 5504,
  "oved": 13321,
  "over": 2533,
  "overable": 21530,
  "overed": 7600,
  "overing": 11368,
  "overlies": 13998,
  "overliespalatopharyngeusmuscle": 24901,
  "overliesperineal": 24900,
  "overy": 21529,
  "oves": 3925,
  "ovesical": 10023,
  "ovesicalseptum": 24105,
  "ovial": 1499,
  "oving": 6045,
  "ovitis": 11041,
  "ovium": 19165,
  "ovocal": 19167,
  "ovole": 19169,
  "ow": 210,
  "ower": 2856,
  "owever": 1857,
  "owing": 1448,
  "own": 967,
  "owne": 17162,
  "ownward": 19714,
  "ox": 2671,
  "oxic": 11388,
  "oxygenated": 7606,
  "oxyglucose": 14022,
  "p": 71,
  "pable": 6219,
  "pad": 16043,
  "pain": 10487,
  "paired": 5276,
  "pal": 935,
  "palat": 8796,
  "palate": 8797,
  "palatine": 8056,
  "palatoglossal": 14797,
  "palatoglossus": 23843,
  "palatopharyngeusmuscle": 23844,
  "palm": 13460,
  "palmar": 11095,
  "palms": 19668,
  "palpable": 8057,
  "palpebrae": 19670,
  "palsy": 19669,
  "pampiniform": 16068,
  "pancreat": 16069,
  "pancreatogram": 25222,
  "pans": 10484,
  "pansile": 24211,
  "pap": 10482,
  "papilla": 24209,
  "papillary": 24208,
  "papilledema": 24210,
  "par": 3040,
  "para": 9972,
  "parallel": 21833,
  "paralysis": 14090,
  "paranasal": 14089,
  "pararenal": 21831,
  "parasternal": 14088,
  "parasympathetic": 7617,
  "parasympathetics": 14677,
  "parasympatheticsfrom": 24976,
  "paratracheal": 21832,
  "paravertebral": 24095,
  "parent": 6120,
  "parentheses": 14516,
  "part": 5275,
  "partial": 22861,
  "particular": 16060,
  "particularly": 25218,
  "pass": 4024,
  "passes": 14242,
  "passing": 22369,
  "paste": 16059,
  "pat": 12268,
  "patellar": 12279,
  "pathy": 8492,
  "patic": 16045,
  "patient": 15104,
  "patients": 16064,
  "pation": 10480,
  "pean": 16073,
  "peau": 16077,
  "pebrae": 16076,
  "pebral": 8491,
  "pec": 4312,
  "pecially": 6150,
  "pecific": 8260,
  "pect": 548,
  "pected": 3874,
  "pecten": 18749,
  "pectinate": 18752,
  "pectineal": 18751,
  "pection": 18750,
  "pective": 13207,
  "pectoral": 9660,
  "pectoralismajor": 24041,
  "ped": 2706,
  "pedicles": 21627,
  "pedius": 5230,
  "pel": 12271,
  "pelvic": 7822,
  "pen": 12269,
  "pend": 5103,
  "pendicular": 5410,
  "penetrates": 24554,
  "pens": 16044,
  "per": 326,
  "perextension": 17821,
  "perforating": 12908,
  "pericardial": 17822,
  "pericardium": 10841,
  "pericranium": 17823,
  "perineal": 9556,
  "perirenal": 17824,
  "peristal": 17819,
  "peristalsis": 25574,
  "peritone": 2003,
  "peritoneal": 2199,
  "permatic": 7421,
  "permatozoa": 12910,
  "peroneal": 12909,
  "perpendicular": 17820,
  "persed": 10842,
  "pert": 2760,
  "pertension": 21649,
  "pertrophy": 14034,
  "pertures": 9950,
  "pes": 3839,
  "pet": 16046,
  "petrous": 25213,
  "ph": 213,
  "phag": 17170,
  "phal": 1082,
  "phalangeal": 2524,
  "phalic": 1587,
  "phalon": 5350,
  "phant": 17171,
  "pharosp": 17176,
  "pharyng": 17174,
  "pharyngeal": 10731,
  "pharyngeus": 4443,
  "pharyngobasilar": 25463,
  "pharyngotympanic": 10732,
  "pharynx": 17173,
  "phase": 17172,
  "phinc": 2131,
  "phincteric": 21232,
  "phoid": 2421,
  "phosph": 17175,
  "photon": 17177,
  "phrag": 740,
  "phragm": 742,
  "phrenic": 6968,
  "phric": 7937,
  "phthal": 1573,
  "phthalm": 8850,
  "phthalmic": 1622,
  "phy": 10730,
  "phyl": 7938,
  "phylactic": 8398,
  "phys": 9501,
  "piece": 16075,
  "piglottis": 16067,
  "pin": 6888,
  "pinal": 1428,
  "pinch": 23333,
  "ping": 3401,
  "pingopharyngeal": 14148,
  "pinna": 23335,
  "pinned": 23334,
  "pinous": 2785,
  "pinx": 9115,
  "pir": 3081,
  "piration": 4508,
  "pirationExpiration": 22592,
  "piratory": 9974,
  "pired": 16051,
  "piriform": 16052,
  "piriformis": 7821,
  "pit": 12270,
  "pite": 10483,
  "pl": 2459,
  "planePubic": 21474,
  "plant": 5827,
  "plantar": 13969,
  "plasm": 21473,
  "plate": 11359,
  "ple": 1580,
  "pleen": 7108,
  "plenic": 10490,
  "pler": 6104,
  "ples": 9325,
  "pleural": 13746,
  "plexus": 12274,
  "plic": 10485,
  "plicae": 14927,
  "plies": 16049,
  "plified": 13970,
  "plike": 16050,
  "pling": 11358,
  "ply": 7326,
  "po": 5448,
  "poc": 4214,
  "pocam": 4298,
  "pocampal": 14291,
  "point": 4685,
  "polic": 16057,
  "policeman": 25217,
  "pollicis": 8488,
  "pollicismuscleRadialis": 23753,
  "polyhy": 22911,
  "polyhydramnios": 26409,
  "ponens": 12280,
  "ponin": 16074,
  "pontine": 16071,
  "poph": 3926,
  "pophalangeal": 4008,
  "popliteal": 12276,
  "por": 3171,
  "pora": 4537,
  "poral": 581,
  "pore": 16048,
  "porous": 21920,
  "port": 4536,
  "portacaval": 22596,
  "portal": 10488,
  "portion": 10061,
  "portionately": 24120,
  "pos": 1939,
  "posing": 13841,
  "posite": 9883,
  "position": 7131,
  "post": 16047,
  "posterior": 2707,
  "posteriorly": 21628,
  "posteroanterior": 21128,
  "posterolateral": 9884,
  "posteromedial": 11275,
  "posterosuperior": 21127,
  "postfertilization": 25214,
  "postganglionic": 16065,
  "pouch": 6173,
  "power": 12278,
  "powered": 24558,
  "pox": 16055,
  "pp": 16041,
  "pping": 16058,
  "pr": 2534,
  "practors": 21534,
  "pre": 6889,
  "pread": 8489,
  "prec": 16056,
  "precision": 25216,
  "preganglionic": 14605,
  "pregnancy": 23339,
  "prehepatic": 23336,
  "prem": 16063,
  "premolar": 25221,
  "prepuce": 23337,
  "pres": 16053,
  "press": 12275,
  "pressure": 15105,
  "pressureECGHeart": 25020,
  "pressureECGHeartsoundsAtrial": 26552,
  "pressureMic": 25019,
  "pressureMicturitionChild": 26551,
  "previous": 23338,
  "previously": 26445,
  "priate": 3582,
  "priately": 13999,
  "primarily": 21531,
  "primary": 11369,
  "prioc": 8908,
  "pro": 2460,
  "proaching": 8901,
  "probe": 21476,
  "process": 5224,
  "processRadial": 22847,
  "processSpinousprocess": 22848,
  "processSpinousprocessSuperior": 26406,
  "processSuperior": 22846,
  "producing": 11360,
  "products": 21479,
  "profunda": 21480,
  "projecting": 21478,
  "projects": 21483,
  "prolapse": 21477,
  "prom": 12272,
  "prominence": 24555,
  "prominent": 24556,
  "pronated": 12283,
  "proneto": 21532,
  "pronged": 21533,
  "proper": 13971,
  "properly": 24897,
  "propriate": 13973,
  "propriately": 21482,
  "prost": 16061,
  "prostate": 12281,
  "prostatectomy": 25219,
  "prostatic": 8490,
  "protraction": 21475,
  "protrusion": 21481,
  "proxim": 5594,
  "proximal": 13972,
  "proximally": 22956,
  "proximate": 22955,
  "proximately": 7242,
  "proximating": 11609,
  "ps": 1107,
  "psoas": 10489,
  "pstein": 19966,
  "pt": 2202,
  "pted": 12277,
  "pterygoid": 16070,
  "pterygopalatine": 16072,
  "ptic": 10481,
  "pty": 21280,
  "ptying": 21281,
  "pub": 12273,
  "pubocervical": 24557,
  "puce": 6220,
  "pudendal": 10486,
  "pul": 16042,
  "pulla": 4820,
  "pulled": 12282,
  "pulley": 25212,
  "pulmonary": 7327,
  "pump": 16066,
  "punct": 16062,
  "puncture": 25220,
  "pus": 2705,
  "push": 21625,
  "pushed": 21626,
  "put": 2149,
  "pyloric": 6221,
  "pyramid": 16054,
  "pyramidal": 25215,
  "q": 72,
  "qu": 517,
  "quad": 7463,
  "quadrangular": 23506,
  "quadrant": 14669,
  "quadratus": 23505,
  "quadriceps": 14668,
  "qual": 5277,
  "quality": 6815,
  "quamous": 3235,
  "quarter": 8010,
  "quarters": 9648,
  "quate": 8730,
  "que": 749,
  "queduct": 5749,
  "quently": 18628,
  "ques": 4593,
  "quid": 5748,
  "quinol": 18629,
  "quinolone": 25742,
  "quired": 18627,
  "quity": 18626,
  "quus": 6638,
  "r": 73,
  "ra": 164,
  "raabdominal": 16882,
  "rable": 16881,
  "rachial": 16089,
  "ract": 8493,
  "rad": 6260,
  "radial": 10148,
  "radio": 14526,
  "radioisotope": 24958,
  "rae": 3224,
  "raesuperior": 16883,
  "rag": 672,
  "ragic": 19136,
  "raglenoid": 5759,
  "raglottic": 9692,
  "ragus": 6652,
  "rahyoid": 10684,
  "raight": 2718,
  "rain": 508,
  "rainage": 7030,
  "raind": 13150,
  "rained": 18590,
  "raining": 9641,
  "rains": 1433,
  "rainstem": 2258,
  "ral": 286,
  "ram": 1656,
  "ramastoid": 9853,
  "rami": 20797,
  "ramus": 9852,
  "ran": 172,
  "rance": 5981,
  "ranch": 3945,
  "ranches": 1844,
  "raneous": 16915,
  "range": 2541,
  "ranged": 4042,
  "rangement": 4284,
  "rangular": 8612,
  "ranial": 675,
  "ranium": 4998,
  "rank": 7915,
  "ranon": 3944,
  "rans": 476,
  "ransvers": 4142,
  "ransverse": 2397,
  "rant": 8611,
  "rants": 16914,
  "rap": 1495,
  "rapatellar": 7098,
  "rapez": 4079,
  "rapezius": 4663,
  "rapeziusLatissimus": 22656,
  "raplegia": 20622,
  "rapleural": 20621,
  "rapy": 3023,
  "rasping": 12290,
  "rat": 16078,
  "rata": 12286,
  "rate": 3841,
  "ratic": 16083,
  "ration": 6890,
  "ratory": 16087,
  "ratus": 1598,
  "ratuscontract": 25223,
  "ravity": 12610,
  "raxia": 9465,
  "ray": 3352,
  "rays": 4334,
  "rd": 12284,
  "re": 126,
  "reach": 16634,
  "read": 1747,
  "reaks": 16647,
  "ream": 8573,
  "reas": 1009,
  "rease": 3122,
  "reast": 8574,
  "reat": 443,
  "reated": 3940,
  "reater": 2350,
  "reathing": 9613,
  "reatic": 2509,
  "reational": 16642,
  "reatitis": 13070,
  "reatment": 1814,
  "rec": 3004,
  "receptor": 21817,
  "recess": 12517,
  "recessDiaphragm": 24608,
  "rect": 3538,
  "rectile": 11462,
  "rection": 10618,
  "recto": 22160,
  "rectomy": 22161,
  "rector": 8227,
  "rectus": 8228,
  "rectusInferiorrectus": 23691,
  "recurrent": 11418,
  "red": 1361,
  "reddish": 20434,
  "reds": 20432,
  "reduced": 20433,
  "reducible": 20435,
  "ree": 577,
  "reed": 9418,
  "reek": 7043,
  "rees": 8572,
  "referred": 16640,
  "reflected": 16644,
  "reg": 5123,
  "region": 8292,
  "regular": 16636,
  "reit": 12514,
  "rejoin": 16641,
  "rela": 12515,
  "relate": 16643,
  "related": 7880,
  "relatively": 16648,
  "relaxed": 24606,
  "relaxing": 24607,
  "releasing": 16645,
  "rem": 3752,
  "reme": 2127,
  "remnant": 22254,
  "remnantsof": 26335,
  "removal": 10014,
  "removing": 22255,
  "ren": 1532,
  "renal": 6892,
  "rence": 7823,
  "rend": 10616,
  "rendelenburg": 14946,
  "render": 10619,
  "rendered": 11927,
  "rene": 13729,
  "renic": 1822,
  "rent": 1696,
  "rents": 16086,
  "reous": 7359,
  "requ": 3677,
  "res": 1924,
  "resolution": 8147,
  "resp": 3251,
  "respiratory": 21124,
  "ress": 761,
  "ression": 1215,
  "ressions": 8774,
  "ressionsB": 23839,
  "ressionsfor": 23840,
  "ressive": 8773,
  "ressor": 19294,
  "rest": 16082,
  "resulting": 13838,
  "ret": 3086,
  "retation": 21858,
  "rete": 10617,
  "reted": 5293,
  "retin": 12516,
  "retion": 16637,
  "retions": 21859,
  "retomotor": 9419,
  "retracted": 16646,
  "retraction": 16639,
  "retro": 14097,
  "retromolar": 21861,
  "retroperitoneal": 21860,
  "reveal": 16638,
  "reveals": 25364,
  "revis": 16635,
  "rew": 8571,
  "rey": 12513,
  "rh": 2413,
  "rhea": 12289,
  "rhy": 13956,
  "rhytid": 24896,
  "rhytidectomy": 26544,
  "ri": 3840,
  "ria": 16081,
  "rib": 1996,
  "ribed": 11280,
  "ribriform": 8880,
  "ric": 585,
  "rical": 2535,
  "rically": 10492,
  "riceps": 3301,
  "rich": 16080,
  "ricothyroid": 18911,
  "riction": 9673,
  "riding": 10494,
  "riform": 8495,
  "right": 4313,
  "rightor": 22512,
  "rillation": 10496,
  "rim": 12285,
  "rin": 6529,
  "rine": 6222,
  "ring": 6530,
  "rinting": 16093,
  "rios": 10493,
  "rip": 6223,
  "risk": 16092,
  "rist": 6891,
  "rites": 10495,
  "ritic": 12287,
  "ritis": 4114,
  "ritory": 16090,
  "rium": 2150,
  "rive": 16084,
  "rix": 6893,
  "ro": 127,
  "road": 10622,
  "roaden": 12525,
  "roadenoma": 15142,
  "roat": 12519,
  "robasilar": 9423,
  "rocal": 9421,
  "rocard": 16654,
  "rocess": 12522,
  "rochlear": 3459,
  "rock": 16653,
  "rocy": 8575,
  "rocytes": 23786,
  "roductive": 3607,
  "rogen": 8576,
  "rogenic": 10244,
  "rogenital": 6932,
  "rogens": 16656,
  "rohn": 16657,
  "roid": 16650,
  "roin": 12518,
  "roitus": 12524,
  "roke": 10623,
  "rol": 10620,
  "rolateral": 16651,
  "rolled": 9422,
  "rolling": 16655,
  "roly": 16649,
  "rolytes": 25365,
  "rom": 175,
  "roma": 8614,
  "romammary": 10695,
  "romandibular": 5706,
  "romas": 12638,
  "romastoid": 6567,
  "romatous": 7917,
  "romb": 2823,
  "romedial": 9476,
  "romedian": 16928,
  "romolar": 16927,
  "romuscular": 5983,
  "romuscularstroma": 23079,
  "ron": 2360,
  "ronated": 11346,
  "ronator": 13935,
  "ronic": 3801,
  "rons": 8494,
  "rontal": 5278,
  "roof": 9420,
  "root": 12520,
  "rooves": 16652,
  "rop": 10621,
  "roperitoneal": 8577,
  "roph": 1494,
  "rophages": 13711,
  "ropharyngeal": 5797,
  "rophy": 3193,
  "ropl": 7881,
  "roplasty": 8392,
  "ror": 10491,
  "ros": 395,
  "rosal": 1871,
  "roscl": 6616,
  "rosclerosis": 23275,
  "roscop": 4138,
  "roscope": 8254,
  "roscopic": 7646,
  "roscopically": 14265,
  "roscopy": 7205,
  "roses": 7015,
  "rosis": 1435,
  "rosive": 18248,
  "rospinal": 4729,
  "rospinous": 3137,
  "rosplenic": 10891,
  "ross": 669,
  "rost": 3618,
  "rostate": 6774,
  "rostatic": 4655,
  "rosternal": 13031,
  "rostomy": 9594,
  "rosurgical": 18249,
  "rot": 5124,
  "rotating": 14399,
  "rotation": 11580,
  "rotic": 12521,
  "rotympanic": 6477,
  "rou": 212,
  "rough": 280,
  "roughout": 5009,
  "round": 489,
  "rounded": 18531,
  "rounds": 2824,
  "rous": 1080,
  "rovaginal": 10624,
  "rovascular": 12523,
  "row": 1241,
  "rowing": 13620,
  "rown": 6064,
  "rows": 6370,
  "rowth": 20253,
  "rub": 16079,
  "rubber": 25224,
  "ruc": 16085,
  "ruciate": 12288,
  "rudimentary": 16091,
  "rug": 3927,
  "rum": 1533,
  "rup": 2339,
  "rupted": 13926,
  "ruption": 11340,
  "rupture": 21398,
  "rura": 16088,
  "ry": 4538,
  "s": 74,
  "sDistal": 16117,
  "sMediastinum": 16138,
  "sNavicular": 12310,
  "sa": 12291,
  "sac": 16097,
  "sacc": 16127,
  "sacciform": 25238,
  "sacral": 7827,
  "sacralization": 23603,
  "sacralvertebra": 23604,
  "sacrum": 16129,
  "saddle": 16124,
  "sagittal": 10502,
  "sal": 10497,
  "salivary": 14928,
  "salpinx": 24212,
  "same": 12298,
  "sangu": 12311,
  "saphenous": 8498,
  "sartorius": 12301,
  "saving": 16116,
  "sc": 2286,
  "scal": 13918,
  "scalene": 24892,
  "scalping": 24893,
  "scaphoid": 21370,
  "scapula": 11329,
  "scapular": 2528,
  "scapularis": 11367,
  "sciatic": 21369,
  "sclera": 16137,
  "se": 236,
  "seal": 6587,
  "sec": 5718,
  "second": 7246,
  "secondarily": 14635,
  "secondary": 10186,
  "secretomotor": 22991,
  "section": 8497,
  "sectional": 11799,
  "sed": 10498,
  "see": 1548,
  "seg": 7406,
  "segment": 11744,
  "segmental": 10194,
  "sel": 12293,
  "sem": 12294,
  "semen": 24559,
  "sens": 8496,
  "sensing": 23754,
  "sensitive": 11798,
  "sensory": 7825,
  "seous": 12790,
  "separ": 12308,
  "separates": 24566,
  "separation": 24565,
  "septal": 12305,
  "septum": 10505,
  "sequ": 2488,
  "sequently": 5385,
  "serratus": 12306,
  "servation": 16111,
  "ses": 2090,
  "sess": 5934,
  "sessment": 7252,
  "set": 8648,
  "setail": 17378,
  "seter": 2974,
  "seudom": 17379,
  "sewhere": 7948,
  "sewn": 12791,
  "sfield": 16139,
  "sh": 934,
  "shaft": 7063,
  "shaped": 1201,
  "sharp": 19667,
  "she": 16094,
  "sheathTendon": 25225,
  "short": 6055,
  "shot": 19666,
  "shoulder": 9738,
  "sia": 4539,
  "sickle": 16136,
  "side": 2414,
  "sided": 4314,
  "sied": 16106,
  "sies": 6894,
  "significant": 16126,
  "sil": 16098,
  "sild": 16112,
  "sildenaf": 25235,
  "sildenafil": 26560,
  "silent": 25226,
  "sing": 3276,
  "single": 16108,
  "sinking": 16133,
  "sinu": 16122,
  "sinus": 7330,
  "sinusMaxillarysinus": 23465,
  "sinuses": 10192,
  "sinusesEthmoidal": 24137,
  "sinusesMaxillary": 24135,
  "sinusesPectoralis": 24136,
  "sinuvertebral": 25237,
  "sis": 4686,
  "site": 12296,
  "sites": 12302,
  "six": 10500,
  "sixth": 14929,
  "sixths": 24213,
  "size": 12299,
  "sized": 10501,
  "skeletal": 9327,
  "skin": 9326,
  "skull": 10504,
  "skullcap": 24214,
  "slaps": 16123,
  "slic": 16107,
  "slices": 25233,
  "sling": 16119,
  "slipping": 16140,
  "small": 8499,
  "smooth": 8501,
  "snuff": 16141,
  "so": 399,
  "soas": 2098,
  "sociated": 5104,
  "sof": 9596,
  "sole": 10892,
  "solid": 16121,
  "soluble": 7828,
  "soma": 16109,
  "somatic": 16104,
  "some": 16103,
  "somewhat": 25231,
  "soph": 2792,
  "sor": 16095,
  "sounds": 18258,
  "soundsAtrial": 25682,
  "sp": 3668,
  "space": 7187,
  "spaceLumbosacralenlargement": 23421,
  "spec": 14188,
  "special": 24924,
  "specific": 24925,
  "spect": 16102,
  "spectrum": 25230,
  "sphen": 10010,
  "sphenoid": 24103,
  "spherical": 22215,
  "sphinc": 7826,
  "sphincter": 8387,
  "spider": 22212,
  "spike": 22213,
  "spin": 8971,
  "spinal": 2786,
  "spinoglenoid": 14810,
  "spinotransversales": 14809,
  "spinous": 16114,
  "spir": 10503,
  "spiral": 11916,
  "splenic": 22214,
  "splenius": 22216,
  "splenomegaly": 14189,
  "spr": 7331,
  "sprain": 22211,
  "spring": 7744,
  "squamous": 16115,
  "st": 562,
  "stSYSTOLE": 18799,
  "stSYSTOLESYSTOLEDI": 25766,
  "stSYSTOLESYSTOLEDIASTOLEVentricularpressureECGHeartsoundsAtrial": 26586,
  "sta": 12295,
  "stage": 12307,
  "stalk": 16128,
  "stances": 5515,
  "stand": 16131,
  "standing": 24560,
  "starting": 18802,
  "ste": 7328,
  "stellate": 18803,
  "stenosis": 13219,
  "stepp": 23464,
  "steppage": 26456,
  "stern": 16101,
  "sternal": 10499,
  "sternoc": 12304,
  "sternocostal": 24564,
  "sternothyroid": 25229,
  "stick": 16125,
  "stim": 7042,
  "stimating": 11718,
  "stimulating": 11719,
  "stimulation": 23392,
  "sto": 16099,
  "stocking": 25227,
  "stone": 18795,
  "stones": 6645,
  "storage": 18801,
  "str": 3598,
  "straight": 9663,
  "strap": 10992,
  "stream": 10994,
  "stret": 10993,
  "stridor": 22184,
  "string": 14182,
  "striped": 14183,
  "stripping": 22183,
  "stroke": 10995,
  "strokePalmar": 24344,
  "stroma": 18797,
  "structures": 16113,
  "stuck": 18796,
  "styloid": 18798,
  "stylopharyngeus": 18800,
  "sually": 5679,
  "sub": 3746,
  "subacromial": 22249,
  "subarachnoid": 22246,
  "subclav": 14203,
  "subclavian": 15277,
  "subcostal": 22248,
  "subcutaneous": 8977,
  "subdeltoid": 10013,
  "subdural": 22247,
  "sublingual": 14202,
  "sublux": 22251,
  "subluxation": 26334,
  "submandibular": 14201,
  "suboccipital": 22250,
  "subscapularis": 14204,
  "such": 7824,
  "suf": 16110,
  "sufficient": 25234,
  "sulci": 16135,
  "sulcus": 8502,
  "sum": 12292,
  "sup": 6224,
  "superficial": 5680,
  "superficialis": 10118,
  "superior": 3277,
  "supinated": 23143,
  "supplies": 23145,
  "supr": 8331,
  "supra": 23142,
  "supraclavicular": 23708,
  "supracristal": 23709,
  "suprahyoid": 23144,
  "suprascapular": 23706,
  "supraspinatus": 14740,
  "suprasternal": 23707,
  "sural": 12297,
  "surface": 5279,
  "surfaceInterosseousmembrane": 22863,
  "surfaceMedial": 22862,
  "surfaceMedialborder": 22864,
  "surfaceMedialborderLateral": 26407,
  "surfaces": 16130,
  "surgical": 8500,
  "surrounding": 16132,
  "sus": 16096,
  "sustent": 16120,
  "sustentacular": 25236,
  "sut": 16100,
  "sutural": 25228,
  "suture": 12309,
  "sutureParietal": 24567,
  "swe": 12300,
  "sweat": 24561,
  "sweating": 24562,
  "swing": 12303,
  "swinging": 24563,
  "sy": 2882,
  "sympathetic": 7329,
  "syn": 16105,
  "synostosis": 25232,
  "systemic": 16118,
  "systolic": 16134,
  "t": 75,
  "ta": 311,
  "tab": 1088,
  "table": 6363,
  "tableDiploÃ«": 23200,
  "tableInner": 23199,
  "tableInnertableDiploÃ«": 26437,
  "tablis": 3707,
  "tably": 19937,
  "tach": 3082,
  "tached": 3928,
  "taches": 16151,
  "tae": 7420,
  "tage": 6992,
  "tages": 17769,
  "tail": 5500,
  "tails": 14437,
  "tain": 808,
  "tained": 6343,
  "taining": 11062,
  "tainment": 19402,
  "tains": 1199,
  "take": 7967,
  "taken": 17772,
  "taking": 17768,
  "tal": 270,
  "talar": 8665,
  "tali": 17577,
  "talk": 7958,
  "talofibular": 12848,
  "tals": 17578,
  "talus": 10803,
  "tand": 8671,
  "tapedius": 17773,
  "tapes": 17771,
  "tapl": 17770,
  "tarsal": 8503,
  "taste": 12320,
  "tawa": 17774,
  "tay": 17767,
  "te": 180,
  "tead": 4999,
  "teals": 16950,
  "tear": 16944,
  "tears": 16946,
  "teb": 318,
  "tebra": 4049,
  "tebrae": 7969,
  "tebral": 1006,
  "tebroplasty": 17798,
  "techn": 16948,
  "tect": 2273,
  "tection": 7919,
  "tectomy": 6742,
  "ted": 2043,
  "tedly": 11287,
  "teeth": 16947,
  "teggia": 16949,
  "tein": 16943,
  "tem": 511,
  "tempor": 13151,
  "temporal": 2517,
  "temporalis": 21523,
  "temporo": 24740,
  "temporofacial": 24741,
  "ten": 901,
  "tend": 3354,
  "tended": 6768,
  "tendedFlexedUp": 23307,
  "tender": 22047,
  "tending": 4560,
  "tendinous": 6126,
  "tendon": 6767,
  "tendonFibularislongus": 23306,
  "tendonLeft": 23305,
  "tendons": 14144,
  "tends": 16945,
  "tened": 5343,
  "tening": 10508,
  "tennis": 19594,
  "tenoid": 2117,
  "tenoidcartilage": 21228,
  "tens": 6895,
  "tensible": 23340,
  "tension": 5280,
  "tensor": 3217,
  "tent": 9328,
  "tenth": 23961,
  "tently": 12319,
  "tentorium": 23962,
  "ter": 122,
  "terase": 16589,
  "terative": 16590,
  "terectomy": 5956,
  "tered": 5466,
  "teres": 16588,
  "teric": 4226,
  "tering": 5121,
  "terion": 5290,
  "terionLambd": 22868,
  "terior": 157,
  "terioration": 16847,
  "terity": 12501,
  "term": 1909,
  "terminal": 13833,
  "terminalePial": 24878,
  "termination": 9879,
  "termining": 21100,
  "tern": 275,
  "terna": 6596,
  "ternal": 322,
  "ternoc": 4569,
  "ternocleidomastoid": 14331,
  "ternum": 12850,
  "ternus": 1828,
  "teroanterior": 16593,
  "teroinferior": 16591,
  "terol": 9413,
  "terolateral": 1079,
  "teromedial": 7876,
  "teroposterior": 5957,
  "terosuperior": 10611,
  "ters": 1667,
  "terti": 16592,
  "tertiary": 25350,
  "tertius": 16594,
  "teryg": 710,
  "terygoid": 9700,
  "terygopalatine": 11050,
  "tes": 3340,
  "test": 10507,
  "testicular": 22039,
  "testinal": 16153,
  "tet": 16942,
  "tetric": 12646,
  "tex": 1826,
  "texZygomatic": 21023,
  "th": 300,
  "thal": 1484,
  "thalamic": 11212,
  "thallium": 17754,
  "thand": 12893,
  "that": 12889,
  "the": 291,
  "thecal": 17645,
  "theless": 17646,
  "thelium": 10818,
  "thenar": 17644,
  "ther": 409,
  "there": 10817,
  "thered": 17643,
  "thering": 13040,
  "these": 9548,
  "thesis": 7414,
  "thetic": 17642,
  "they": 17641,
  "thick": 10829,
  "thickens": 24302,
  "thickness": 14969,
  "thin": 17749,
  "thing": 12890,
  "thinning": 17753,
  "third": 2034,
  "thirds": 2950,
  "this": 5999,
  "thm": 2299,
  "thmia": 21379,
  "thmoid": 1245,
  "thmoidal": 5199,
  "thmus": 2475,
  "thoracic": 6284,
  "thorax": 17751,
  "thoscope": 6000,
  "though": 1900,
  "thought": 21091,
  "thra": 7419,
  "thral": 3549,
  "threat": 12892,
  "threatening": 15192,
  "thromb": 17752,
  "thrombus": 25566,
  "throscopy": 7965,
  "through": 12891,
  "ths": 4241,
  "thumb": 10827,
  "thund": 17750,
  "thunderclap": 25565,
  "thy": 17748,
  "thyroid": 10828,
  "thyroidism": 24301,
  "ti": 4315,
  "tibi": 16162,
  "tibia": 10511,
  "tibial": 6225,
  "tic": 245,
  "tical": 6978,
  "ticalline": 17412,
  "tication": 6588,
  "tices": 17409,
  "tick": 7408,
  "ticoagulation": 17411,
  "ticul": 6979,
  "ticular": 1974,
  "ticulation": 17410,
  "ticulitis": 23369,
  "ticulospinal": 23370,
  "tid": 16143,
  "tie": 16146,
  "tiel": 16160,
  "ties": 16145,
  "tific": 9331,
  "tig": 3669,
  "til": 12312,
  "timately": 16156,
  "time": 10509,
  "times": 16158,
  "tin": 365,
  "tina": 18070,
  "tinal": 16144,
  "tinct": 12976,
  "tine": 6531,
  "ting": 2386,
  "tinu": 3476,
  "tinuation": 14160,
  "tinuing": 5242,
  "tinuity": 8224,
  "tinum": 1217,
  "tinuous": 7634,
  "tion": 2536,
  "tions": 16148,
  "tip": 12315,
  "tiss": 16147,
  "tius": 16149,
  "tly": 16142,
  "to": 227,
  "toarch": 12769,
  "tocele": 17327,
  "tock": 17325,
  "tocyst": 17329,
  "toe": 10754,
  "toes": 12768,
  "tof": 12767,
  "together": 17324,
  "toid": 899,
  "tole": 17322,
  "tom": 1474,
  "tomach": 8109,
  "tomas": 20596,
  "tomatic": 4981,
  "tomotor": 6383,
  "tomy": 8842,
  "ton": 10506,
  "tongue": 9332,
  "tonsils": 16163,
  "tood": 17323,
  "tools": 17330,
  "top": 9516,
  "topectoral": 17328,
  "topulmonary": 17326,
  "torn": 16157,
  "torus": 12322,
  "tose": 16150,
  "tosis": 5449,
  "total": 10512,
  "tow": 12313,
  "toward": 15106,
  "toxic": 10755,
  "tr": 190,
  "tra": 3529,
  "trabec": 22156,
  "trabecular": 26324,
  "tracerebral": 12669,
  "trache": 16997,
  "tracheal": 5142,
  "tracheobronchial": 25433,
  "tracorpore": 17003,
  "tracranial": 10705,
  "tract": 4043,
  "tracted": 14247,
  "traction": 2755,
  "tractive": 14248,
  "tradural": 7637,
  "tral": 3613,
  "tralaminar": 16999,
  "trally": 7926,
  "tram": 16152,
  "trans": 12316,
  "transpyloric": 24570,
  "transvers": 8504,
  "transverse": 6532,
  "transversospinales": 23756,
  "transversus": 23755,
  "traperitoneal": 14169,
  "trapezius": 8505,
  "trary": 12666,
  "tras": 1751,
  "trasonography": 20915,
  "trasound": 1784,
  "trast": 6265,
  "tration": 5713,
  "treme": 16155,
  "tress": 16994,
  "triangle": 9489,
  "triangleSternocleidomastoid": 24006,
  "triangleSuperior": 24005,
  "triangular": 12670,
  "tribut": 1897,
  "tributaries": 21086,
  "tribution": 8870,
  "tric": 722,
  "trical": 6577,
  "tricle": 4609,
  "trict": 1329,
  "trictive": 13655,
  "trictor": 9803,
  "triculos": 19199,
  "trigeminal": 7391,
  "trigger": 17001,
  "triggering": 25434,
  "trigone": 17000,
  "trinsic": 5141,
  "triticeal": 17002,
  "tritis": 16998,
  "tro": 4025,
  "trocard": 14244,
  "trochanteric": 4661,
  "trochlear": 10510,
  "troke": 14243,
  "trophy": 16159,
  "trual": 16995,
  "truct": 403,
  "truction": 1890,
  "tructive": 18268,
  "tructures": 2761,
  "true": 10703,
  "trum": 2754,
  "trunk": 12668,
  "trusion": 10704,
  "trut": 12667,
  "tryp": 16996,
  "trypointRet": 25432,
  "ts": 2708,
  "ttage": 16161,
  "tte": 9329,
  "tub": 12314,
  "tube": 24568,
  "tuber": 1581,
  "tuberance": 3024,
  "tubercle": 8121,
  "tubercleGroove": 14730,
  "tubercleLateralprocess": 23681,
  "tubercular": 3640,
  "tubercularsulcus": 22203,
  "tuberosity": 20755,
  "tuberous": 3148,
  "tubular": 24569,
  "tum": 1316,
  "tumors": 20371,
  "tunica": 12321,
  "tunnel": 16154,
  "tunnelTendon": 25239,
  "tur": 774,
  "turate": 19327,
  "turator": 1002,
  "ture": 1152,
  "tured": 20017,
  "tures": 3842,
  "turing": 13363,
  "turition": 7494,
  "turitionChild": 23520,
  "turn": 19326,
  "turned": 19328,
  "tuse": 9330,
  "tw": 314,
  "tween": 319,
  "twelve": 17790,
  "twins": 17788,
  "two": 12897,
  "twork": 17789,
  "ty": 2922,
  "typ": 12317,
  "typically": 15107,
  "tysis": 12318,
  "u": 76,
  "uable": 16168,
  "ual": 428,
  "ually": 753,
  "uate": 2883,
  "uated": 6896,
  "uates": 12324,
  "uation": 9333,
  "uations": 16171,
  "ub": 234,
  "ubby": 17370,
  "uber": 1304,
  "ubercle": 11179,
  "ubercul": 20347,
  "ubernaculum": 5550,
  "ubernaculumEpididymis": 22947,
  "ubfoot": 17371,
  "ubic": 2297,
  "ubin": 6977,
  "ubital": 7404,
  "uble": 3470,
  "ublingual": 17369,
  "uboid": 5006,
  "ubrios": 10764,
  "ubrium": 2393,
  "ubt": 17368,
  "uc": 416,
  "ucc": 1893,
  "uce": 1359,
  "uced": 7020,
  "uces": 18286,
  "uch": 686,
  "uches": 7332,
  "ucials": 18290,
  "uciate": 8708,
  "ucible": 18288,
  "uck": 7442,
  "ucket": 11745,
  "uckles": 18289,
  "ucle": 1040,
  "uclear": 8066,
  "ucleated": 19831,
  "uclei": 19830,
  "ucoma": 13045,
  "ucosal": 13046,
  "uct": 263,
  "uction": 10793,
  "ucus": 18287,
  "ud": 634,
  "udates": 13284,
  "ude": 5105,
  "uded": 19032,
  "udendal": 1611,
  "udication": 13285,
  "udimentary": 8756,
  "udom": 16167,
  "udoun": 19033,
  "udy": 19031,
  "ue": 362,
  "ued": 12323,
  "uency": 16172,
  "uents": 16169,
  "ues": 1399,
  "uf": 2310,
  "uff": 2639,
  "uffbox": 3906,
  "uft": 16166,
  "ug": 2044,
  "ugate": 13864,
  "ugh": 1157,
  "ughs": 20028,
  "ught": 5542,
  "uginea": 13865,
  "uginosa": 21199,
  "ugular": 1061,
  "uhuber": 16175,
  "uild": 9334,
  "uina": 16170,
  "uinal": 723,
  "uing": 6226,
  "uir": 16165,
  "uis": 5450,
  "uishable": 22912,
  "uising": 8509,
  "uit": 2435,
  "uitary": 3649,
  "uits": 12325,
  "uity": 8508,
  "uk": 8506,
  "ul": 147,
  "ula": 714,
  "ulae": 4743,
  "ulant": 12577,
  "ular": 199,
  "ulas": 12575,
  "ulate": 3350,
  "ulated": 4039,
  "ulates": 5477,
  "ulating": 4993,
  "ulation": 1787,
  "ulations": 6950,
  "ulator": 16798,
  "ulatory": 4554,
  "ulature": 4994,
  "ulb": 5476,
  "ulci": 12579,
  "ulcus": 7373,
  "uld": 4708,
  "ule": 1018,
  "uled": 16795,
  "ulent": 12576,
  "ules": 3048,
  "ulesLymphatic": 21834,
  "uli": 2715,
  "ulinum": 16801,
  "ulitis": 10662,
  "ull": 746,
  "ulla": 2065,
  "ullary": 4063,
  "ulled": 9710,
  "ulmonary": 2787,
  "ulnar": 4709,
  "ulnarhead": 22670,
  "uloc": 3679,
  "ulocochlear": 4939,
  "ulocutaneous": 6138,
  "ulomotor": 10663,
  "ulopelvic": 12578,
  "ulos": 12574,
  "uloseptal": 24616,
  "uloskeletal": 16799,
  "ulospinal": 9449,
  "uloure": 16800,
  "ulous": 16796,
  "uls": 6558,
  "ulse": 8601,
  "ulses": 7902,
  "ulsion": 8342,
  "ult": 625,
  "ulta": 16797,
  "ultaneously": 11015,
  "ulth": 9448,
  "ulting": 13274,
  "ultiple": 18992,
  "ults": 18991,
  "ulum": 978,
  "ulumLateral": 19748,
  "ulus": 2565,
  "ulusExternal": 14002,
  "ulusLesser": 21545,
  "um": 162,
  "umInferior": 16869,
  "umOccipital": 16871,
  "umVisceral": 16870,
  "uma": 16865,
  "umatic": 16867,
  "umb": 452,
  "umbLittle": 18357,
  "umbLittleRingIndexFing": 25694,
  "umbar": 2794,
  "umbed": 13076,
  "umbens": 7998,
  "umbil": 2179,
  "umbilical": 6410,
  "umbilicall": 21266,
  "umbosacral": 18356,
  "umbrevis": 18358,
  "umbrical": 9615,
  "ume": 3285,
  "umed": 16866,
  "umen": 12606,
  "umented": 12608,
  "umer": 841,
  "umeral": 1584,
  "umero": 9718,
  "umerous": 1849,
  "umerus": 1147,
  "umes": 9462,
  "uminal": 7381,
  "umination": 12607,
  "ummary": 9463,
  "umn": 1177,
  "umoral": 16868,
  "ump": 4432,
  "umps": 7382,
  "umpt": 10683,
  "umption": 14955,
  "ums": 10682,
  "un": 228,
  "unae": 12771,
  "unar": 4233,
  "unate": 5490,
  "unately": 3546,
  "unattached": 12773,
  "unch": 12770,
  "uncovertebral": 17335,
  "unct": 3681,
  "unction": 728,
  "unctioning": 19229,
  "uncular": 10758,
  "und": 401,
  "undant": 6617,
  "unday": 18264,
  "under": 13037,
  "underliesthe": 24716,
  "undesce": 18266,
  "undescended": 25683,
  "undice": 5738,
  "undiced": 18265,
  "undles": 18263,
  "unds": 3670,
  "undum": 5324,
  "une": 3359,
  "uneiform": 7630,
  "ung": 884,
  "unhapp": 17336,
  "unhappy": 25492,
  "unic": 1342,
  "unica": 3969,
  "unipennate": 17334,
  "unk": 637,
  "unks": 11023,
  "unlike": 10756,
  "unnel": 2002,
  "unning": 10757,
  "unode": 17333,
  "unological": 12772,
  "unotherapy": 17332,
  "unt": 1547,
  "untain": 17331,
  "uod": 1163,
  "uodenal": 2575,
  "uodenum": 7518,
  "uosity": 16173,
  "uous": 5451,
  "up": 158,
  "uperficial": 1674,
  "uperior": 775,
  "upper": 8605,
  "ups": 10676,
  "upt": 16848,
  "uptake": 16850,
  "upture": 2716,
  "uptures": 10678,
  "upward": 16849,
  "upying": 10677,
  "ur": 150,
  "ura": 1583,
  "urable": 10666,
  "ural": 914,
  "urally": 7374,
  "urate": 16811,
  "urated": 12583,
  "urc": 1896,
  "urce": 6560,
  "urchette": 13827,
  "ure": 277,
  "ured": 3293,
  "ures": 397,
  "ureter": 12854,
  "ureteric": 17594,
  "ureteropelvic": 24672,
  "urethral": 4343,
  "urethralgland": 22530,
  "urethralglandArea": 26374,
  "uretic": 17593,
  "urf": 2292,
  "urface": 2457,
  "urfaces": 8166,
  "urg": 6559,
  "urge": 10665,
  "urgeon": 24262,
  "urgeons": 14951,
  "urgery": 9100,
  "urgical": 4430,
  "uria": 12584,
  "urination": 16814,
  "uring": 2227,
  "urished": 16822,
  "urition": 16812,
  "urity": 9450,
  "urium": 16813,
  "urized": 16815,
  "urkin": 6951,
  "urkinje": 7277,
  "urling": 16819,
  "urn": 2155,
  "urney": 16821,
  "urning": 16816,
  "urnpoint": 21249,
  "uro": 1299,
  "uropean": 20343,
  "urpass": 16818,
  "urrent": 1842,
  "urrently": 8865,
  "urring": 16820,
  "urround": 7903,
  "urrounding": 9151,
  "urs": 1970,
  "ursing": 13845,
  "ursor": 21158,
  "urther": 1546,
  "urv": 12582,
  "urving": 16817,
  "us": 125,
  "usDeep": 16631,
  "usLesser": 16632,
  "usae": 12509,
  "usband": 16633,
  "usc": 166,
  "uscept": 4041,
  "usception": 22373,
  "uschk": 12612,
  "uscle": 12611,
  "uscles": 1607,
  "uscommunic": 10685,
  "uscontract": 16884,
  "uscular": 4835,
  "uscult": 7383,
  "uscultation": 8372,
  "use": 608,
  "used": 6553,
  "uses": 16628,
  "ushed": 12511,
  "using": 16629,
  "usion": 1734,
  "usions": 7879,
  "usive": 16630,
  "usp": 1733,
  "uspid": 4906,
  "uss": 12508,
  "ust": 705,
  "ustent": 5024,
  "ustentaculum": 5260,
  "ustomed": 19191,
  "ustra": 11049,
  "ustration": 12512,
  "ustrum": 12510,
  "usual": 5692,
  "usually": 8570,
  "ut": 256,
  "utaneous": 890,
  "utches": 17527,
  "ute": 1582,
  "uted": 2570,
  "uter": 867,
  "uterine": 4880,
  "uterization": 8790,
  "uterosacral": 19550,
  "utes": 7953,
  "utical": 8510,
  "ution": 4846,
  "utions": 10791,
  "utment": 17526,
  "utof": 16174,
  "utput": 17528,
  "utr": 4982,
  "uts": 12827,
  "utter": 17525,
  "uture": 8660,
  "utured": 17529,
  "utures": 10790,
  "uve": 16164,
  "ux": 8507,
  "v": 77,
  "va": 8511,
  "vaginal": 6898,
  "vagus": 10515,
  "val": 6897,
  "valgus": 23341,
  "valleculae": 23342,
  "valuation": 11703,
  "valve": 11702,
  "valveLeft": 24452,
  "valveRight": 24453,
  "valveTricuspid": 24454,
  "vance": 16180,
  "vant": 12327,
  "var": 4115,
  "varia": 5078,
  "variant": 22415,
  "varices": 14259,
  "varicose": 14260,
  "varies": 16182,
  "varus": 22414,
  "vas": 10513,
  "vascular": 2747,
  "vasectomy": 24215,
  "vasive": 16188,
  "vastus": 12328,
  "vated": 12326,
  "vator": 1317,
  "ve": 141,
  "veal": 2540,
  "ved": 1534,
  "veill": 16776,
  "vein": 7371,
  "veins": 10657,
  "vel": 567,
  "veling": 13220,
  "velop": 858,
  "velopment": 7058,
  "ven": 1762,
  "vena": 11254,
  "venae": 13792,
  "venile": 20919,
  "venosum": 20920,
  "venous": 3502,
  "vent": 1203,
  "ventful": 5782,
  "venth": 7080,
  "ventral": 8512,
  "ventrally": 14761,
  "ventric": 16179,
  "ventriculoseptal": 25241,
  "vents": 16181,
  "ventually": 20115,
  "veolar": 1601,
  "ver": 225,
  "veral": 2091,
  "verbal": 17312,
  "verging": 17311,
  "vering": 17309,
  "vern": 1869,
  "vers": 1405,
  "verse": 719,
  "versely": 9702,
  "versible": 11194,
  "version": 4760,
  "vertebra": 7399,
  "vertebrae": 10750,
  "vertebral": 1129,
  "vertebralsympathetic": 19993,
  "verted": 17310,
  "very": 17308,
  "ves": 290,
  "vesical": 17639,
  "vessels": 8514,
  "vesselsDeepplantar": 23757,
  "vest": 9547,
  "vestibular": 14863,
  "vestibulocochlear": 14864,
  "vestig": 12870,
  "vesting": 17640,
  "via": 10514,
  "viation": 16186,
  "viations": 12330,
  "vic": 361,
  "vid": 16176,
  "vide": 16178,
  "video": 25240,
  "viding": 16184,
  "vier": 16185,
  "view": 3041,
  "viewing": 14091,
  "vine": 16177,
  "ving": 3000,
  "vious": 9338,
  "vir": 6533,
  "viral": 16187,
  "virus": 23244,
  "vis": 737,
  "visc": 8770,
  "viscer": 19242,
  "viscera": 23838,
  "visceral": 10254,
  "viscerocranium": 25839,
  "visual": 13341,
  "vit": 7333,
  "vitelline": 23466,
  "vitreous": 9129,
  "vity": 3599,
  "vityCenter": 22185,
  "vius": 9337,
  "vocal": 16183,
  "vocalis": 25242,
  "voiding": 9339,
  "vol": 9336,
  "volume": 23963,
  "volution": 12329,
  "volvulus": 23964,
  "voste": 16189,
  "vous": 1925,
  "vular": 9335,
  "vulus": 8513,
  "w": 78,
  "wa": 7829,
  "wake": 10218,
  "walled": 10518,
  "wallowing": 9341,
  "wan": 16190,
  "ward": 578,
  "ware": 16197,
  "wasting": 16199,
  "way": 1115,
  "ways": 1940,
  "we": 2960,
  "wear": 12332,
  "wed": 16191,
  "wedge": 12334,
  "week": 21794,
  "weight": 3163,
  "weighted": 3512,
  "weighting": 21917,
  "well": 7830,
  "welling": 11761,
  "went": 3083,
  "wer": 12331,
  "wh": 2187,
  "what": 3644,
  "whatever": 21273,
  "whelm": 16201,
  "when": 9340,
  "where": 4541,
  "which": 3253,
  "while": 21272,
  "white": 13896,
  "whoos": 21274,
  "whoosh": 26199,
  "wide": 16192,
  "wind": 16194,
  "windowing": 25243,
  "wined": 16195,
  "wing": 4540,
  "winged": 14326,
  "winging": 22597,
  "wings": 16196,
  "wire": 10517,
  "wise": 5281,
  "wisting": 16198,
  "with": 6227,
  "within": 12333,
  "without": 23146,
  "wn": 3117,
  "wo": 405,
  "women": 16200,
  "work": 3218,
  "workhor": 21973,
  "workhorse": 26299,
  "worm": 16193,
  "wrist": 10519,
  "ws": 10516,
  "x": 79,
  "xal": 12335,
  "xed": 12336,
  "xia": 6900,
  "xial": 3671,
  "xic": 6899,
  "xide": 9343,
  "xilla": 1614,
  "xillary": 889,
  "xim": 609,
  "ximal": 924,
  "ximally": 13259,
  "xine": 5935,
  "xing": 12337,
  "xious": 12338,
  "xis": 9342,
  "xt": 4983,
  "xture": 10520,
  "xy": 16202,
  "xygenated": 16203,
  "y": 80,
  "ycard": 10523,
  "yce": 16207,
  "ycl": 16212,
  "ycle": 16211,
  "ycomb": 16218,
  "ye": 9344,
  "year": 1702,
  "yed": 5106,
  "yema": 10522,
  "yer": 16204,
  "yet": 16210,
  "yfold": 16216,
  "yg": 459,
  "ygdal": 5508,
  "ygen": 4140,
  "ygenated": 4946,
  "yglucose": 13089,
  "ygmom": 8000,
  "ying": 1625,
  "yl": 1087,
  "ylar": 2239,
  "ylase": 19936,
  "ylate": 19935,
  "yle": 1624,
  "yles": 3118,
  "ylesForearm": 21900,
  "yli": 8516,
  "ylo": 16209,
  "ylohyoid": 5936,
  "yloid": 13541,
  "ylopharyngeus": 16217,
  "ylor": 3427,
  "yloric": 3728,
  "ym": 299,
  "ymal": 12888,
  "ymeatus": 17747,
  "ymen": 6598,
  "ymme": 6599,
  "ymmetrical": 6840,
  "ymp": 386,
  "ympan": 916,
  "ympaniCochlear": 19625,
  "ympanic": 1175,
  "ympathe": 601,
  "ympathetic": 602,
  "ymph": 587,
  "ymphyses": 13247,
  "ymptom": 1870,
  "ymptomatic": 5015,
  "ymptoms": 9875,
  "ymus": 4722,
  "yn": 965,
  "ynamic": 6677,
  "ynd": 3530,
  "ynovial": 4887,
  "yoab": 16219,
  "yoglossus": 16215,
  "yography": 16214,
  "yoid": 836,
  "yon": 16205,
  "yond": 6534,
  "yotomes": 12339,
  "yp": 556,
  "yph": 9345,
  "yphosis": 11854,
  "ypical": 13212,
  "ypneic": 13213,
  "ypogastric": 4464,
  "ypoglossal": 5171,
  "ypoth": 18785,
  "ypts": 18786,
  "yr": 2151,
  "yram": 2481,
  "yramid": 2502,
  "yre": 10521,
  "yrin": 21236,
  "yrnth": 21237,
  "yro": 676,
  "yroid": 782,
  "ys": 338,
  "yses": 6605,
  "ysical": 17913,
  "ysis": 1357,
  "ysm": 2021,
  "ysma": 7135,
  "yst": 6004,
  "ystalline": 23088,
  "ystals": 17914,
  "ystectomy": 9567,
  "ystem": 640,
  "ystemic": 4870,
  "ysterectomy": 6005,
  "ystitis": 14499,
  "ystolic": 11638,
  "ystoscopy": 14500,
  "ytenoid": 16213,
  "yth": 16208,
  "ytic": 7831,
  "yto": 16206,
  "yx": 8515,
  "yz": 6228,
  "yzed": 14521,
  "z": 81,
  "zard": 16224,
  "ze": 10524,
  "zema": 16227,
  "zene": 16226,
  "zi": 16220,
  "zides": 16225,
  "zing": 16222,
  "zion": 16221,
  "zo": 6535,
  "zoa": 7718,
  "zoelect": 14558,
  "zone": 16223,
  "zoneUrethraPeripheral": 25244,
  "zyg": 1004,
  "zygapophysial": 19779,
  "zygos": 2353,
  "zym": 8517,
  "zyme": 23758,
  "zymes": 10241,
  "zzi": 16228,
  "¢": 82,
  "©": 83,
  "«": 84,
  "°": 85,
  "Â": 86,
  "Â°": 3278,
  "Â°)": 11440,
  "Â°).": 21997,
  "Â°,": 14128,
  "Â°.": 21996,
  "Â°âĢĵ": 8954,
  "Ã": 87,
  "Ã©": 12340,
  "Ã«": 12341,
  "â": 88,
  "âĢ": 283,
  "âĢ¢": 1559,
  "âĢĵ": 2095,
  "âĢĶ": 603,
  "âĢĻ": 809,
  "âĢľ": 5497,
  "âĢĿ": 979,
  "âĢĿ)": 4070,
  "âĢĿ),": 6356,
  "âĢĿ).": 8063,
  "âĢĿ):": 19750,
  "âĢĿ)âĢĶ": 19751,
  "âĢĿ:": 19749,
  "Ċ": 89,
  "Ġ": 90,
  "Ġ$": 10525,
  "Ġ(": 156,
  "Ġ(âĢľ": 6255,
  "Ġ)": 5937,
  "Ġ*": 16229,
  "Ġ0": 16230,
  "Ġ1": 1250,
  "Ġ10": 3453,
  "Ġ100": 9992,
  "Ġ1012": 22100,
  "Ġ1019": 22101,
  "Ġ1029": 22103,
  "Ġ1035": 22105,
  "Ġ1041": 22109,
  "Ġ1048": 22106,
  "Ġ105": 22098,
  "Ġ1053": 22102,
  "Ġ1065": 22107,
  "Ġ1077": 22104,
  "Ġ1080": 22108,
  "Ġ109": 22099,
  "Ġ1098": 22110,
  "Ġ11": 6229,
  "Ġ1110": 23147,
  "Ġ1111": 23149,
  "Ġ1112": 23148,
  "Ġ1113": 23151,
  "Ġ1114": 14522,
  "Ġ1115": 23150,
  "Ġ1116": 23152,
  "Ġ1121": 20269,
  "Ġ12": 7832,
  "Ġ120": 9348,
  "Ġ122": 16235,
  "Ġ125": 16236,
  "Ġ126": 16237,
  "Ġ130": 20267,
  "Ġ140": 20265,
  "Ġ15": 8091,
  "Ġ16": 11171,
  "Ġ1724": 20270,
  "Ġ18": 13622,
  "Ġ189": 20266,
  "Ġ1895": 26020,
  "Ġ19": 9794,
  "Ġ1920": 24077,
  "Ġ1930": 24078,
  "Ġ194": 20268,
  "Ġ1946": 26021,
  "Ġ197": 13623,
  "Ġ1970": 24079,
  "Ġ1974": 24834,
  "Ġ1979": 24835,
  "Ġ2": 765,
  "Ġ20": 4064,
  "Ġ2013": 22398,
  "Ġ2015": 11493,
  "Ġ2016": 22399,
  "Ġ2017": 22400,
  "Ġ21": 13353,
  "Ġ212": 19313,
  "Ġ22": 13354,
  "Ġ24": 5762,
  "Ġ241": 13357,
  "Ġ243": 13356,
  "Ġ244": 19318,
  "Ġ247": 19314,
  "Ġ25": 6339,
  "Ġ250": 19316,
  "Ġ260": 19315,
  "Ġ265": 19317,
  "Ġ27": 13355,
  "Ġ28": 19312,
  "Ġ3": 644,
  "Ġ30": 9685,
  "Ġ31": 11026,
  "Ġ32": 19038,
  "Ġ33": 9686,
  "Ġ34": 19039,
  "Ġ347": 19040,
  "Ġ35": 7049,
  "Ġ357": 19042,
  "Ġ36": 13288,
  "Ġ360": 11027,
  "Ġ38": 13289,
  "Ġ398": 19041,
  "Ġ4": 492,
  "Ġ40": 8722,
  "Ġ400": 23826,
  "Ġ412": 18536,
  "Ġ44": 18534,
  "Ġ442": 18544,
  "Ġ443": 18543,
  "Ġ449": 13134,
  "Ġ45": 6635,
  "Ġ451": 18545,
  "Ġ46": 18535,
  "Ġ477": 18537,
  "Ġ48": 13133,
  "Ġ480": 18540,
  "Ġ481": 18546,
  "Ġ485": 18542,
  "Ġ488": 18539,
  "Ġ489": 18538,
  "Ġ490": 18541,
  "Ġ5": 671,
  "Ġ50": 6651,
  "Ġ519": 19131,
  "Ġ52": 11037,
  "Ġ523": 19132,
  "Ġ524": 19133,
  "Ġ53": 19129,
  "Ġ55": 13315,
  "Ġ560": 19134,
  "Ġ566": 19135,
  "Ġ57": 19130,
  "Ġ6": 518,
  "Ġ60": 8731,
  "Ġ600": 23833,
  "Ġ615": 18632,
  "Ġ62": 13166,
  "Ġ622": 18639,
  "Ġ624": 18633,
  "Ġ642": 18642,
  "Ġ644": 18638,
  "Ġ645": 18634,
  "Ġ65": 9649,
  "Ġ659": 18635,
  "Ġ660": 18636,
  "Ġ662": 18640,
  "Ġ663": 18637,
  "Ġ664": 18643,
  "Ġ665": 13167,
  "Ġ67": 18630,
  "Ġ670": 18641,
  "Ġ68": 18631,
  "Ġ7": 512,
  "Ġ70": 9642,
  "Ġ706": 24036,
  "Ġ72": 10958,
  "Ġ730": 18594,
  "Ġ74": 18591,
  "Ġ75": 13152,
  "Ġ766": 18592,
  "Ġ775": 18597,
  "Ġ778": 18595,
  "Ġ788": 18593,
  "Ġ791": 18596,
  "Ġ8": 312,
  "Ġ80": 10834,
  "Ġ810": 17775,
  "Ġ811": 17777,
  "Ġ812": 17776,
  "Ġ813": 17779,
  "Ġ815": 17778,
  "Ġ816": 17780,
  "Ġ817": 12896,
  "Ġ818": 17781,
  "Ġ821": 17782,
  "Ġ865": 17784,
  "Ġ878": 17785,
  "Ġ889": 17783,
  "Ġ897": 17786,
  "Ġ9": 855,
  "Ġ90": 5184,
  "Ġ900": 22842,
  "Ġ92": 19527,
  "Ġ920": 19529,
  "Ġ922": 19532,
  "Ġ95": 19528,
  "Ġ953": 19530,
  "Ġ976": 19535,
  "Ġ980": 19531,
  "Ġ984": 19533,
  "Ġ986": 19536,
  "Ġ991": 19534,
  "Ġ995": 19537,
  "ĠA": 289,
  "ĠABC": 10814,
  "ĠABCDLaryngopharynx": 24299,
  "ĠACA": 10813,
  "ĠACL": 9546,
  "ĠADC": 17636,
  "ĠAICA": 17633,
  "ĠALateral": 17625,
  "ĠAP": 12861,
  "ĠASD": 9545,
  "ĠAb": 3761,
  "ĠAbdomen": 22263,
  "ĠAbdominal": 5245,
  "ĠAbducent": 22262,
  "ĠAbduction": 11479,
  "ĠAbnormal": 22261,
  "ĠAbout": 14210,
  "ĠAbove": 10015,
  "ĠAc": 12862,
  "ĠAcc": 17623,
  "ĠAccess": 5499,
  "ĠAccessory": 7238,
  "ĠAccompan": 17635,
  "ĠAccompanied": 25543,
  "ĠAccurate": 25538,
  "ĠAcetab": 17626,
  "ĠAcetabulum": 25539,
  "ĠAcoustic": 24673,
  "ĠAcquired": 24674,
  "ĠAcross": 17634,
  "ĠActing": 10815,
  "ĠAction": 12864,
  "ĠActions": 24677,
  "ĠActiv": 17629,
  "ĠActivation": 25540,
  "ĠAd": 4344,
  "ĠAdamkiew": 8999,
  "ĠAdamkiewicz": 9186,
  "ĠAdditional": 8262,
  "ĠAdditionally": 10056,
  "ĠAdduction": 22533,
  "ĠAdductor": 14304,
  "ĠAdjacent": 22532,
  "ĠAdjust": 22534,
  "ĠAdjustments": 26375,
  "ĠAdult": 22531,
  "ĠAfferent": 10812,
  "ĠAfter": 3009,
  "ĠAfterward": 21820,
  "ĠAgain": 17637,
  "ĠAgg": 17632,
  "ĠAggressive": 25542,
  "ĠAir": 8667,
  "ĠAl": 2052,
  "ĠAlar": 21206,
  "ĠAll": 3131,
  "ĠAlong": 4279,
  "ĠAlso": 3643,
  "ĠAltering": 21207,
  "ĠAlthough": 4179,
  "ĠAmer": 17631,
  "ĠAmerican": 25541,
  "ĠAmmon": 17638,
  "ĠAmong": 8668,
  "ĠAn": 927,
  "ĠAnal": 13451,
  "ĠAnastomoses": 13455,
  "ĠAnat": 13452,
  "ĠAnatomical": 9737,
  "ĠAnatomy": 3241,
  "ĠAnesthe": 13453,
  "ĠAnesthetic": 15235,
  "ĠAngles": 19639,
  "ĠAnkle": 9735,
  "ĠAnother": 9736,
  "ĠAnsa": 19638,
  "ĠAnterior": 1529,
  "ĠAnteriorArticular": 20686,
  "ĠAnteriorly": 5365,
  "ĠAnterolateral": 7506,
  "ĠAnteromedial": 13454,
  "ĠAnteroposterior": 8795,
  "ĠAnterosuperior": 19637,
  "ĠAnusLesser": 19640,
  "ĠAny": 7505,
  "ĠAortic": 12867,
  "ĠAp": 6281,
  "ĠApart": 17630,
  "ĠApertures": 10816,
  "ĠApex": 23168,
  "ĠApparent": 23169,
  "ĠApproaching": 11655,
  "ĠApproximate": 23171,
  "ĠApproximately": 11654,
  "ĠApproximating": 23170,
  "ĠAr": 2372,
  "ĠArch": 13940,
  "ĠArches": 21421,
  "ĠArching": 21423,
  "ĠArcuate": 21424,
  "ĠAreas": 7963,
  "ĠArising": 13941,
  "ĠArm": 21420,
  "ĠAround": 17624,
  "ĠArranged": 21422,
  "ĠArrangedaround": 26227,
  "ĠArrangement": 9917,
  "ĠArter": 3109,
  "ĠArterial": 4289,
  "ĠArteries": 5235,
  "ĠArtery": 21886,
  "ĠArthroscopy": 13942,
  "ĠArticular": 7589,
  "ĠArytenoid": 21425,
  "ĠAs": 1268,
  "ĠAscending": 20302,
  "ĠAsking": 20301,
  "ĠAspel": 20303,
  "ĠAspelund": 26026,
  "ĠAssess": 13632,
  "ĠAssessing": 15249,
  "ĠAssessment": 9796,
  "ĠAssociated": 7531,
  "ĠAt": 1752,
  "ĠAtlanto": 20916,
  "ĠAtlas": 11253,
  "ĠAttach": 8860,
  "ĠAttaching": 23861,
  "ĠAttachments": 10258,
  "ĠAtypical": 13790,
  "ĠAud": 12865,
  "ĠAuditory": 15189,
  "ĠAur": 12863,
  "ĠAuricle": 24676,
  "ĠAuricular": 24675,
  "ĠAuscultation": 12868,
  "ĠAvascular": 17628,
  "ĠAvoiding": 12869,
  "ĠAx": 2513,
  "ĠAxes": 21519,
  "ĠAxial": 4091,
  "ĠAxilla": 12866,
  "ĠAxillary": 9544,
  "ĠAxis": 11365,
  "ĠAxonal": 13986,
  "ĠAxons": 3987,
  "ĠAzygos": 17627,
  "ĠB": 513,
  "ĠBE": 7031,
  "ĠBabies": 18620,
  "ĠBack": 8726,
  "ĠBall": 18598,
  "ĠBankart": 18617,
  "ĠBarium": 13157,
  "ĠBarret": 13162,
  "ĠBarrett": 15218,
  "ĠBasal": 18600,
  "ĠBase": 13153,
  "ĠBased": 8009,
  "ĠBasic": 13159,
  "ĠBasilar": 18609,
  "ĠBecause": 2684,
  "ĠBecoming": 18618,
  "ĠBefore": 8727,
  "ĠBeginning": 10962,
  "ĠBene": 10960,
  "ĠBeneath": 14985,
  "ĠBenefits": 24338,
  "ĠBenign": 18606,
  "ĠBetween": 5746,
  "ĠBeyond": 13161,
  "ĠBifurcation": 13160,
  "ĠBilateral": 13156,
  "ĠBilaterally": 24742,
  "ĠBile": 18601,
  "ĠBiop": 10961,
  "ĠBiopsies": 14986,
  "ĠBiopsy": 24339,
  "ĠBipolar": 18611,
  "ĠBladder": 13154,
  "ĠBleeding": 8728,
  "ĠBlockage": 13158,
  "ĠBlood": 5166,
  "ĠBlue": 18610,
  "ĠBlunt": 18615,
  "ĠBochdalek": 18614,
  "ĠBody": 18604,
  "ĠBoer": 18616,
  "ĠBoerhaave": 25740,
  "ĠBone": 10959,
  "ĠBones": 5514,
  "ĠBony": 9645,
  "ĠBorders": 9644,
  "ĠBoth": 4253,
  "ĠBound": 6314,
  "ĠBoundaries": 6496,
  "ĠBr": 6313,
  "ĠBrachial": 11657,
  "ĠBrachioradialis": 23188,
  "ĠBrain": 18599,
  "ĠBrainstem": 18603,
  "ĠBranch": 9643,
  "ĠBranches": 3010,
  "ĠBranchial": 24037,
  "ĠBranching": 11873,
  "ĠBreast": 9646,
  "ĠBreasts": 24038,
  "ĠBreathing": 10963,
  "ĠBritis": 18605,
  "ĠBritish": 25736,
  "ĠBroad": 18612,
  "ĠBroadly": 25739,
  "ĠBronch": 8337,
  "ĠBronchial": 23710,
  "ĠBronchiectasis": 23713,
  "ĠBronchopulmonary": 14742,
  "ĠBronchoscopic": 23712,
  "ĠBronchoscopy": 23711,
  "ĠBrown": 18608,
  "ĠBrownian": 25738,
  "ĠBucc": 13155,
  "ĠBuccinator": 15217,
  "ĠBucket": 18613,
  "ĠBulb": 18607,
  "ĠBulbospongiosus": 25737,
  "ĠBundles": 18619,
  "ĠBurs": 18602,
  "ĠBursae": 25735,
  "ĠBy": 6031,
  "ĠC": 371,
  "ĠCA": 7435,
  "ĠCI": 3685,
  "ĠCII": 4850,
  "ĠCIIDens": 22720,
  "ĠCIIDensInferior": 26390,
  "ĠCIII": 7004,
  "ĠCIIILocation": 23386,
  "ĠCIIPosterior": 22719,
  "ĠCIV": 10875,
  "ĠCN": 9581,
  "ĠCNS": 2791,
  "ĠCNXI": 24026,
  "ĠCO": 18112,
  "ĠCSF": 3686,
  "ĠCT": 1831,
  "ĠCV": 9582,
  "ĠCVI": 4727,
  "ĠCVII": 3552,
  "ĠCVIIAcromionSpine": 22167,
  "ĠCVIIIliac": 22165,
  "ĠCVIIMandible": 22168,
  "ĠCVIIMandibleMastoid": 26325,
  "ĠCVIIObliquus": 22166,
  "ĠCalcaneus": 18135,
  "ĠCalf": 18119,
  "ĠCalvaria": 18149,
  "ĠCancer": 18143,
  "ĠCapsule": 18138,
  "ĠCarcinoma": 18140,
  "ĠCardiac": 9584,
  "ĠCare": 7978,
  "ĠCareful": 9153,
  "ĠCarotid": 12995,
  "ĠCarpal": 18133,
  "ĠCase": 18113,
  "ĠCath": 18117,
  "ĠCathode": 25653,
  "ĠCaud": 12992,
  "ĠCaudal": 24710,
  "ĠCaudally": 24711,
  "ĠCav": 18123,
  "ĠCavernous": 18134,
  "ĠCavities": 25657,
  "ĠCecum": 18146,
  "ĠCeliac": 18126,
  "ĠCell": 12987,
  "ĠCenter": 18114,
  "ĠCentral": 18116,
  "ĠCer": 7436,
  "ĠCerebellum": 23494,
  "ĠCerebrospinal": 14665,
  "ĠCertain": 10198,
  "ĠCervical": 8692,
  "ĠCh": 4246,
  "ĠChapter": 5248,
  "ĠCheck": 18139,
  "ĠChem": 18130,
  "ĠChemotherapy": 25660,
  "ĠChest": 6611,
  "ĠChiar": 14282,
  "ĠChiari": 15282,
  "ĠChoanae": 22471,
  "ĠChorda": 14280,
  "ĠChronic": 14281,
  "ĠCiliary": 10874,
  "ĠCirc": 18115,
  "ĠCircling": 25652,
  "ĠCircum": 18131,
  "ĠCircumduction": 25661,
  "ĠCircumflex": 12993,
  "ĠCl": 5157,
  "ĠClassification": 22835,
  "ĠClavicle": 12989,
  "ĠClavicleAcromionPosterior": 24708,
  "ĠClavipectoral": 18128,
  "ĠClawing": 18141,
  "ĠClearly": 10878,
  "ĠClimbing": 22834,
  "ĠClin": 9043,
  "ĠClinical": 14815,
  "ĠClinically": 11836,
  "ĠClitoris": 22832,
  "ĠClose": 9044,
  "ĠClosed": 22831,
  "ĠClosely": 23893,
  "ĠClostr": 22833,
  "ĠClostridium": 26402,
  "ĠCo": 7003,
  "ĠCoWhite": 23384,
  "ĠCoccy": 18120,
  "ĠCoccyx": 25655,
  "ĠCochlea": 23383,
  "ĠCol": 7437,
  "ĠCold": 18121,
  "ĠColds": 25656,
  "ĠCollagen": 23496,
  "ĠCollateral": 23495,
  "ĠCollectively": 9135,
  "ĠColon": 12991,
  "ĠColonoscopy": 24709,
  "ĠComa": 12990,
  "ĠCommon": 6293,
  "ĠCommonly": 11656,
  "ĠComp": 3766,
  "ĠCompact": 22267,
  "ĠCompared": 22268,
  "ĠCompartment": 7193,
  "ĠCompartments": 22270,
  "ĠCompleting": 22269,
  "ĠComponents": 8979,
  "ĠCompression": 14211,
  "ĠComputed": 7192,
  "ĠCon": 3057,
  "ĠConcealing": 21843,
  "ĠConceptual": 21839,
  "ĠConchae": 12996,
  "ĠCond": 12988,
  "ĠCondensations": 24707,
  "ĠConduction": 24706,
  "ĠCondylar": 18127,
  "ĠCones": 18125,
  "ĠConnect": 10876,
  "ĠConnecting": 24317,
  "ĠConnections": 14974,
  "ĠCons": 12986,
  "ĠConscious": 18132,
  "ĠConsequently": 7620,
  "ĠConstrictor": 15201,
  "ĠCont": 6610,
  "ĠContact": 23267,
  "ĠContained": 21838,
  "ĠContaining": 21840,
  "ĠContainment": 21844,
  "ĠContents": 9104,
  "ĠContinu": 21836,
  "ĠContinued": 26278,
  "ĠContinuing": 6762,
  "ĠContinuity": 11424,
  "ĠContract": 21837,
  "ĠContracting": 26279,
  "ĠContraction": 7619,
  "ĠContrary": 21841,
  "ĠControl": 23269,
  "ĠControlled": 23268,
  "ĠControlling": 23270,
  "ĠConverging": 21842,
  "ĠConversely": 9973,
  "ĠCoracobrachialis": 18142,
  "ĠCord": 12985,
  "ĠCorniculate": 18137,
  "ĠCoronal": 4581,
  "ĠCort": 9583,
  "ĠCorti": 10288,
  "ĠCosto": 18129,
  "ĠCostovertebral": 25659,
  "ĠCount": 18124,
  "ĠCounting": 25658,
  "ĠCourse": 6294,
  "ĠCoursing": 23385,
  "ĠCovered": 18136,
  "ĠCranial": 6609,
  "ĠCric": 8691,
  "ĠCrico": 23822,
  "ĠCricoid": 23823,
  "ĠCricothyroid": 11819,
  "ĠCrohn": 18150,
  "ĠCross": 6292,
  "ĠCruciate": 18144,
  "ĠCrura": 18148,
  "ĠCubital": 12994,
[...]
